{"\u0000": 0, "\u0001": 1, "\u0002": 2, "\u0003": 3, "\u0004": 4, "\u0005": 5, "\u0006": 6, "\u0007": 7, "\b": 8, "\t": 9, "\n": 10, "\u000b": 11, "\f": 12, "\r": 13, "\u000e": 14, "\u000f": 15, "\u0010": 16, "\u0011": 17, "\u0012": 18, "\u0013": 19, "\u0014": 20, "\u0015": 21, "\u0016": 22, "\u0017": 23, "\u0018": 24, "\u0019": 25, "\u001a": 26, "\u001b": 27, "\u001c": 28, "\u001d": 29, "\u001e": 30, "\u001f": 31, " ": 32, "!": 33, "\"": 34, "#": 35, "$": 36, "%": 37, "&": 38, "'": 39, "(": 40, ")": 41, "*": 42, "+": 43, ",": 44, "-": 45, ".": 46, "/": 47, "0": 48, "1": 49, "2": 50, "3": 51, "4": 52, "5": 53, "6": 54, "7": 55, "8": 56, "9": 57, ":": 58, ";": 59, "<": 60, "=": 61, ">": 62, "?": 63, "@": 64, "A": 65, "B": 66, "C": 67, "D": 68, "E": 69, "F": 70, "G": 71, "H": 72, "I": 73, "J": 74, "K": 75, "L": 76, "M": 77, "N": 78, "O": 79, "P": 80, "Q": 81, "R": 82, "S": 83, "T": 84, "U": 85, "V": 86, "W": 87, "X": 88, "Y": 89, "Z": 90, "[": 91, "\\": 92, "]": 93, "^": 94, "_": 95, "`": 96, "a": 97, "b": 98, "c": 99, "d": 100, "e": 101, "f": 102, "g": 103, "h": 104, "i": 105, "j": 106, "k": 107, "l": 108, "m": 109, "n": 110, "o": 111, "p": 112, "q": 113, "r": 114, "s": 115, "t": 116, "u": 117, "v": 118, "w": 119, "x": 120, "y": 121, "z": 122, "{": 123, "|": 124, "}": 125, "~": 126, "\u007f": 127, "\u0080": 128, "\u0081": 129, "\u0082": 130, "\u0083": 131, "\u0084": 132, "\u0085": 133, "\u0086": 134, "\u0087": 135, "\u0088": 136, "\u0089": 137, "\u008a": 138, "\u008b": 139, "\u008c": 140, "\u008d": 141, "\u008e": 142, "\u008f": 143, "\u0090": 144, "\u0091": 145, "\u0092": 146, "\u0093": 147, "\u0094": 148, "\u0095": 149, "\u0096": 150, "\u0097": 151, "\u0098": 152, "\u0099": 153, "\u009a": 154, "\u009b": 155, "\u009c": 156, "\u009d": 157, "\u009e": 158, "\u009f": 159, "\u00a0": 160, "\u00a1": 161, "\u00a2": 162, "\u00a3": 163, "\u00a4": 164, "\u00a5": 165, "\u00a6": 166, "\u00a7": 167, "\u00a8": 168, "\u00a9": 169, "\u00aa": 170, "\u00ab": 171, "\u00ac": 172, "\u00ad": 173, "\u00ae": 174, "\u00af": 175, "\u00b0": 176, "\u00b1": 177, "\u00b2": 178, "\u00b3": 179, "\u00b4": 180, "\u00b5": 181, "\u00b6": 182, "\u00b7": 183, "\u00b8": 184, "\u00b9": 185, "\u00ba": 186, "\u00bb": 187, "\u00bc": 188, "\u00bd": 189, "\u00be": 190, "\u00bf": 191, "\u00c0": 192, "\u00c1": 193, "\u00c2": 194, "\u00c3": 195, "\u00c4": 196, "\u00c5": 197, "\u00c6": 198, "\u00c7": 199, "\u00c8": 200, "\u00c9": 201, "\u00ca": 202, "\u00cb": 203, "\u00cc": 204, "\u00cd": 205, "\u00ce": 206, "\u00cf": 207, "\u00d0": 208, "\u00d1": 209, "\u00d2": 210, "\u00d3": 211, "\u00d4": 212, "\u00d5": 213, "\u00d6": 214, "\u00d7": 215, "\u00d8": 216, "\u00d9": 217, "\u00da": 218, "\u00db": 219, "\u00dc": 220, "\u00dd": 221, "\u00de": 222, "\u00df": 223, "\u00e0": 224, "\u00e1": 225, "\u00e2": 226, "\u00e3": 227, "\u00e4": 228, "\u00e5": 229, "\u00e6": 230, "\u00e7": 231, "\u00e8": 232, "\u00e9": 233, "\u00ea": 234, "\u00eb": 235, "\u00ec": 236, "\u00ed": 237, "\u00ee": 238, "\u00ef": 239, "\u00f0": 240, "\u00f1": 241, "\u00f2": 242, "\u00f3": 243, "\u00f4": 244, "\u00f5": 245, "\u00f6": 246, "\u00f7": 247, "\u00f8": 248, "\u00f9": 249, "\u00fa": 250, "\u00fb": 251, "\u00fc": 252, "\u00fd": 253, "\u00fe": 254, "\u00ff": 255, "<|endoftext|>": 256, "<|pad|>": 257, " t": 258, "he": 259, " a": 260, " s": 261, "nd": 262, " w": 263, " the": 264, "ed": 265, " b": 266, " to": 267, " and": 268, " h": 269, " f": 270, "in": 271, " T": 272, " wa": 273, "re": 274, "it": 275, "ou": 276, " l": 277, " d": 278, " c": 279, " p": 280, "ay": 281, " m": 282, "er": 283, " was": 284, "om": 285, " The": 286, " he": 287, "is": 288, "ar": 289, " n": 290, "im": 291, "on": 292, " sa": 293, "id": 294, "ll": 295, " ha": 296, " g": 297, "at": 298, " S": 299, "ing": 300, "ot": 301, "en": 302, "an": 303, "le": 304, "or": 305, "end": 306, "ir": 307, "of": 308, "am": 309, "et": 310, " H": 311, " it": 312, " th": 313, "ig": 314, " They": 315, " in": 316, "il": 317, " pl": 318, " He": 319, " \"": 320, "ow": 321, "ver": 322, "ri": 323, "ut": 324, " be": 325, " u": 326, " said": 327, " play": 328, "ith": 329, " day": 330, " with": 331, "pp": 332, "On": 333, " y": 334, "oo": 335, "ked": 336, " r": 337, " her": 338, "ex": 339, "ce": 340, " I": 341, " She": 342, "ld": 343, " Tim": 344, " his": 345, " st": 346, "ke": 347, " big": 348, "nt": 349, "ck": 350, " you": 351, "very": 352, "st": 353, "ve": 354, " on": 355, "un": 356, " happ": 357, "riend": 358, " friend": 359, "all": 360, "ily": 361, "ext": 362, " L": 363, " they": 364, "oft": 365, " we": 366, " had": 367, " not": 368, " li": 369, " up": 370, "her": 371, " want": 372, " of": 373, "ad": 374, "itt": 375, "|>": 376, "<|": 377, "oftext": 378, "oftext|>": 379, "endoftext|>": 380, "se": 381, " B": 382, " do": 383, " e": 384, " happy": 385, "ent": 386, " very": 387, " M": 388, "es": 389, " that": 390, " saw": 391, "One": 392, "'s": 393, "ould": 394, " mom": 395, " for": 396, " sh": 397, "ittle": 398, " little": 399, " she": 400, "ch": 401, "ime": 402, " nam": 403, ".\"": 404, " time": 405, " k": 406, "ound": 407, " so": 408, " there": 409, " named": 410, " sm": 411, " bo": 412, " were": 413, " Lily": 414, " ne": 415, " wanted": 416, " but": 417, "out": 418, "The": 419, " friends": 420, "ved": 421, "!\"": 422, "ht": 423, " Tom": 424, "ird": 425, "el": 426, " bird": 427, "al": 428, " an": 429, "ake": 430, " too": 431, "ome": 432, " It": 433, "ug": 434, "ide": 435, " went": 436, " wh": 437, " hel": 438, "Once": 439, " is": 440, " all": 441, " help": 442, "ue": 443, " loo": 444, " lo": 445, "ter": 446, " A": 447, " upon": 448, "ry": 449, "ore": 450, "ind": 451, " fun": 452, "get": 453, " toy": 454, "ill": 455, "ame": 456, " as": 457, " at": 458, "ra": 459, " j": 460, " did": 461, "gether": 462, " re": 463, "ur": 464, " o": 465, " se": 466, " together": 467, "ack": 468, " cat": 469, "ly": 470, " tre": 471, "ood": 472, "ic": 473, "ted": 474, " dog": 475, " could": 476, " can": 477, " their": 478, "ard": 479, "ec": 480, "ark": 481, " gir": 482, " played": 483, " him": 484, " ball": 485, "?\"": 486, " girl": 487, " ro": 488, "way": 489, " go": 490, "hed": 491, "my": 492, " are": 493, " out": 494, " le": 495, " fr": 496, "ain": 497, " kn": 498, "hen": 499, " them": 500, "um": 501, "'t": 502, "ax": 503, " sad": 504, "ul": 505, " boy": 506, " tree": 507, "other": 508, " have": 509, " man": 510, " cl": 511, " loved": 512, " looked": 513, "oug": 514, " found": 515, " sp": 516, " star": 517, " Sue": 518, "one": 519, "hing": 520, " sc": 521, " back": 522, "own": 523, " Max": 524, "are": 525, " like": 526, "ful": 527, "side": 528, " me": 529, " bec": 530, " park": 531, "ight": 532, "ong": 533, " car": 534, "op": 535, "elt": 536, " One": 537, " liked": 538, " would": 539, " make": 540, "round": 541, " la": 542, " fa": 543, " felt": 544, "You": 545, " W": 546, "ell": 547, " see": 548, " But": 549, "omet": 550, " asked": 551, "ag": 552, " new": 553, " no": 554, "ice": 555, " Sam": 556, "ouse": 557, " started": 558, "ared": 559, " came": 560, " Ben": 561, " al": 562, " other": 563, "ought": 564, "iled": 565, " somet": 566, " ag": 567, " good": 568, " small": 569, "ss": 570, " br": 571, " smiled": 572, " say": 573, "ried": 574, "ade": 575, "ings": 576, "ob": 577, "pot": 578, " wor": 579, " find": 580, "ia": 581, " away": 582, "ty": 583, " put": 584, " ex": 585, " what": 586, " something": 587, " from": 588, " made": 589, " thought": 590, "ened": 591, " home": 592, " playing": 593, " co": 594, "ook": 595, " every": 596, " wal": 597, " mu": 598, "uc": 599, "ach": 600, "arn": 601, " Spot": 602, " ran": 603, "ile": 604, " F": 605, "ie": 606, " J": 607, "ave": 608, " again": 609, " some": 610, " laug": 611, "dd": 612, " house": 613, " down": 614, " fl": 615, "king": 616, " took": 617, " scared": 618, " pr": 619, "ny": 620, "ure": 621, " toys": 622, " learn": 623, " You": 624, "if": 625, " will": 626, " box": 627, "ick": 628, "ret": 629, "ab": 630, "ep": 631, " my": 632, " around": 633, " things": 634, " your": 635, "oud": 636, " bl": 637, "uck": 638, " when": 639, "ish": 640, " lived": 641, " fe": 642, " then": 643, " sun": 644, "as": 645, " sw": 646, ",\"": 647, " ch": 648, "us": 649, "pped": 650, " ab": 651, " Mia": 652, "ank": 653, " get": 654, "ucy": 655, "Tim": 656, "ump": 657, "Th": 658, " lot": 659, "ist": 660, "oth": 661, " tried": 662, "ap": 663, " know": 664, " says": 665, " got": 666, "ited": 667, " who": 668, " kne": 669, "ust": 670, " many": 671, "nder": 672, " int": 673, " about": 674, "Lily": 675, " pret": 676, " dec": 677, " any": 678, " red": 679, " D": 680, "ive": 681, " knew": 682, "ace": 683, "ous": 684, " more": 685, "ise": 686, " v": 687, " care": 688, "ally": 689, " pic": 690, "au": 691, "qu": 692, " hug": 693, " Lucy": 694, " learned": 695, " po": 696, " water": 697, "fter": 698, " became": 699, " best": 700, "ause": 701, " op": 702, " gre": 703, " exc": 704, "urp": 705, "ways": 706, "\u00e2\u0080": 707, " outside": 708, " laughed": 709, " look": 710, " always": 711, " decid": 712, " show": 713, " un": 714, "ant": 715, " Bob": 716, " room": 717, "fe": 718, " decided": 719, " ho": 720, " because": 721, " into": 722, " So": 723, " eat": 724, "ite": 725, " jump": 726, " And": 727, " pe": 728, " both": 729, "ers": 730, " Mom": 731, " dad": 732, "They": 733, "udd": 734, " ke": 735, " one": 736, "nn": 737, " this": 738, " excited": 739, " fast": 740, " nice": 741, " E": 742, " feel": 743, "Tom": 744, "Yes": 745, " run": 746, " long": 747, " told": 748, " sk": 749, " am": 750, "urpr": 751, "our": 752, " inside": 753, "ull": 754, " tr": 755, " surpr": 756, " mo": 757, "ink": 758, " pretty": 759, "iny": 760, " sor": 761, "Wh": 762, " take": 763, "og": 764, " sl": 765, " each": 766, " gave": 767, " much": 768, " gra": 769, "lew": 770, "nna": 771, " rock": 772, " how": 773, " str": 774, "ara": 775, "imal": 776, " animal": 777, "ged": 778, " need": 779, " than": 780, "But": 781, "ven": 782, "etter": 783, " tow": 784, " or": 785, " C": 786, " under": 787, "ess": 788, " old": 789, " sorry": 790, "ge": 791, "ised": 792, "ro": 793, "urt": 794, " cle": 795, " fish": 796, " walked": 797, " clo": 798, "and": 799, " bear": 800, "ase": 801, "ast": 802, " hand": 803, "urn": 804, " We": 805, " kind": 806, " His": 807, "here": 808, " happened": 809, " just": 810, " flow": 811, " food": 812, " list": 813, " didn": 814, " te": 815, " animals": 816, " hig": 817, "pl": 818, " near": 819, " wat": 820, " ide": 821, " try": 822, "ched": 823, " sky": 824, "ine": 825, " sn": 826, "ving": 827, " fi": 828, "rom": 829, " us": 830, " idea": 831, " better": 832, " Amy": 833, " bug": 834, " heard": 835, "gry": 836, " its": 837, " tw": 838, " let": 839, "pec": 840, "ate": 841, "able": 842, "ff": 843, " en": 844, " careful": 845, " share": 846, " if": 847, "Thank": 848, "Mom": 849, " fly": 850, " stor": 851, "ial": 852, " flew": 853, "more": 854, " anymore": 855, " Th": 856, " spec": 857, " special": 858, "ion": 859, " com": 860, " lots": 861, " never": 862, " by": 863, "lf": 864, "ream": 865, " dan": 866, " bu": 867, " fo": 868, " wind": 869, " don": 870, " tal": 871, " clean": 872, "ort": 873, " gr": 874, " love": 875, "rm": 876, "ber": 877, " end": 878, "\n\n": 879, " Then": 880, "ople": 881, " even": 882, " mag": 883, " hard": 884, " shiny": 885, "udden": 886, " fore": 887, " over": 888, " cake": 889, "ak": 890, " book": 891, " col": 892, " turn": 893, " fam": 894, " bad": 895, " safe": 896, " after": 897, "ady": 898, " Anna": 899, "uddenly": 900, " people": 901, " proud": 902, " Every": 903, " surprised": 904, "pected": 905, "Let": 906, " high": 907, " cu": 908, " hurt": 909, " come": 910, "imb": 911, "arden": 912, " door": 913, " garden": 914, "bb": 915, " ground": 916, " opened": 917, " picked": 918, " loud": 919, " climb": 920, "expected": 921, " unexpected": 922, " gl": 923, " che": 924, "ild": 925, " im": 926, "As": 927, " give": 928, " way": 929, "ail": 930, "'m": 931, " thanked": 932, " color": 933, " blue": 934, " still": 935, " ever": 936, " hugged": 937, " From": 938, " call": 939, " far": 940, "ip": 941, " Her": 942, " Sara": 943, " When": 944, "No": 945, " off": 946, " magic": 947, "iz": 948, "ough": 949, "age": 950, "ummy": 951, " K": 952, " jumped": 953, " should": 954, " family": 955, " par": 956, "ool": 957, " kid": 958, " smile": 959, "hes": 960, "uff": 961, " place": 962, "kay": 963, " walk": 964, " now": 965, "ct": 966, " In": 967, " great": 968, "em": 969, " qu": 970, "les": 971, " strong": 972, " stay": 973, " unt": 974, " sto": 975, "aut": 976, " forest": 977, "ture": 978, "ane": 979, " bra": 980, "itty": 981, " P": 982, " frog": 983, " bro": 984, " until": 985, "oon": 986, " beaut": 987, "dy": 988, " squ": 989, " stick": 990, " next": 991, " boat": 992, "lease": 993, "ning": 994, " happily": 995, " listen": 996, "aking": 997, " kids": 998, " tra": 999, "ies": 1000, "iful": 1001, " beautiful": 1002, " app": 1003, "th": 1004, " helped": 1005, " dra": 1006, " showed": 1007, " clos": 1008, "be": 1009, " imp": 1010, " story": 1011, "unny": 1012, "oy": 1013, " while": 1014, " town": 1015, "rel": 1016, "pt": 1017, " rain": 1018, "ress": 1019, " picture": 1020, " being": 1021, " rem": 1022, " everyone": 1023, "It": 1024, "ary": 1025, "ree": 1026, " mor": 1027, " hat": 1028, " called": 1029, " met": 1030, " stopped": 1031, " ad": 1032, " game": 1033, "Now": 1034, "He": 1035, " wo": 1036, "Can": 1037, " angry": 1038, "ger": 1039, "uffy": 1040, " soft": 1041, " open": 1042, " truck": 1043, " keep": 1044, "When": 1045, " cry": 1046, " yummy": 1047, " lost": 1048, " bed": 1049, " Let": 1050, " Sally": 1051, " warm": 1052, "by": 1053, "vent": 1054, " brave": 1055, " mouse": 1056, " Wh": 1057, " ate": 1058, " Kitty": 1059, "ished": 1060, " de": 1061, "fore": 1062, " doll": 1063, "so": 1064, " couldn": 1065, " watch": 1066, " leave": 1067, " also": 1068, "dded": 1069, " fell": 1070, " green": 1071, " face": 1072, " two": 1073, "gan": 1074, "iss": 1075, " flowers": 1076, "bit": 1077, "What": 1078, " R": 1079, "ble": 1080, " noise": 1081, "abbit": 1082, "irst": 1083, "owl": 1084, " where": 1085, "az": 1086, "ock": 1087, " soon": 1088, "self": 1089, " slide": 1090, " rabbit": 1091, " hole": 1092, "luffy": 1093, " before": 1094, "irrel": 1095, " pus": 1096, "ired": 1097, " sat": 1098, "illy": 1099, " hear": 1100, " use": 1101, "\u00e2\u0080\u009d": 1102, "Hi": 1103, " pa": 1104, " kept": 1105, "\u00e2\u0080\u009c": 1106, "That": 1107, " squirrel": 1108, "ear": 1109, "Then": 1110, "ma": 1111, " nodded": 1112, " expl": 1113, " store": 1114, " cook": 1115, " hands": 1116, "Look": 1117, " birds": 1118, " pain": 1119, " going": 1120, " funny": 1121, " having": 1122, "day": 1123, " sing": 1124, "aybe": 1125, "uch": 1126, " ey": 1127, "aug": 1128, " catch": 1129, "aught": 1130, " Can": 1131, " Fluffy": 1132, "uit": 1133, " yell": 1134, " think": 1135, "leep": 1136, " cra": 1137, " fin": 1138, "Ben": 1139, " bre": 1140, " fix": 1141, " tired": 1142, " bunny": 1143, " used": 1144, " looking": 1145, " bus": 1146, "ange": 1147, "air": 1148, " work": 1149, " wr": 1150, "ting": 1151, " our": 1152, " pull": 1153, "We": 1154, " thr": 1155, "thing": 1156, " Now": 1157, " wait": 1158, " kit": 1159, " sound": 1160, " jo": 1161, " has": 1162, " G": 1163, " mean": 1164, " pond": 1165, "ember": 1166, " beh": 1167, " dr": 1168, " sunny": 1169, "led": 1170, " others": 1171, " ask": 1172, "ng": 1173, "chen": 1174, " kitchen": 1175, " talk": 1176, " flo": 1177, " dif": 1178, "rew": 1179, " pie": 1180, " Jo": 1181, " head": 1182, " real": 1183, " first": 1184, " tri": 1185, " mommy": 1186, " eyes": 1187, "ello": 1188, " import": 1189, "Hello": 1190, " fav": 1191, "ath": 1192, "joy": 1193, " z": 1194, " remember": 1195, " right": 1196, " flower": 1197, " con": 1198, " mess": 1199, " party": 1200, " cold": 1201, " Do": 1202, " vo": 1203, " swe": 1204, "ious": 1205, "ft": 1206, " sand": 1207, " \u00e2\u0080\u009c": 1208, "ac": 1209, "orn": 1210, " race": 1211, " curi": 1212, "imes": 1213, " important": 1214, " duck": 1215, " moral": 1216, " shared": 1217, "zy": 1218, "ount": 1219, " Jack": 1220, " ice": 1221, " okay": 1222, " advent": 1223, " worked": 1224, "llow": 1225, "At": 1226, " enjoy": 1227, " dress": 1228, " bright": 1229, " making": 1230, " curious": 1231, " own": 1232, "ded": 1233, " tall": 1234, " dir": 1235, " hop": 1236, "reed": 1237, " hid": 1238, " favor": 1239, " ri": 1240, "hn": 1241, " sleep": 1242, " dis": 1243, "Wow": 1244, " favorite": 1245, " thing": 1246, " began": 1247, " mon": 1248, " bag": 1249, " hill": 1250, "Don": 1251, " cla": 1252, " draw": 1253, " rest": 1254, " here": 1255, " yard": 1256, " tell": 1257, " Fin": 1258, "ster": 1259, " watched": 1260, "que": 1261, " follow": 1262, " move": 1263, " bel": 1264, "ect": 1265, " cut": 1266, " night": 1267, " agreed": 1268, " pick": 1269, "co": 1270, " block": 1271, " hun": 1272, "aper": 1273, "lly": 1274, " stop": 1275, " behind": 1276, " This": 1277, " surprise": 1278, "ied": 1279, " sho": 1280, " hot": 1281, "After": 1282, " table": 1283, " grass": 1284, " worry": 1285, " dark": 1286, " trees": 1287, " voice": 1288, " walking": 1289, "ede": 1290, "fere": 1291, " floor": 1292, " farm": 1293, " lion": 1294, " top": 1295, " differe": 1296, " please": 1297, " ru": 1298, " song": 1299, " butter": 1300, " tail": 1301, " sweet": 1302, "Max": 1303, " shout": 1304, " colors": 1305, " read": 1306, " Dad": 1307, " lady": 1308, " forg": 1309, "isy": 1310, " leaves": 1311, " closer": 1312, "ign": 1313, " cars": 1314, " turned": 1315, " needed": 1316, " tast": 1317, "Why": 1318, "aring": 1319, " wood": 1320, " cried": 1321, " different": 1322, " laugh": 1323, " del": 1324, " piece": 1325, "\u00e2\u0080\u0099": 1326, "ered": 1327, " Mr": 1328, " roll": 1329, " adventure": 1330, " fire": 1331, " does": 1332, "ike": 1333, " cr": 1334, " hungry": 1335, " hair": 1336, " Suddenly": 1337, " paper": 1338, " feeling": 1339, " yellow": 1340, " full": 1341, " prin": 1342, "bo": 1343, "Sue": 1344, " touch": 1345, " As": 1346, "Anna": 1347, "Sam": 1348, " wet": 1349, " friendly": 1350, " per": 1351, "oom": 1352, "ken": 1353, "cked": 1354, "ached": 1355, " swing": 1356, " fruit": 1357, "ient": 1358, " broken": 1359, " ready": 1360, "bye": 1361, "ppy": 1362, " prom": 1363, " That": 1364, " another": 1365, " light": 1366, " pretend": 1367, " dance": 1368, "ater": 1369, " climbed": 1370, "where": 1371, " listened": 1372, " Bobo": 1373, " danc": 1374, " running": 1375, " only": 1376, " plan": 1377, " gone": 1378, " swim": 1379, "bbed": 1380, "Suddenly": 1381, "sh": 1382, " train": 1383, "ila": 1384, "ndma": 1385, "Sara": 1386, " Jane": 1387, " close": 1388, "av": 1389, "She": 1390, " smell": 1391, "aby": 1392, " amaz": 1393, "So": 1394, " hold": 1395, " blocks": 1396, " wonder": 1397, " Timmy": 1398, " repl": 1399, " All": 1400, " butterf": 1401, " sees": 1402, " reached": 1403, " wall": 1404, " pu": 1405, "oney": 1406, "red": 1407, " slow": 1408, " helping": 1409, " dri": 1410, " cream": 1411, " cool": 1412, " glad": 1413, "af": 1414, " ant": 1415, " less": 1416, "ging": 1417, " been": 1418, " goodbye": 1419, " ac": 1420, " fight": 1421, "ather": 1422, "Mia": 1423, " pushed": 1424, "iced": 1425, " fair": 1426, " must": 1427, " hide": 1428, " moment": 1429, " window": 1430, " O": 1431, " sit": 1432, " balloon": 1433, " snow": 1434, " child": 1435, " explore": 1436, " Everyone": 1437, " ar": 1438, " wished": 1439, " baby": 1440, " done": 1441, " wag": 1442, " ste": 1443, " buy": 1444, " stuck": 1445, " perf": 1446, " thank": 1447, " might": 1448, "icy": 1449, " name": 1450, "ized": 1451, " trying": 1452, " bit": 1453, " coming": 1454, " bar": 1455, " quick": 1456, " fall": 1457, " apple": 1458, "ash": 1459, " scary": 1460, " looks": 1461, " build": 1462, " doing": 1463, " win": 1464, " underst": 1465, "aisy": 1466, " din": 1467, " dream": 1468, " dirty": 1469, " held": 1470, "ames": 1471, " books": 1472, " mar": 1473, "In": 1474, " butterfly": 1475, " left": 1476, " shouted": 1477, " count": 1478, " replied": 1479, "avy": 1480, " reach": 1481, " tiny": 1482, " through": 1483, "ott": 1484, " dro": 1485, " why": 1486, " air": 1487, " bran": 1488, " land": 1489, "key": 1490, " three": 1491, " pulled": 1492, " spl": 1493, " grow": 1494, " treat": 1495, " brother": 1496, " wise": 1497, " woods": 1498, " sure": 1499, "'re": 1500, " chair": 1501, "ix": 1502, " mat": 1503, "ins": 1504, " seen": 1505, " pink": 1506, " clapped": 1507, " plant": 1508, "ely": 1509, " owl": 1510, " cup": 1511, "ield": 1512, " sometimes": 1513, "andy": 1514, " fill": 1515, " cloud": 1516, "ask": 1517, " swam": 1518, "outh": 1519, " job": 1520, " colorful": 1521, " remembered": 1522, " bigger": 1523, " nest": 1524, " mouth": 1525, "pe": 1526, "Okay": 1527, " lesson": 1528, " join": 1529, " cre": 1530, "ph": 1531, " There": 1532, "oup": 1533, "room": 1534, "art": 1535, " waved": 1536, "uddy": 1537, " grabbed": 1538, " stayed": 1539, "Oh": 1540, " paint": 1541, "This": 1542, " clot": 1543, " cont": 1544, " clothes": 1545, "ower": 1546, " After": 1547, " waited": 1548, " quickly": 1549, "cle": 1550, " word": 1551, " broke": 1552, "ucky": 1553, " games": 1554, " cast": 1555, " blew": 1556, " gent": 1557, " Mommy": 1558, " enjoyed": 1559, " noticed": 1560, "Jo": 1561, "ries": 1562, "ation": 1563, " set": 1564, " likes": 1565, " pictures": 1566, "ton": 1567, " sea": 1568, " heavy": 1569, " mus": 1570, " alone": 1571, " gif": 1572, "asure": 1573, " anything": 1574, " spot": 1575, " miss": 1576, " hopped": 1577, " world": 1578, " turns": 1579, "orm": 1580, " year": 1581, "der": 1582, " bott": 1583, " pat": 1584, " pot": 1585, " pen": 1586, "lc": 1587, "Her": 1588, " mix": 1589, " arm": 1590, " bike": 1591, " tight": 1592, " everywhere": 1593, " won": 1594, "Lucy": 1595, " tower": 1596, " threw": 1597, " himself": 1598, " followed": 1599, " Buddy": 1600, " ride": 1601, "man": 1602, "less": 1603, " ju": 1604, " je": 1605, "amp": 1606, "Bob": 1607, "ape": 1608, " comp": 1609, " key": 1610, "row": 1611, "\".": 1612, " white": 1613, "ctor": 1614, " wrong": 1615, "ini": 1616, " Daisy": 1617, " makes": 1618, " What": 1619, " break": 1620, " black": 1621, "arent": 1622, "ee": 1623, "ner": 1624, "Spot": 1625, "Do": 1626, " deep": 1627, "thy": 1628, " music": 1629, " pol": 1630, " delic": 1631, "nin": 1632, "cess": 1633, "ued": 1634, " forgot": 1635, " bee": 1636, " parent": 1637, " castle": 1638, "ves": 1639, "olly": 1640, " em": 1641, "ingin": 1642, "iet": 1643, " wear": 1644, " hit": 1645, " ve": 1646, "ister": 1647, "oun": 1648, " quiet": 1649, " round": 1650, "ance": 1651, " stu": 1652, " danced": 1653, " vis": 1654, "ully": 1655, " wants": 1656, " leaf": 1657, " monster": 1658, " nap": 1659, " John": 1660, " understand": 1661, " bowl": 1662, "os": 1663, "rot": 1664, "ren": 1665, " bor": 1666, " talked": 1667, "itten": 1668, " dry": 1669, " faster": 1670, " cookies": 1671, " brought": 1672, "fully": 1673, " leg": 1674, "ross": 1675, " mum": 1676, "zz": 1677, " side": 1678, "ts": 1679, "From": 1680, " sign": 1681, " Inside": 1682, " smart": 1683, "ang": 1684, "cy": 1685, " rocks": 1686, " someone": 1687, "His": 1688, " poin": 1689, " sec": 1690, " sharing": 1691, " fox": 1692, " well": 1693, " res": 1694, " rel": 1695, " happen": 1696, " button": 1697, " branch": 1698, " Lila": 1699, " really": 1700, " finished": 1701, "ence": 1702, "ards": 1703, " dinner": 1704, " sister": 1705, " flying": 1706, "eddy": 1707, " contin": 1708, " worried": 1709, " ele": 1710, " To": 1711, " visit": 1712, " Maybe": 1713, " beach": 1714, " que": 1715, " secret": 1716, " el": 1717, " Sarah": 1718, " king": 1719, "John": 1720, "gy": 1721, " today": 1722, " perfect": 1723, " river": 1724, " everything": 1725, " silly": 1726, " Joe": 1727, " danger": 1728, "ipp": 1729, " children": 1730, " gu": 1731, " Soon": 1732, " field": 1733, " filled": 1734, " fur": 1735, " else": 1736, " smiles": 1737, " welc": 1738, " At": 1739, " shin": 1740, " wish": 1741, " Em": 1742, "While": 1743, " sang": 1744, " gi": 1745, "ze": 1746, " pudd": 1747, " snack": 1748, " eating": 1749, " realized": 1750, " pieces": 1751, " promised": 1752, " spr": 1753, " pig": 1754, " free": 1755, " continued": 1756, " bite": 1757, "ead": 1758, " parents": 1759, " carefully": 1760, "ated": 1761, "itting": 1762, " ear": 1763, "Just": 1764, " jar": 1765, "Maybe": 1766, " cow": 1767, "Amy": 1768, " blank": 1769, " drag": 1770, "stead": 1771, " orange": 1772, " mud": 1773, " crying": 1774, " blanket": 1775, " enough": 1776, " rolled": 1777, "cket": 1778, " soup": 1779, " sail": 1780, " purp": 1781, "imi": 1782, " yes": 1783, "ale": 1784, " drink": 1785, " snake": 1786, "ses": 1787, " boun": 1788, " pet": 1789, " crab": 1790, " throw": 1791, " laughing": 1792, " fairy": 1793, " words": 1794, " amazing": 1795, " bath": 1796, "ich": 1797, " purple": 1798, " Z": 1799, " without": 1800, "ire": 1801, "ana": 1802, " bottle": 1803, "ord": 1804, " Billy": 1805, " gift": 1806, " grandma": 1807, "Fin": 1808, "used": 1809, "ons": 1810, " past": 1811, " money": 1812, "iver": 1813, "fort": 1814, " mail": 1815, " Gra": 1816, " barked": 1817, " wagged": 1818, " att": 1819, "chool": 1820, " monkey": 1821, " doctor": 1822, "unch": 1823, " brown": 1824, " moved": 1825, "ises": 1826, " asks": 1827, " getting": 1828, " closed": 1829, " whe": 1830, " welcome": 1831, " su": 1832, " candy": 1833, " school": 1834, " morning": 1835, " owner": 1836, " lon": 1837, " mother": 1838, " higher": 1839, " sitting": 1840, " treasure": 1841, ".\u00e2\u0080\u009d": 1842, " smo": 1843, "!\u00e2\u0080\u009d": 1844, "gg": 1845, " dangerous": 1846, " lonely": 1847, " Ch": 1848, " living": 1849, " apples": 1850, "ush": 1851, " shop": 1852, "ased": 1853, " strange": 1854, "vel": 1855, " shining": 1856, " road": 1857, "ere": 1858, " Tommy": 1859, " creat": 1860, "una": 1861, " paw": 1862, "ey": 1863, " ra": 1864, " shoes": 1865, " pre": 1866, "ible": 1867, " -": 1868, " stre": 1869, " talking": 1870, "althy": 1871, " caught": 1872, " egg": 1873, "ol": 1874, " pass": 1875, " lake": 1876, " runs": 1877, " buck": 1878, " letter": 1879, " wings": 1880, " chee": 1881, "fish": 1882, " mad": 1883, " fan": 1884, "asket": 1885, " basket": 1886, "ass": 1887, " dragon": 1888, "app": 1889, "est": 1890, "Mommy": 1891, "set": 1892, "cks": 1893, " stone": 1894, " thinks": 1895, " stand": 1896, " delicious": 1897, " nose": 1898, " puddle": 1899, " tom": 1900, " Bl": 1901, " Mimi": 1902, " belie": 1903, " sam": 1904, " farmer": 1905, " same": 1906, " years": 1907, "board": 1908, " teddy": 1909, " bat": 1910, "isk": 1911, "itch": 1912, " mine": 1913, " sear": 1914, " coat": 1915, "ches": 1916, "igh": 1917, " days": 1918, " bring": 1919, " gentle": 1920, " fit": 1921, " start": 1922, " finally": 1923, " whist": 1924, " cray": 1925, " scream": 1926, " kite": 1927, " pill": 1928, "phant": 1929, "arm": 1930, " vill": 1931, "gly": 1932, " cho": 1933, " singing": 1934, "ella": 1935, "sw": 1936, "ined": 1937, " tasty": 1938, " ph": 1939, " ben": 1940, " trou": 1941, " shell": 1942, " herself": 1943, " hoped": 1944, " answ": 1945, " wore": 1946, " swings": 1947, "sy": 1948, " hor": 1949, " belong": 1950, "Please": 1951, " push": 1952, " bush": 1953, "iskers": 1954, " carrot": 1955, " arri": 1956, "aughty": 1957, " teach": 1958, "bow": 1959, "ract": 1960, " naughty": 1961, " elephant": 1962, " dropped": 1963, " shap": 1964, " coll": 1965, "sc": 1966, " teac": 1967, "emy": 1968, " woke": 1969, "ball": 1970, " pile": 1971, " hiding": 1972, " cour": 1973, "isa": 1974, "erry": 1975, " touc": 1976, " puppy": 1977, "'ll": 1978, " seem": 1979, "ier": 1980, "llie": 1981, " min": 1982, " twins": 1983, "ama": 1984, " lunch": 1985, " bow": 1986, " sack": 1987, " pers": 1988, " course": 1989, " cheered": 1990, " shapes": 1991, " Jen": 1992, " grew": 1993, "fused": 1994, " rope": 1995, " village": 1996, "irth": 1997, "irthday": 1998, " juice": 1999, "ipped": 2000, " rainbow": 2001, " spin": 2002, "OK": 2003, " shook": 2004, "Jack": 2005, " spoon": 2006, " bench": 2007, " street": 2008, " fence": 2009, " Fred": 2010, " rob": 2011, " nut": 2012, " cheese": 2013, " prob": 2014, " cute": 2015, " touched": 2016, "idge": 2017, "col": 2018, " joy": 2019, " Whiskers": 2020, " arrived": 2021, " seed": 2022, " war": 2023, " teacher": 2024, " corn": 2025, "Good": 2026, " forever": 2027, " able": 2028, " bell": 2029, " few": 2030, " carry": 2031, " most": 2032, " plane": 2033, " Blue": 2034, "lem": 2035, " eas": 2036, " sounds": 2037, "lla": 2038, " des": 2039, " spo": 2040, " problem": 2041, " birthday": 2042, " power": 2043, " inc": 2044, "umb": 2045, "br": 2046, "\n ": 2047, " bugs": 2048, "ilk": 2049, " wonderful": 2050, " dolls": 2051, " busy": 2052, "ato": 2053, "irp": 2054, "eb": 2055, " wra": 2056, " promise": 2057, " Thank": 2058, " feels": 2059, " Emma": 2060, "eter": 2061, " bread": 2062, " neck": 2063, "Finally": 2064, " milk": 2065, " robot": 2066, " rec": 2067, "ian": 2068, " shy": 2069, "ountain": 2070, " kiss": 2071, "irt": 2072, " heart": 2073, " band": 2074, " cave": 2075, " pocket": 2076, "ub": 2077, " helpful": 2078, " slowly": 2079, " believe": 2080, " shake": 2081, "umpy": 2082, "eared": 2083, " patient": 2084, " pop": 2085, " ob": 2086, "arp": 2087, " live": 2088, " storm": 2089, " holding": 2090, " ugly": 2091, " towards": 2092, " upset": 2093, " turt": 2094, " shr": 2095, "adow": 2096, " cover": 2097, " kitten": 2098, "ost": 2099, " Remy": 2100, " sharp": 2101, " disapp": 2102, " stories": 2103, " suc": 2104, " honey": 2105, "ove": 2106, " Bella": 2107, "read": 2108, " noises": 2109, " Le": 2110, " cir": 2111, " balls": 2112, " spark": 2113, " gray": 2114, " dist": 2115, " dirt": 2116, "oggy": 2117, " late": 2118, " driver": 2119, "gle": 2120, " seat": 2121, " bucket": 2122, " meet": 2123, " young": 2124, " amazed": 2125, "alm": 2126, " turtle": 2127, " spid": 2128, " treats": 2129, " magical": 2130, "unt": 2131, "ator": 2132, " glow": 2133, " seek": 2134, " zoom": 2135, " lem": 2136, " sandw": 2137, "fortable": 2138, "umber": 2139, " trip": 2140, " mist": 2141, "ourn": 2142, " splas": 2143, " mark": 2144, " journ": 2145, " fold": 2146, " mach": 2147, " puzz": 2148, " part": 2149, "ling": 2150, " horse": 2151, " organ": 2152, " wild": 2153, " princess": 2154, "pping": 2155, "oose": 2156, " cookie": 2157, "Sure": 2158, "ens": 2159, " hugs": 2160, " Mark": 2161, " taking": 2162, " wheel": 2163, "epend": 2164, " cloth": 2165, " Lisa": 2166, " sug": 2167, " instead": 2168, " bubb": 2169, " string": 2170, " rud": 2171, " net": 2172, " drove": 2173, "iling": 2174, " rude": 2175, " huge": 2176, " Jim": 2177, " coin": 2178, " stars": 2179, " fighting": 2180, " spicy": 2181, " lucky": 2182, "Be": 2183, "Of": 2184, " craw": 2185, "Hey": 2186, " bone": 2187, " inv": 2188, " Grandma": 2189, "ors": 2190, "not": 2191, " ca": 2192, "pper": 2193, " forget": 2194, "up": 2195, " di": 2196, "aur": 2197, " sal": 2198, " Finally": 2199, " cannot": 2200, " whistle": 2201, " card": 2202, " sick": 2203, " path": 2204, " cou": 2205, " spider": 2206, " wide": 2207, "Lila": 2208, " foot": 2209, " snowman": 2210, " songs": 2211, " life": 2212, " pillow": 2213, "ize": 2214, "ular": 2215, " Just": 2216, "Later": 2217, " Ann": 2218, "ert": 2219, " fixed": 2220, " giant": 2221, "oph": 2222, "rill": 2223, " nod": 2224, " boss": 2225, " last": 2226, " comes": 2227, " joke": 2228, " moon": 2229, " taste": 2230, " machine": 2231, " grumpy": 2232, "den": 2233, " wave": 2234, " thin": 2235, " drive": 2236, " cart": 2237, " ash": 2238, " ser": 2239, " grab": 2240, " peace": 2241, "lower": 2242, " daddy": 2243, " On": 2244, " Leo": 2245, "ery": 2246, " sel": 2247, " shelf": 2248, " hidden": 2249, "erest": 2250, " suddenly": 2251, " wasn": 2252, " write": 2253, " landed": 2254, " confused": 2255, " ring": 2256, " change": 2257, " worm": 2258, "oop": 2259, " interest": 2260, " chased": 2261, " fruits": 2262, " sour": 2263, "ity": 2264, " myster": 2265, " bark": 2266, " rad": 2267, " smooth": 2268, " Come": 2269, " adventures": 2270, " val": 2271, " stepped": 2272, " fle": 2273, "ope": 2274, " oven": 2275, " takes": 2276, " missed": 2277, " selfish": 2278, "kin": 2279, " sheep": 2280, " messy": 2281, " across": 2282, "To": 2283, " ban": 2284, " ent": 2285, " exp": 2286, "to": 2287, " ce": 2288, " later": 2289, "elly": 2290, " N": 2291, "ife": 2292, " sticks": 2293, " tie": 2294, "St": 2295, "ever": 2296, " Luna": 2297, " step": 2298, " bought": 2299, " drew": 2300, " tea": 2301, "pect": 2302, "irpy": 2303, "box": 2304, "?\u00e2\u0080\u009d": 2305, " wash": 2306, " lay": 2307, " pour": 2308, " beak": 2309, "ose": 2310, " jog": 2311, " grate": 2312, " ducks": 2313, " spe": 2314, " legs": 2315, " dig": 2316, " fil": 2317, " Bu": 2318, " emp": 2319, "mer": 2320, " hope": 2321, " empty": 2322, " slid": 2323, " feather": 2324, " sleepy": 2325, " drum": 2326, "amed": 2327, "ars": 2328, "eth": 2329, " zoo": 2330, " pan": 2331, " phone": 2332, " grateful": 2333, " fing": 2334, "ions": 2335, " lemon": 2336, "let": 2337, " Cat": 2338, " clever": 2339, " Molly": 2340, " smelly": 2341, "nan": 2342, " imag": 2343, " splash": 2344, " interesting": 2345, " Jill": 2346, " save": 2347, " chick": 2348, " calm": 2349, " med": 2350, " watching": 2351, "Soon": 2352, "izzy": 2353, "izz": 2354, " plate": 2355, " ign": 2356, "yard": 2357, " clouds": 2358, " line": 2359, " faces": 2360, " ba": 2361, " act": 2362, " though": 2363, " wolf": 2364, " backyard": 2365, "wel": 2366, " seemed": 2367, " dogs": 2368, " spray": 2369, "Come": 2370, " prot": 2371, " whole": 2372, " mot": 2373, " fancy": 2374, " Daddy": 2375, " quest": 2376, " arms": 2377, " puzzle": 2378, " healthy": 2379, " supp": 2380, "ward": 2381, " finish": 2382, "erly": 2383, " along": 2384, "llo": 2385, " rocket": 2386, " explain": 2387, " rod": 2388, "dge": 2389, " easy": 2390, " jewel": 2391, "ont": 2392, " pract": 2393, " jelly": 2394, " Chirpy": 2395, " tid": 2396, " fake": 2397, " crayons": 2398, " wondered": 2399, " maybe": 2400, " scar": 2401, " ship": 2402, " nothing": 2403, "onest": 2404, " emb": 2405, "iger": 2406, " pool": 2407, " longer": 2408, " anyone": 2409, " Be": 2410, " Jerry": 2411, "ually": 2412, " front": 2413, " working": 2414, " gives": 2415, "irr": 2416, " pack": 2417, " such": 2418, " Bunny": 2419, "ocked": 2420, "ment": 2421, " bossy": 2422, " Doggy": 2423, " trouble": 2424, " smelled": 2425, " saved": 2426, " pin": 2427, "rass": 2428, " neigh": 2429, "arrass": 2430, "iting": 2431, " honest": 2432, " av": 2433, "arge": 2434, " embarrass": 2435, " lift": 2436, " van": 2437, " forgive": 2438, " tidy": 2439, " weak": 2440, "urse": 2441, " puts": 2442, "unk": 2443, " kick": 2444, " shirt": 2445, " With": 2446, " mind": 2447, " Ollie": 2448, " neighb": 2449, " plants": 2450, " sol": 2451, " Momo": 2452, " gently": 2453, " cozy": 2454, "orrow": 2455, "ming": 2456, " explor": 2457, "sp": 2458, " mistake": 2459, " yog": 2460, "oc": 2461, "oomy": 2462, " pointed": 2463, " lad": 2464, " af": 2465, " stood": 2466, "ork": 2467, " onto": 2468, " waiting": 2469, " jumping": 2470, " prince": 2471, " cross": 2472, " lock": 2473, " cheer": 2474, " queen": 2475, " Why": 2476, " Mary": 2477, " wing": 2478, "ones": 2479, "we": 2480, " large": 2481, " lovely": 2482, "ult": 2483, " sur": 2484, " ret": 2485, "And": 2486, " deer": 2487, " chew": 2488, " couch": 2489, " bal": 2490, "aughter": 2491, " stret": 2492, "era": 2493, " Their": 2494, " places": 2495, " My": 2496, " ladder": 2497, " return": 2498, "raid": 2499, " ants": 2500, " dish": 2501, " afraid": 2502, " cleaned": 2503, " tomorrow": 2504, " building": 2505, " sandwich": 2506, " person": 2507, "Sally": 2508, "ek": 2509, "ned": 2510, " pretended": 2511, " bounce": 2512, " wip": 2513, "gest": 2514, " match": 2515, " rich": 2516, "uce": 2517, " pizz": 2518, " gather": 2519, " search": 2520, " boring": 2521, "oman": 2522, " Somet": 2523, " teeth": 2524, " hum": 2525, "Kitty": 2526, "My": 2527, "aced": 2528, " daughter": 2529, " woman": 2530, " scarf": 2531, " goes": 2532, " Together": 2533, " law": 2534, " stra": 2535, " swimming": 2536, " furry": 2537, " splashed": 2538, " pri": 2539, " loves": 2540, " true": 2541, " screamed": 2542, " lazy": 2543, " gen": 2544, " answer": 2545, " number": 2546, " eag": 2547, " ashamed": 2548, " pizza": 2549, "aw": 2550, " appeared": 2551, " fear": 2552, " nearby": 2553, " powerful": 2554, " flag": 2555, " St": 2556, " hang": 2557, "vous": 2558, " clown": 2559, " chase": 2560, " motor": 2561, " wand": 2562, " TV": 2563, " rub": 2564, " success": 2565, " chocol": 2566, " If": 2567, " creative": 2568, " trust": 2569, " wearing": 2570, " noisy": 2571, " matter": 2572, "pa": 2573, " hello": 2574, " ner": 2575, " tool": 2576, " saf": 2577, " Bird": 2578, "ado": 2579, " nervous": 2580, "elp": 2581, " test": 2582, " smiling": 2583, " sold": 2584, "icked": 2585, "oppy": 2586, "osaur": 2587, " circle": 2588, "mb": 2589, " map": 2590, " drank": 2591, " class": 2592, " tries": 2593, " chocolate": 2594, " Please": 2595, " impress": 2596, " knee": 2597, " gener": 2598, " dinosaur": 2599, " polite": 2600, " mirr": 2601, " Bobby": 2602, " Tiny": 2603, " balloons": 2604, " gold": 2605, " rare": 2606, " protect": 2607, " cand": 2608, "Stop": 2609, " Go": 2610, " carried": 2611, "ensive": 2612, " ap": 2613, " shadow": 2614, " mirror": 2615, "gled": 2616, " Don": 2617, " bald": 2618, " gun": 2619, "ina": 2620, " expensive": 2621, " reg": 2622, "iff": 2623, " mysterious": 2624, " Sp": 2625, " pump": 2626, " note": 2627, " hero": 2628, " march": 2629, " har": 2630, "arl": 2631, " icy": 2632, " respect": 2633, " weird": 2634, " snee": 2635, " cri": 2636, " gate": 2637, " soap": 2638, "ute": 2639, "issors": 2640, " these": 2641, " poor": 2642, " towel": 2643, " whale": 2644, " feet": 2645, " tape": 2646, " dizzy": 2647, "itter": 2648, " generous": 2649, "ndpa": 2650, " pres": 2651, " Benny": 2652, "nic": 2653, " disco": 2654, "Help": 2655, "ventually": 2656, " picnic": 2657, " mic": 2658, " lead": 2659, " sque": 2660, " embarrassed": 2661, " journey": 2662, " sugar": 2663, "isp": 2664, "scape": 2665, " boot": 2666, " tent": 2667, " peaceful": 2668, " fat": 2669, " Bear": 2670, " scissors": 2671, " tasted": 2672, " yelled": 2673, "Tommy": 2674, " tick": 2675, " mel": 2676, " brush": 2677, " dancing": 2678, "ness": 2679, " glue": 2680, " hur": 2681, " rough": 2682, " clap": 2683, " bridge": 2684, "ote": 2685, " decor": 2686, " closet": 2687, " crown": 2688, " stir": 2689, "ual": 2690, "imp": 2691, " print": 2692, " Sometimes": 2693, "owed": 2694, "airs": 2695, " How": 2696, "ume": 2697, " cap": 2698, " mod": 2699, " lamp": 2700, " vase": 2701, " scare": 2702, " gig": 2703, "lebr": 2704, " relie": 2705, "lves": 2706, "any": 2707, " eld": 2708, " tele": 2709, " celebr": 2710, " whisp": 2711, " log": 2712, " blow": 2713, "rag": 2714, " painted": 2715, " sco": 2716, " Ducky": 2717, " pay": 2718, "erries": 2719, " wis": 2720, " berries": 2721, " mixed": 2722, " spread": 2723, " wouldn": 2724, " cage": 2725, " bake": 2726, "rob": 2727, "getable": 2728, " mountain": 2729, " adm": 2730, " drawing": 2731, " become": 2732, " famous": 2733, " knocked": 2734, " bean": 2735, " norm": 2736, " vegetable": 2737, "asp": 2738, " kicked": 2739, "ustr": 2740, " shark": 2741, "ser": 2742, " incred": 2743, " lose": 2744, " normal": 2745, " wrap": 2746, "ced": 2747, " group": 2748, " thick": 2749, " 3": 2750, " fine": 2751, " glass": 2752, " ignor": 2753, " clock": 2754, " team": 2755, " elderly": 2756, " clear": 2757, " corner": 2758, " frustr": 2759, " mighty": 2760, "robe": 2761, " cone": 2762, " incredible": 2763, " Br": 2764, "ighed": 2765, "Dad": 2766, " moms": 2767, " balance": 2768, " sock": 2769, " space": 2770, " jam": 2771, "ragile": 2772, " fright": 2773, " organized": 2774, " branches": 2775, " roar": 2776, "port": 2777, " sword": 2778, "alous": 2779, " Mama": 2780, " guess": 2781, " fool": 2782, " sell": 2783, " feed": 2784, " Some": 2785, " which": 2786, " horn": 2787, " present": 2788, " jealous": 2789, " yarn": 2790, "ony": 2791, " fragile": 2792, " burn": 2793, " understood": 2794, " mis": 2795, " stubb": 2796, " ter": 2797, " frustrated": 2798, "Where": 2799, "ray": 2800, " hose": 2801, "cient": 2802, " spent": 2803, " shoe": 2804, " taught": 2805, " stubborn": 2806, " twist": 2807, " chan": 2808, " creature": 2809, " chest": 2810, " spoiled": 2811, " relieved": 2812, "ym": 2813, " ancient": 2814, "ique": 2815, " wake": 2816, " fier": 2817, " pray": 2818, " fierce": 2819, " eggs": 2820, " cab": 2821, " terri": 2822, " barn": 2823, " ord": 2824, " pumpkin": 2825, " comfortable": 2826, " frightened": 2827, "orry": 2828, " toug": 2829, " unique": 2830, " measure": 2831, " goat": 2832, " wagon": 2833, " unus": 2834, " breath": 2835, " foolish": 2836, " useful": 2837, " exploring": 2838, "dle": 2839, " straw": 2840, " unusual": 2841, " dug": 2842, " clay": 2843, " discover": 2844, " tomato": 2845, " Pe": 2846, " dead": 2847, " finding": 2848, " police": 2849, " wrote": 2850, " clum": 2851, " exam": 2852, "lace": 2853, " waves": 2854, " square": 2855, " hears": 2856, " cabin": 2857, " tells": 2858, " necklace": 2859, " dull": 2860, " clumsy": 2861, " tough": 2862, " bubbles": 2863, " nosy": 2864, "kn": 2865, " searched": 2866, "Together": 2867, " washed": 2868, " bathroom": 2869, " paws": 2870, "bby": 2871, "ond": 2872, "unn": 2873, " board": 2874, "known": 2875, "fic": 2876, " asking": 2877, " crazy": 2878, " thankful": 2879, " sunf": 2880, " bitter": 2881, "yal": 2882, " pir": 2883, "berry": 2884, "alk": 2885, " ind": 2886, " diffic": 2887, " rose": 2888, "cil": 2889, " swan": 2890, " bloom": 2891, " unknown": 2892, " Ella": 2893, " covered": 2894, " difficult": 2895, " add": 2896, " pencil": 2897, " finger": 2898, " ham": 2899, " hoop": 2900, " jet": 2901, " witch": 2902, " drop": 2903, "Me": 2904, " '": 2905, " chicken": 2906, " gloomy": 2907, "apped": 2908, " loyal": 2909, "als": 2910, "Here": 2911, " wealthy": 2912, "com": 2913, "light": 2914, " unl": 2915, " cats": 2916, " ending": 2917, " guit": 2918, "bled": 2919, "shine": 2920, " dove": 2921, " joined": 2922, " cher": 2923, "anut": 2924, " mov": 2925, " terrible": 2926, " yours": 2927, "iant": 2928, " U": 2929, " Rex": 2930, " salad": 2931, " Andy": 2932, " nuts": 2933, " rat": 2934, " lif": 2935, "ground": 2936, " tiger": 2937, " potato": 2938, " mask": 2939, "xible": 2940, "selves": 2941, " value": 2942, " changed": 2943, " moving": 2944, " exciting": 2945, "ormous": 2946, " Many": 2947, " body": 2948, " Tr": 2949, " toast": 2950, "erp": 2951, " zip": 2952, " disg": 2953, " cheap": 2954, " guitar": 2955, "irsty": 2956, " knowing": 2957, " adventur": 2958, " yourself": 2959, " enormous": 2960, " hairy": 2961, "Every": 2962, " shoot": 2963, " Brown": 2964, " bored": 2965, " pepper": 2966, " remind": 2967, "ory": 2968, "land": 2969, " acorn": 2970, " adventurous": 2971, " sunshine": 2972, " smaller": 2973, " stuff": 2974, " hats": 2975, " solve": 2976, " Jimmy": 2977, " flexible": 2978, " cost": 2979, "rilliant": 2980, " knife": 2981, " perform": 2982, " snacks": 2983, " nods": 2984, " shore": 2985, " brilliant": 2986, " thirsty": 2987, " delicate": 2988, " frown": 2989, " disgust": 2990, " collect": 2991, " stri": 2992, " seeds": 2993, " counted": 2994, " asleep": 2995, " banana": 2996, "reen": 2997, " mailbox": 2998, "iness": 2999, " dough": 3000, " trick": 3001, " neighbor": 3002, "ungle": 3003, " heal": 3004, "Who": 3005, "live": 3006, " stage": 3007, "ident": 3008, " market": 3009, " cube": 3010, " stat": 3011, " jungle": 3012, " squee": 3013, "mbre": 3014, " explained": 3015, "ates": 3016, " umbre": 3017, " disgusting": 3018, "Jim": 3019, " lab": 3020, " jolly": 3021, " flash": 3022, "und": 3023, " fridge": 3024, "inal": 3025, "pid": 3026, "ilt": 3027, " crane": 3028, "corn": 3029, " suit": 3030, " rh": 3031, "iddle": 3032, " sunflower": 3033, " times": 3034, " Al": 3035, "erpill": 3036, " caterpill": 3037, " relax": 3038, " shiver": 3039, " four": 3040, " island": 3041, "iginal": 3042, " harm": 3043, "ict": 3044, " While": 3045, "ying": 3046, " stupid": 3047, " medic": 3048, " Instead": 3049, " comb": 3050, " goose": 3051, " cro": 3052, "edient": 3053, " Will": 3054, " stove": 3055, "If": 3056, "Are": 3057, " independ": 3058, "Mum": 3059, "most": 3060, " spring": 3061, " gem": 3062, " batter": 3063, " sighed": 3064, " vegetables": 3065, " stones": 3066, "pes": 3067, " shine": 3068, "How": 3069, " medicine": 3070, " depend": 3071, " rug": 3072, " Your": 3073, " careless": 3074, " original": 3075, " stamp": 3076, " gar": 3077, " cries": 3078, "Inside": 3079, "gu": 3080, " carrots": 3081, " scr": 3082, " successful": 3083, " sauce": 3084, " jeep": 3085, " popcorn": 3086, " meal": 3087, " obedient": 3088, " almost": 3089, " middle": 3090, " magn": 3091, " study": 3092, " independent": 3093, " fearful": 3094, " jack": 3095, "met": 3096, "inky": 3097, "Sorry": 3098, " Sammy": 3099, " escape": 3100, " caterpillar": 3101, " serious": 3102, " peanut": 3103, " bedroom": 3104, " eager": 3105, "aken": 3106, " gets": 3107, "ung": 3108, " parrot": 3109, " statue": 3110, " helmet": 3111, " pebb": 3112, " No": 3113, " fountain": 3114, " raven": 3115, " pasta": 3116, " umbrella": 3117, " compet": 3118, "There": 3119, " jacket": 3120, " belonged": 3121, " dest": 3122, " filthy": 3123, " ang": 3124, " design": 3125, " borrow": 3126, " cam": 3127, "erable": 3128, " houses": 3129, " prize": 3130, " hay": 3131, " brace": 3132, " standing": 3133, " miserable": 3134, " raced": 3135, " taken": 3136, "ages": 3137, " fork": 3138, " crayon": 3139, " painting": 3140, "io": 3141, " triang": 3142, " jug": 3143, " impressive": 3144, " choose": 3145, " fig": 3146, " tied": 3147, "iable": 3148, " spotted": 3149, " lifted": 3150, " slipped": 3151, "ours": 3152, " tank": 3153, " thoughtful": 3154, " dependable": 3155, " steal": 3156, " garage": 3157, "enny": 3158, " built": 3159, " mush": 3160, " er": 3161, "ipe": 3162, " mole": 3163, " crawled": 3164, " scale": 3165, " boats": 3166, " pian": 3167, " pant": 3168, " hammer": 3169, " bottom": 3170, "lph": 3171, " cheerful": 3172, " using": 3173, " smoke": 3174, " picks": 3175, " moder": 3176, "berries": 3177, " shows": 3178, "rn": 3179, " piano": 3180, " magnet": 3181, "dile": 3182, "codile": 3183, " hurts": 3184, "inary": 3185, " ref": 3186, " crack": 3187, " eng": 3188, " aunt": 3189, " melon": 3190, " waff": 3191, " modern": 3192, " dolph": 3193, "unnel": 3194, "cream": 3195, "pack": 3196, " tunnel": 3197, "oin": 3198, " arrow": 3199, " reliable": 3200, " hopping": 3201, " mushroom": 3202, "Timmy": 3203, " squash": 3204, " gum": 3205, " sink": 3206, " movie": 3207, " tax": 3208, " flute": 3209, " beet": 3210, " lean": 3211, "Their": 3212, "iv": 3213, " popular": 3214, "opter": 3215, "icopter": 3216, " cryst": 3217, " ones": 3218, " sil": 3219, " competit": 3220, " helicopter": 3221, "aser": 3222, " needs": 3223, "ipop": 3224, "llipop": 3225, " crocodile": 3226, " liz": 3227, "Molly": 3228, " press": 3229, " troubled": 3230, " pige": 3231, " locked": 3232, " tricks": 3233, " lollipop": 3234, " playful": 3235, " humble": 3236, " taxi": 3237, " kissed": 3238, " low": 3239, "appy": 3240, "comfortable": 3241, "amond": 3242, " uncomfortable": 3243, " rid": 3244, "host": 3245, " wander": 3246, "atch": 3247, " angel": 3248, "edy": 3249, "cles": 3250, " torn": 3251, " grace": 3252, " anx": 3253, " wrapped": 3254, " muff": 3255, " twig": 3256, " pants": 3257, " disappoin": 3258, " Sn": 3259, " helps": 3260, " diamond": 3261, " camera": 3262, "atter": 3263, "oto": 3264, " anxious": 3265, " ghost": 3266, " tears": 3267, " ruined": 3268, "cident": 3269, " Jenny": 3270, "ilty": 3271, " quar": 3272, "aff": 3273, " Even": 3274, " fis": 3275, "opl": 3276, " belt": 3277, "eropl": 3278, " env": 3279, " guilty": 3280, " bull": 3281, " aeropl": 3282, " helpless": 3283, " happiness": 3284, " lizard": 3285, " boys": 3286, "cut": 3287, " cere": 3288, " walks": 3289, "cean": 3290, " passed": 3291, " meant": 3292, " ocean": 3293, " fluffy": 3294, " wire": 3295, " nail": 3296, " bracelet": 3297, " deaf": 3298, "zed": 3299, " stretch": 3300, " candle": 3301, " cact": 3302, "tt": 3303, " beetle": 3304, " mop": 3305, " harmless": 3306, "umpet": 3307, " ordinary": 3308, " answered": 3309, " collar": 3310, " cop": 3311, " bees": 3312, " tire": 3313, " shape": 3314, " quarrel": 3315, " radio": 3316, " flashlight": 3317, " crystal": 3318, " harder": 3319, " poured": 3320, " trumpet": 3321, " engine": 3322, "Mama": 3323, " persist": 3324, " hunt": 3325, " tooth": 3326, " cereal": 3327, " invited": 3328, " comput": 3329, " tag": 3330, " office": 3331, " melt": 3332, " spill": 3333, " charm": 3334, "coa": 3335, " lit": 3336, " scoot": 3337, " comet": 3338, " triangle": 3339, "ief": 3340, " mug": 3341, " rep": 3342, "ube": 3343, " yogurt": 3344, " spend": 3345, " compass": 3346, " accident": 3347, " shade": 3348, "hett": 3349, "aghett": 3350, "aghetti": 3351, " disappointed": 3352, " licked": 3353, " cactus": 3354, " pale": 3355, " cush": 3356, " figure": 3357, " regular": 3358, " giving": 3359, " avoc": 3360, " sheet": 3361, " whispered": 3362, "aze": 3363, "uth": 3364, "ellig": 3365, " create": 3366, " record": 3367, " barber": 3368, " intellig": 3369, " pipe": 3370, " rode": 3371, " roof": 3372, "Jane": 3373, " thread": 3374, "ither": 3375, " vi": 3376, " load": 3377, " libr": 3378, " gifted": 3379, "ccol": 3380, " practiced": 3381, " delight": 3382, "ccoli": 3383, " harsh": 3384, "asses": 3385, " pow": 3386, " dust": 3387, " True": 3388, " bicy": 3389, "azz": 3390, " spaghetti": 3391, " compassion": 3392, " sailed": 3393, "urkey": 3394, "ubby": 3395, " forward": 3396, " persistent": 3397, " speed": 3398, " mitten": 3399, " pro": 3400, " cocoa": 3401, " envel": 3402, " questions": 3403, " computer": 3404, " coo": 3405, " feathers": 3406, "hip": 3407, " glove": 3408, "Bobo": 3409, " rice": 3410, " shrimp": 3411, " desk": 3412, " stream": 3413, " inse": 3414, " pigeon": 3415, " charming": 3416, " ears": 3417, " carp": 3418, "lcan": 3419, " envious": 3420, " knot": 3421, " turkey": 3422, "ud": 3423, " stronger": 3424, "omes": 3425, " coins": 3426, " tap": 3427, " raft": 3428, "lcano": 3429, "weet": 3430, " trap": 3431, "umbers": 3432, " aeroplane": 3433, " trunk": 3434, " wheat": 3435, " boxes": 3436, " chubby": 3437, " carpet": 3438, " restless": 3439, " intelligent": 3440, " tube": 3441, " spun": 3442, " dreams": 3443, " half": 3444, " friendship": 3445, "ulif": 3446, "olin": 3447, " loop": 3448, " crawl": 3449, " broccoli": 3450, " onion": 3451, " week": 3452, " deliver": 3453, " acce": 3454, "anger": 3455, " vide": 3456, " volcano": 3457, " Jake": 3458, " sle": 3459, " track": 3460, " bri": 3461, " caulif": 3462, " vine": 3463, "ye": 3464, " ticket": 3465, " thief": 3466, "essie": 3467, "cycle": 3468, " louder": 3469, " insect": 3470, " numbers": 3471, "asing": 3472, " yaw": 3473, " haircut": 3474, "ital": 3475, " sleeping": 3476, "ugg": 3477, " mill": 3478, " eventually": 3479, " alert": 3480, " excite": 3481, " pebble": 3482, " hosp": 3483, " attract": 3484, " planet": 3485, " Today": 3486, " univer": 3487, "isted": 3488, "ulu": 3489, " hospital": 3490, " eraser": 3491, " returned": 3492, " destro": 3493, " graceful": 3494, " happening": 3495, "ache": 3496, " OK": 3497, " Emily": 3498, " decide": 3499, " learning": 3500, " screen": 3501, "rework": 3502, " nicely": 3503, " leop": 3504, " cauliflower": 3505, " competitive": 3506, " poem": 3507, " celebrate": 3508, " curt": 3509, " peach": 3510, " soldier": 3511, " saus": 3512, " parade": 3513, "atient": 3514, " attractive": 3515, " curtain": 3516, " dolphin": 3517, " base": 3518, " violin": 3519, " ways": 3520, "Go": 3521, "ats": 3522, " travel": 3523, " ignorant": 3524, "ulb": 3525, " wheels": 3526, " yach": 3527, " scatter": 3528, " deter": 3529, " compassionate": 3530, " barrel": 3531, " envelope": 3532, " bubble": 3533, " lying": 3534, " firework": 3535, " sort": 3536, " question": 3537, "zzy": 3538, " Pipp": 3539, " scooter": 3540, " determ": 3541, " rag": 3542, " bicycle": 3543, "elery": 3544, " needle": 3545, " Fr": 3546, " judge": 3547, " bulb": 3548, " leopard": 3549, " tem": 3550, " yacht": 3551, " pony": 3552, " cricket": 3553, " order": 3554, " homes": 3555, " ador": 3556, "tern": 3557, " truth": 3558, " hook": 3559, "dom": 3560, " rubbed": 3561, "ete": 3562, "igator": 3563, " bushes": 3564, "Sarah": 3565, " uncle": 3566, " cushion": 3567, " spell": 3568, " grown": 3569, " cooked": 3570, " adorable": 3571, " chalk": 3572, " soar": 3573, " purse": 3574, " skin": 3575, " themselves": 3576, " impatient": 3577, " celery": 3578, " tray": 3579, " shells": 3580, " pengu": 3581, " sniff": 3582, " prun": 3583, " walls": 3584, " seal": 3585, " lively": 3586, " case": 3587, " alligator": 3588, " distant": 3589, " radish": 3590, " saying": 3591, " speak": 3592, " motorcycle": 3593, " meat": 3594, " send": 3595, "illa": 3596, " spinning": 3597, " forth": 3598, " counting": 3599, " enth": 3600, " bounced": 3601, " chain": 3602, " ed": 3603, " cleaning": 3604, "ebra": 3605, " film": 3606, " slept": 3607, " pit": 3608, " surf": 3609, " marry": 3610, "usia": 3611, " wallet": 3612, " enthusia": 3613, " metal": 3614, "urb": 3615, "ebook": 3616, " bin": 3617, " notebook": 3618, " wiped": 3619, " skip": 3620, "ision": 3621, "chair": 3622, " biggest": 3623, " impro": 3624, " avocado": 3625, " behave": 3626, " destroy": 3627, "vator": 3628, " bandage": 3629, " laughs": 3630, " steak": 3631, " pattern": 3632, " Sh": 3633, " post": 3634, " elevator": 3635, " Buzz": 3636, "usie": 3637, " dive": 3638, " shut": 3639, " skipped": 3640, " unlock": 3641, " diary": 3642, "ject": 3643, " zebra": 3644, " bags": 3645, "ating": 3646, " armchair": 3647, "rage": 3648, "aged": 3649, "under": 3650, " disturb": 3651, " oy": 3652, " pole": 3653, " showing": 3654, " gathered": 3655, " club": 3656, " nurse": 3657, "bul": 3658, " earth": 3659, " enc": 3660, " stranger": 3661, " sweater": 3662, " jellyfish": 3663, " screw": 3664, " temp": 3665, " Poppy": 3666, " compl": 3667, " mixer": 3668, "Give": 3669, " skull": 3670, " lime": 3671, " bump": 3672, "bulance": 3673, " ambulance": 3674, "nam": 3675, " father": 3676, " journal": 3677, "Gra": 3678, " loudly": 3679, "ito": 3680, " folder": 3681, " shield": 3682, " Bet": 3683, " Lulu": 3684, " library": 3685, " Peter": 3686, " buttons": 3687, " playground": 3688, " trucks": 3689, " ink": 3690, " lights": 3691, " tummy": 3692, " pointing": 3693, " city": 3694, " decorate": 3695, " station": 3696, "irit": 3697, " prep": 3698, " falls": 3699, "quito": 3700, " Polly": 3701, "Billy": 3702, " Fo": 3703, " fu": 3704, "ention": 3705, "nger": 3706, " Birdy": 3707, "lies": 3708, " herb": 3709, "nament": 3710, " ornament": 3711, " modest": 3712, " guard": 3713, " mos": 3714, " knows": 3715, " cord": 3716, " polish": 3717, " marble": 3718, "oby": 3719, " mosquito": 3720, "umbled": 3721, " salt": 3722, " attic": 3723, " whenever": 3724, " vest": 3725, "ctop": 3726, " resc": 3727, " yet": 3728, " ple": 3729, " disappeared": 3730, "ceed": 3731, " strawberry": 3732, " once": 3733, " Mum": 3734, " kay": 3735, " brothers": 3736, " itch": 3737, " pirate": 3738, " football": 3739, " split": 3740, "kele": 3741, "keleton": 3742, " hipp": 3743, " aut": 3744, " led": 3745, "uring": 3746, "ctopus": 3747, " driving": 3748, " cable": 3749, " support": 3750, " calling": 3751, " cupboard": 3752, "aky": 3753, "ushed": 3754, " wishes": 3755, " complet": 3756, " tripped": 3757, " root": 3758, "gl": 3759, " kayak": 3760, " octopus": 3761, "obile": 3762, " added": 3763, " edge": 3764, " mild": 3765, "stic": 3766, " determined": 3767, " succeed": 3768, "?\".": 3769, " reading": 3770, "omobile": 3771, " coal": 3772, "Well": 3773, "utes": 3774, "par": 3775, " suggest": 3776, " stack": 3777, " thunder": 3778, " kindness": 3779, " automobile": 3780, " complain": 3781, " enthusiastic": 3782, " sneeze": 3783, " cartoon": 3784, " yoga": 3785, " Little": 3786, " growl": 3787, "htub": 3788, " flea": 3789, "la": 3790, " meadow": 3791, " drawer": 3792, " bathtub": 3793, " ribb": 3794, "ophone": 3795, " means": 3796, " hall": 3797, " golf": 3798, " skeleton": 3799, " math": 3800, " veil": 3801, " hunter": 3802, " gor": 3803, " flame": 3804, " poke": 3805, " video": 3806, " chess": 3807, " troph": 3808, " cups": 3809, " glowing": 3810, " matt": 3811, " oyster": 3812, "work": 3813, " penny": 3814, " spear": 3815, " itself": 3816, " drawings": 3817, " hippo": 3818, " repair": 3819, " switch": 3820, "glasses": 3821, " sunglasses": 3822, " teleph": 3823, " costume": 3824, " dess": 3825, " zipp": 3826, ",\u00e2\u0080\u009d": 3827, " repe": 3828, " muffin": 3829, " arg": 3830, " pastry": 3831, " pun": 3832, " rolling": 3833, " minutes": 3834, " packed": 3835, " makeup": 3836, "iron": 3837, "ric": 3838, " People": 3839, " waffle": 3840, "case": 3841, " handle": 3842, " pear": 3843, " maze": 3844, " telephone": 3845, " pine": 3846, "ait": 3847, " gear": 3848, " hedge": 3849, " mattress": 3850, " package": 3851, "aving": 3852, " Miss": 3853, " shocked": 3854, "ines": 3855, " trophy": 3856, " powder": 3857, " knight": 3858, " cob": 3859, " missile": 3860, " managed": 3861, " frame": 3862, " encou": 3863, " wife": 3864, " ok": 3865, " separ": 3866, "web": 3867, " stairs": 3868, " rot": 3869, " camp": 3870, "time": 3871, "urch": 3872, "rophone": 3873, " magaz": 3874, " colour": 3875, " grapes": 3876, " file": 3877, "head": 3878, " Tina": 3879, " basketball": 3880, "Bye": 3881, "old": 3882, "per": 3883, " cobweb": 3884, "Re": 3885, "Jimmy": 3886, "anas": 3887, " Tweet": 3888, "See": 3889, " perm": 3890, " wool": 3891, " microphone": 3892, "esday": 3893, " eye": 3894, " leash": 3895, " gasp": 3896, "iew": 3897, "keep": 3898, " weep": 3899, " barking": 3900, "ature": 3901, " safely": 3902, " Dan": 3903, " tear": 3904, " view": 3905, " slides": 3906, "offe": 3907, " steps": 3908, "istol": 3909, "offee": 3910, " bananas": 3911, " staff": 3912, " spirit": 3913, " task": 3914, " giggled": 3915, " hoc": 3916, " hockey": 3917, " vend": 3918, " those": 3919, " gorilla": 3920, "Jill": 3921, " cooler": 3922, " Rose": 3923, "was": 3924, "cing": 3925, " early": 3926, " marched": 3927, "rosc": 3928, " mint": 3929, " Look": 3930, "washer": 3931, " flour": 3932, " hotel": 3933, "hic": 3934, " sailor": 3935, " dessert": 3936, " photo": 3937, "roscope": 3938, " vehic": 3939, "ilot": 3940, " oft": 3941, " often": 3942, " church": 3943, " Pete": 3944, " cooking": 3945, " remain": 3946, " five": 3947, " sausage": 3948, "otter": 3949, " ten": 3950, " tools": 3951, " medal": 3952, " either": 3953, " fireman": 3954, "chor": 3955, " grandpa": 3956, " otter": 3957, " baseball": 3958, " pretending": 3959, " pistol": 3960, " dishwasher": 3961, " rever": 3962, " organize": 3963, " pee": 3964, " vendor": 3965, " knock": 3966, " sight": 3967, " grill": 3968, " temple": 3969, " battery": 3970, " thinking": 3971, " opens": 3972, " ow": 3973, " realised": 3974, " iron": 3975, " laser": 3976, " sne": 3977, " sandbox": 3978, " oil": 3979, " patch": 3980, " hours": 3981, " rise": 3982, " whip": 3983, "'d": 3984, "ctory": 3985, " Give": 3986, " anchor": 3987, " trash": 3988, "ense": 3989, " short": 3990, "ney": 3991, " Betty": 3992, " rhin": 3993, " factory": 3994, "seum": 3995, " may": 3996, " ward": 3997, "ately": 3998, " cardboard": 3999, "ugged": 4000, " lotion": 4001, "Al": 4002, " message": 4003, " valu": 4004, " wardrobe": 4005, " cell": 4006, " museum": 4007, "apers": 4008, " ur": 4009, "ination": 4010, " hanging": 4011, "ucet": 4012, "ailable": 4013, " Sunny": 4014, " Zoom": 4015, " hive": 4016, "eer": 4017, " towers": 4018, "keeper": 4019, " blackboard": 4020, " mem": 4021, " excitement": 4022, " coffee": 4023, " pilot": 4024, "ready": 4025, "Fluffy": 4026, " napkin": 4027, " penguin": 4028, "ron": 4029, " check": 4030, " reward": 4031, "loo": 4032, " quit": 4033, " Pippin": 4034, " cane": 4035, " picking": 4036, "place": 4037, " Snow": 4038, "azor": 4039, " faucet": 4040, " ig": 4041, " passport": 4042, " Rob": 4043, " stumbled": 4044, " dreamed": 4045, " igloo": 4046, " Bessie": 4047, "aroo": 4048, "angaroo": 4049, " freez": 4050, " juicy": 4051, " allowed": 4052, "play": 4053, " holds": 4054, " already": 4055, " available": 4056, " sett": 4057, " bathe": 4058, " tornado": 4059, "imney": 4060, " fingers": 4061, "htray": 4062, " hanger": 4063, " newsp": 4064, " size": 4065, " laund": 4066, " lend": 4067, " chimney": 4068, " laundry": 4069, " oak": 4070, " fisher": 4071, " kangaroo": 4072, " men": 4073, " Everywhere": 4074, " telling": 4075, "Em": 4076, " novel": 4077, "body": 4078, " mummy": 4079, " pal": 4080, " mule": 4081, " cherries": 4082, " notice": 4083, " practice": 4084, " spilled": 4085, " reind": 4086, " complete": 4087, " enjoying": 4088, " microscope": 4089, "ampoo": 4090, " gain": 4091, " sub": 4092, " fireplace": 4093, " imagine": 4094, "anda": 4095, "arian": 4096, " display": 4097, "ocer": 4098, " Zip": 4099, " fastest": 4100, " magazine": 4101, " hurry": 4102, " cabinet": 4103, " shrink": 4104, " ashtray": 4105, "Wait": 4106, " cows": 4107, " Spike": 4108, "Joe": 4109, "gen": 4110, " palace": 4111, " improve": 4112, "aches": 4113, " rake": 4114, " reindeer": 4115, " falling": 4116, "oceros": 4117, " skirt": 4118, "ured": 4119, " discovered": 4120, " stared": 4121, " roared": 4122, "aid": 4123, " silver": 4124, " tub": 4125, " trail": 4126, "Is": 4127, " miner": 4128, "come": 4129, " bill": 4130, "iction": 4131, " fog": 4132, " ax": 4133, "stairs": 4134, "ilet": 4135, " hut": 4136, " happier": 4137, " taller": 4138, "ictionary": 4139, " oats": 4140, " fisherman": 4141, " object": 4142, " por": 4143, "vision": 4144, " valuable": 4145, " shampoo": 4146, " holes": 4147, " offered": 4148, " boots": 4149, " rhinoceros": 4150, " names": 4151, " toilet": 4152, " climbing": 4153, " blin": 4154, "vice": 4155, "Ow": 4156, " stretched": 4157, "iest": 4158, " zipper": 4159, " listening": 4160, " sym": 4161, " bathrobe": 4162, "alend": 4163, " jewelry": 4164, " Here": 4165, " jokes": 4166, " television": 4167, " prov": 4168, " calend": 4169, " stops": 4170, " axe": 4171, " jumps": 4172, " fuel": 4173, " sparkly": 4174, "cu": 4175, " perfume": 4176, " Susie": 4177, " bury": 4178, "bol": 4179, "Mummy": 4180, " pressed": 4181, " Kim": 4182, "reek": 4183, " rece": 4184, " Toby": 4185, " neat": 4186, " creek": 4187, " popped": 4188, " opera": 4189, " calendar": 4190, " snap": 4191, " gasped": 4192, " attach": 4193, " symbol": 4194, " Mar": 4195, " tuna": 4196, " papers": 4197, "Mr": 4198, " unpack": 4199, " resist": 4200, " dictionary": 4201, " subway": 4202, " letters": 4203, " freezer": 4204, " chose": 4205, " pinch": 4206, "zag": 4207, " spoke": 4208, " anyway": 4209, " super": 4210, " porch": 4211, " helper": 4212, "affe": 4213, " bikes": 4214, " lie": 4215, "arry": 4216, "iches": 4217, " tightly": 4218, " comfort": 4219, " shaking": 4220, " bookcase": 4221, " son": 4222, " razor": 4223, "aurant": 4224, " sandwiches": 4225, " Are": 4226, " ext": 4227, "igzag": 4228, " weigh": 4229, " against": 4230, " stickers": 4231, " restaurant": 4232, " newspaper": 4233, " blouse": 4234, "te": 4235, " vehicle": 4236, " swinging": 4237, " disag": 4238, " ped": 4239, " nature": 4240, " squirrels": 4241, "ival": 4242, " belongs": 4243, " swamp": 4244, " incl": 4245, " butterflies": 4246, " gym": 4247, " growing": 4248, " buckle": 4249, "omed": 4250, " stirred": 4251, " mustache": 4252, " billboard": 4253, "xy": 4254, " beep": 4255, " alarm": 4256, " lightning": 4257, " lip": 4258, " fest": 4259, " hung": 4260, "utor": 4261, " distance": 4262, "ogn": 4263, " cards": 4264, " obser": 4265, " agree": 4266, "Little": 4267, " tease": 4268, " recogn": 4269, " rubber": 4270, "ik": 4271, " hate": 4272, " sof": 4273, "fast": 4274, "ef": 4275, "Ouch": 4276, " doesn": 4277, " musician": 4278, " advice": 4279, " beef": 4280, " serve": 4281, "aspoon": 4282, " sweetie": 4283, " model": 4284, "lter": 4285, " crib": 4286, " blueberries": 4287, " sofa": 4288, " circles": 4289, " breakfast": 4290, " tutor": 4291, "asis": 4292, " bookshe": 4293, "stri": 4294, " giraffe": 4295, " festival": 4296, " separate": 4297, " shelter": 4298, " gas": 4299, " airport": 4300, " olive": 4301, " Big": 4302, " rail": 4303, " bookshelf": 4304, " frogs": 4305, " teaspoon": 4306, " reverse": 4307, " junk": 4308, " riding": 4309, " pleased": 4310, " drain": 4311, " Mrs": 4312, " wipe": 4313, " oasis": 4314, " soil": 4315, " ahead": 4316, " rescue": 4317, " leaving": 4318, "ummer": 4319, " painter": 4320, " squeeze": 4321, " chance": 4322, " poked": 4323, " knob": 4324, " Teddy": 4325, " peeked": 4326, " lumber": 4327, " trains": 4328, " extra": 4329, " slipp": 4330, " quiz": 4331, " refused": 4332, "res": 4333, "rmomet": 4334, " page": 4335, " rules": 4336, " happens": 4337, " sounded": 4338, " ins": 4339, " point": 4340, " winter": 4341, " dancer": 4342, " Grandpa": 4343, " birdc": 4344, " disappear": 4345, "rmometer": 4346, " Dolly": 4347, " weather": 4348, " waste": 4349, " lic": 4350, " birdcage": 4351, " theater": 4352, " reef": 4353, " carrying": 4354, "Daisy": 4355, " invite": 4356, "iform": 4357, " goal": 4358, " ostri": 4359, " uniform": 4360, " swung": 4361, " trade": 4362, " cliff": 4363, " wig": 4364, "ience": 4365, " lawn": 4366, "ola": 4367, " leaned": 4368, " Pandy": 4369, "angu": 4370, " accept": 4371, " admire": 4372, " fort": 4373, " accidentally": 4374, " pastel": 4375, "bbles": 4376, " stom": 4377, " langu": 4378, " twir": 4379, " suff": 4380, " panda": 4381, "riger": 4382, " bet": 4383, "rigerator": 4384, " peek": 4385, "render": 4386, " blinked": 4387, " starts": 4388, " refrigerator": 4389, " anywhere": 4390, "!\".": 4391, " imagined": 4392, " dreaming": 4393, " remove": 4394, "night": 4395, " shower": 4396, " Lee": 4397, " classroom": 4398, " ceiling": 4399, " caring": 4400, "ium": 4401, " grand": 4402, " missing": 4403, "aked": 4404, " license": 4405, " stable": 4406, " thermometer": 4407, " monkeys": 4408, "astic": 4409, " warned": 4410, " summer": 4411, " Where": 4412, " above": 4413, " brick": 4414, "ected": 4415, " cudd": 4416, " problems": 4417, "amber": 4418, " chasing": 4419, " label": 4420, " apron": 4421, " sent": 4422, "urnit": 4423, "urniture": 4424, " lawy": 4425, " lid": 4426, "uggage": 4427, "med": 4428, " respectful": 4429, " furniture": 4430, " frowned": 4431, " zoomed": 4432, " pages": 4433, " prevent": 4434, " bent": 4435, " luggage": 4436, " mistakes": 4437, " sunset": 4438, " ostrich": 4439, "ison": 4440, " suggested": 4441, " windows": 4442, "ations": 4443, " jail": 4444, "low": 4445, " wine": 4446, " ribbon": 4447, " older": 4448, " shouts": 4449, " grape": 4450, " Cl": 4451, " strug": 4452, " Co": 4453, "ucture": 4454, " structure": 4455, " spoil": 4456, "eor": 4457, " fixing": 4458, " chamber": 4459, " lions": 4460, " delay": 4461, " finds": 4462, " handed": 4463, " searching": 4464, " unite": 4465, "Did": 4466, " fought": 4467, " lawyer": 4468, " brightly": 4469, " pair": 4470, " meeting": 4471, " choice": 4472, " surprises": 4473, " Un": 4474, " Ellie": 4475, " art": 4476, "Ch": 4477, " favour": 4478, "eterin": 4479, "eterinarian": 4480, "adium": 4481, " stadium": 4482, " proudly": 4483, "iki": 4484, " veterinarian": 4485, "vet": 4486, " chairs": 4487, "rod": 4488, " slip": 4489, " Spe": 4490, " sadly": 4491, " Bow": 4492, " incre": 4493, " Carl": 4494, " puddles": 4495, " berry": 4496, " introd": 4497, " ranch": 4498, "veal": 4499, " Boun": 4500, " argue": 4501, " V": 4502, " admired": 4503, " cur": 4504, " favourite": 4505, "Your": 4506, " inf": 4507, " excitedly": 4508, " rac": 4509, " grabs": 4510, "mend": 4511, " steam": 4512, "thank": 4513, " human": 4514, "eorge": 4515, "sity": 4516, " Hel": 4517, " pushing": 4518, " saving": 4519, " Red": 4520, " reveal": 4521, "ommend": 4522, "alley": 4523, " yield": 4524, "olog": 4525, " mall": 4526, " reminded": 4527, " recommend": 4528, " leak": 4529, " surrender": 4530, " harb": 4531, " appl": 4532, "cuss": 4533, "aul": 4534, " weap": 4535, " regret": 4536, " putting": 4537, " valley": 4538, " mineral": 4539, " evening": 4540, "chan": 4541, "elcome": 4542, " matches": 4543, " forgave": 4544, " sneezed": 4545, " pup": 4546, " aw": 4547, " rushed": 4548, "ecause": 4549, " spade": 4550, " apolog": 4551, " plates": 4552, " discuss": 4553, " beg": 4554, " prepare": 4555, " harbor": 4556, " ignore": 4557, " country": 4558, " language": 4559, " Buzzy": 4560, " pulls": 4561, " plastic": 4562, " supply": 4563, " float": 4564, " sniffed": 4565, " Jazz": 4566, " replace": 4567, " meas": 4568, " shovel": 4569, " Bill": 4570, " raise": 4571, " Next": 4572, " fre": 4573, " cared": 4574, " socks": 4575, " strip": 4576, " doors": 4577, " mystery": 4578, " lives": 4579, " restore": 4580, " sticker": 4581, " sudden": 4582, "ari": 4583, " kinds": 4584, " slippery": 4585, "ero": 4586, " Ow": 4587, " player": 4588, " panic": 4589, "ricane": 4590, " hoping": 4591, "iday": 4592, " shone": 4593, "lex": 4594, "ude": 4595, "hero": 4596, " Mike": 4597, " Binky": 4598, " superhero": 4599, " delighted": 4600, " gro": 4601, "Yay": 4602, " chickens": 4603, " shoulder": 4604, " rained": 4605, " colourful": 4606, " breat": 4607, " Alice": 4608, " claw": 4609, " Bubbles": 4610, "Yuck": 4611, " softly": 4612, "rise": 4613, " port": 4614, "Grandma": 4615, " hol": 4616, "icer": 4617, " holiday": 4618, "oof": 4619, " \u00e2\u0080": 4620, " barks": 4621, "ason": 4622, " throwing": 4623, " planes": 4624, "Mary": 4625, " bend": 4626, " Freddy": 4627, " shakes": 4628, " infant": 4629, " ended": 4630, " shivering": 4631, " kneel": 4632, " sunrise": 4633, " pushes": 4634, " Olive": 4635, " thanks": 4636, " fresh": 4637, " suffer": 4638, " points": 4639, "imed": 4640, "wards": 4641, " Pat": 4642, " tip": 4643, " Speedy": 4644, " freeze": 4645, " keeping": 4646, " Would": 4647, " giggle": 4648, " copper": 4649, " smells": 4650, " dear": 4651, "ah": 4652, " enter": 4653, " provide": 4654, "cast": 4655, "chanic": 4656, " dishes": 4657, " End": 4658, " applau": 4659, "cond": 4660, " unh": 4661, "Next": 4662, " heads": 4663, " hurricane": 4664, " cherry": 4665, " thumb": 4666, " menu": 4667, " meowed": 4668, " mass": 4669, " second": 4670, " brighter": 4671, "ince": 4672, " sandcast": 4673, " mechanic": 4674, " wre": 4675, " sprayed": 4676, " letting": 4677, " event": 4678, " weapon": 4679, " laught": 4680, " x": 4681, " laughter": 4682, " clapping": 4683, " feelings": 4684, "Will": 4685, "icky": 4686, " splashing": 4687, "ement": 4688, " Or": 4689, "acked": 4690, " castles": 4691, " Fl": 4692, "cer": 4693, " score": 4694, "apping": 4695, " universe": 4696, " navy": 4697, " dem": 4698, " sticky": 4699, "ophie": 4700, " rooms": 4701, " row": 4702, " flies": 4703, "igi": 4704, " Dave": 4705, " unhappy": 4706, " greedy": 4707, " dare": 4708, " alive": 4709, " breaks": 4710, " ener": 4711, " courage": 4712, " invit": 4713, "Ready": 4714, " repeat": 4715, " demand": 4716, "gie": 4717, " trusted": 4718, "Lisa": 4719, " somewhere": 4720, "arlie": 4721, " prune": 4722, "bles": 4723, " wreck": 4724, " Y": 4725, " skill": 4726, " examine": 4727, " parts": 4728, "year": 4729, " eaten": 4730, "oe": 4731, "All": 4732, "erc": 4733, "enry": 4734, " mention": 4735, " raining": 4736, " Help": 4737, " snug": 4738, "Buddy": 4739, " throws": 4740, " jogged": 4741, "quest": 4742, " starting": 4743, " rush": 4744, " poison": 4745, " pirates": 4746, "heart": 4747, " vac": 4748, " content": 4749, "Emma": 4750, " Kiki": 4751, " sigh": 4752, " flapped": 4753, " drops": 4754, " chirp": 4755, " sport": 4756, "Qu": 4757, " sparkled": 4758, " Zoomy": 4759, " given": 4760, " streng": 4761, " steel": 4762, "Ann": 4763, " bumped": 4764, " yawned": 4765, " stud": 4766, " request": 4767, " scold": 4768, " myself": 4769, " strength": 4770, " shrugged": 4771, "Mark": 4772, " coats": 4773, " punish": 4774, " equ": 4775, " university": 4776, " paid": 4777, " Johnny": 4778, " pigs": 4779, " scratch": 4780, " toe": 4781, " exerc": 4782, " tracks": 4783, " upstairs": 4784, " prayed": 4785, " crossed": 4786, " squeezed": 4787, " impressed": 4788, " flood": 4789, " bouncing": 4790, "Alice": 4791, " rabbits": 4792, "ges": 4793, " badly": 4794, "..": 4795, " warn": 4796, " leather": 4797, " tug": 4798, " expect": 4799, " news": 4800, " tide": 4801, " Ted": 4802, " minute": 4803, " bears": 4804, " claws": 4805, " buzz": 4806, " sweetheart": 4807, " Sm": 4808, "yth": 4809, " nation": 4810, "Sh": 4811, "ythm": 4812, " vacation": 4813, " hist": 4814, " heat": 4815, " strawberries": 4816, " observe": 4817, " explored": 4818, " settle": 4819, " sandcastle": 4820, " yawn": 4821, " history": 4822, " Lilly": 4823, " Lola": 4824, "mare": 4825, " Mummy": 4826, " Sque": 4827, "ially": 4828, "inking": 4829, " believed": 4830, " horses": 4831, "Daddy": 4832, " Hoppy": 4833, " checked": 4834, " Mandy": 4835, " tour": 4836, " network": 4837, " cheek": 4838, " Under": 4839, " offer": 4840, " easily": 4841, " placed": 4842, "spec": 4843, " spots": 4844, " snowball": 4845, "ween": 4846, "men": 4847, " energy": 4848, " Bee": 4849, " imagination": 4850, " blueberry": 4851, "otten": 4852, " between": 4853, "specially": 4854, " Gigi": 4855, "izes": 4856, " daisy": 4857, " waving": 4858, "reeze": 4859, "reat": 4860, " vroom": 4861, " soak": 4862, " safari": 4863, " rhythm": 4864, " massage": 4865, " stomach": 4866, " baking": 4867, "quake": 4868, " nightmare": 4869, " insisted": 4870, " blowing": 4871, " entered": 4872, "Before": 4873, " stair": 4874, " palm": 4875, " beauty": 4876, " twisted": 4877, " bother": 4878, " writing": 4879, " scoop": 4880, " prunes": 4881, " brain": 4882, " ing": 4883, "ipment": 4884, " poppy": 4885, " hills": 4886, "noon": 4887, " afternoon": 4888, " equipment": 4889, " especially": 4890, " Ru": 4891, "hest": 4892, " sir": 4893, " pad": 4894, " See": 4895, " ingred": 4896, " Fox": 4897, " calls": 4898, " ingredient": 4899, " earthquake": 4900, " ignored": 4901, " Snowy": 4902, " burned": 4903, " nobody": 4904, "mble": 4905, " sty": 4906, "apa": 4907, " sew": 4908, "isty": 4909, "xygen": 4910, " hearts": 4911, " lear": 4912, " learnt": 4913, " lemonade": 4914, " increase": 4915, "illie": 4916, "Jenny": 4917, " gaz": 4918, " backpack": 4919, " mailman": 4920, " whistled": 4921, " pedal": 4922, " Sk": 4923, "Fred": 4924, " shopkeeper": 4925, "ffic": 4926, " permit": 4927, " tremble": 4928, " yucky": 4929, "anges": 4930, " moves": 4931, " introduce": 4932, " lemons": 4933, " crash": 4934, " beans": 4935, " floated": 4936, "edn": 4937, "ednesday": 4938, "ittens": 4939, "Welcome": 4940, " planned": 4941, " strike": 4942, " traffic": 4943, " include": 4944, " slap": 4945, " racing": 4946, " Lucky": 4947, "resses": 4948, " wisdom": 4949, " pur": 4950, " wags": 4951, " Finny": 4952, "laimed": 4953, " George": 4954, " luck": 4955, " following": 4956, " price": 4957, "ecting": 4958, " mama": 4959, " pitch": 4960, " below": 4961, " Elly": 4962, " Have": 4963, "Le": 4964, " weight": 4965, " exclaimed": 4966, "house": 4967, " buried": 4968, " follows": 4969, " comf": 4970, " recognize": 4971, " ingredients": 4972, " \n": 4973, " furt": 4974, "tain": 4975, "mem": 4976, " candles": 4977, "eme": 4978, "Mimi": 4979, " marbles": 4980, "riage": 4981, "unday": 4982, "emember": 4983, "eration": 4984, " Alex": 4985, " apart": 4986, " Wednesday": 4987, " growled": 4988, "uct": 4989, "ores": 4990, " conf": 4991, " teaching": 4992, " hopes": 4993, " folded": 4994, " closely": 4995, " Finn": 4996, " Who": 4997, " heel": 4998, " Su": 4999, " Sunday": 5000, " encourage": 5001, " Paul": 5002, " Owl": 5003, " zigzag": 5004, " pulling": 5005, " bouncy": 5006, " further": 5007, " chewed": 5008, " digging": 5009, " winning": 5010, "Woof": 5011, "With": 5012, " dresses": 5013, " image": 5014, "rec": 5015, "cery": 5016, " encoura": 5017, " shouting": 5018, " grocery": 5019, " twisty": 5020, " peanuts": 5021, " puzzles": 5022, "bbing": 5023, " Dog": 5024, "look": 5025, " scrat": 5026, " chores": 5027, " whisper": 5028, " Is": 5029, " spike": 5030, " Froggy": 5031, " cape": 5032, " snail": 5033, " acorns": 5034, " worms": 5035, "hood": 5036, " deeper": 5037, " urge": 5038, "ifi": 5039, " exper": 5040, " Whenever": 5041, " Tilly": 5042, " Squeaky": 5043, " Grace": 5044, " planted": 5045, " attention": 5046, "ecture": 5047, " exercise": 5048, " Danny": 5049, " cub": 5050, " operation": 5051, " underground": 5052, " hon": 5053, " agre": 5054, " quite": 5055, " creatures": 5056, " simp": 5057, "Everyone": 5058, " struggle": 5059, "oral": 5060, " Mittens": 5061, "ddy": 5062, " blood": 5063, " lecture": 5064, " washing": 5065, " hurting": 5066, " vanished": 5067, " gifts": 5068, " dressed": 5069, " invitation": 5070, " solved": 5071, " licks": 5072, " snuggled": 5073, " Sharing": 5074, "ippy": 5075, " ble": 5076, " marriage": 5077, " quietly": 5078, " warning": 5079, " jazz": 5080, " breathe": 5081, "reci": 5082, " elephants": 5083, " sizes": 5084, " dried": 5085, " fallen": 5086, " landscape": 5087, "ories": 5088, " sprink": 5089, " neighbour": 5090, " mice": 5091, "uesday": 5092, " appreci": 5093, " Sophie": 5094, " Joey": 5095, " \u00e2\u0080\u0093": 5096, " eagerly": 5097, " sailing": 5098, " Coco": 5099, " paused": 5100, "ips": 5101, " counter": 5102, " Good": 5103, " Bounce": 5104, " Penny": 5105, " worth": 5106, "looking": 5107, " Rock": 5108, " oxygen": 5109, "Because": 5110, " release": 5111, " shined": 5112, "Not": 5113, "pted": 5114, " reaches": 5115, " balan": 5116, " Zara": 5117, "isses": 5118, " oh": 5119, " kisses": 5120, " style": 5121, " bricks": 5122, " plays": 5123, " glo": 5124, " Tuesday": 5125, " ideas": 5126, "sed": 5127, " inst": 5128, " wob": 5129, " fireworks": 5130, "Bella": 5131, "iggly": 5132, "ucked": 5133, " seeing": 5134, " flap": 5135, " accepted": 5136, "right": 5137, " Pip": 5138, "Today": 5139, " blink": 5140, "mm": 5141, " Ros": 5142, " tremb": 5143, "These": 5144, " muddy": 5145, " memory": 5146, " married": 5147, " tomatoes": 5148, " exit": 5149, " Annie": 5150, "ops": 5151, " wagging": 5152, " fash": 5153, "Remy": 5154, " Charlie": 5155, " wandered": 5156, "unately": 5157, "ipping": 5158, " gloves": 5159, " captain": 5160, " pillows": 5161, " receive": 5162, " resp": 5163, " Pinky": 5164, " during": 5165, " Everything": 5166, "etch": 5167, " web": 5168, " petals": 5169, " watered": 5170, " Eventually": 5171, "ived": 5172, " manage": 5173, " pinched": 5174, " brings": 5175, "ux": 5176, " vanish": 5177, " cakes": 5178, " fashion": 5179, " Bluey": 5180, " printer": 5181, " destroyed": 5182, " treasures": 5183, "nce": 5184, " allow": 5185, "ups": 5186, " hadn": 5187, " worse": 5188, " Fifi": 5189, "Surpr": 5190, " vel": 5191, " hits": 5192, " bur": 5193, "uxu": 5194, " velvet": 5195, " appear": 5196, " disagree": 5197, "do": 5198, " catching": 5199, " scattered": 5200, " Ro": 5201, " memories": 5202, " sorts": 5203, " Papa": 5204, " hers": 5205, " scolded": 5206, " signs": 5207, " pears": 5208, " oranges": 5209, " bones": 5210, " rang": 5211, " snapped": 5212, " sits": 5213, " seats": 5214, "Bl": 5215, " gazed": 5216, " raised": 5217, " si": 5218, " Maria": 5219, " zipped": 5220, " pies": 5221, " prints": 5222, " shot": 5223, " sliding": 5224, " God": 5225, " fro": 5226, " easier": 5227, "ssible": 5228, " skills": 5229, " climbs": 5230, " twirled": 5231, "ccer": 5232, " blankets": 5233, "ester": 5234, " forgotten": 5235, " applaud": 5236, " baked": 5237, "Yum": 5238, "esterday": 5239, " difference": 5240, "orted": 5241, " luxu": 5242, " golden": 5243, "ising": 5244, " kitty": 5245, " Tw": 5246, " cutting": 5247, " season": 5248, "aggie": 5249, " nowhere": 5250, " crow": 5251, " soccer": 5252, " dared": 5253, " bites": 5254, " Henry": 5255, " Harry": 5256, "anny": 5257, " celebrated": 5258, " lung": 5259, "choo": 5260, "chie": 5261, " straight": 5262, " unlocked": 5263, "sters": 5264, " sorting": 5265, " collected": 5266, " bleed": 5267, "aped": 5268, " welcomed": 5269, " visited": 5270, " spoons": 5271, " ours": 5272, " stitch": 5273, " jogging": 5274, "Surprise": 5275, "medi": 5276, " emer": 5277, " Spark": 5278, "mediately": 5279, " isn": 5280, " tong": 5281, " trave": 5282, " winner": 5283, "umble": 5284, " since": 5285, " ruin": 5286, " prett": 5287, "Ok": 5288, "Moral": 5289, " Tony": 5290, " attached": 5291, " weeping": 5292, " marching": 5293, " luxury": 5294, " simple": 5295, " Each": 5296, " shouldn": 5297, " guessed": 5298, " zero": 5299, " created": 5300, " stuffed": 5301, " pets": 5302, "ction": 5303, " waist": 5304, " famil": 5305, " urged": 5306, " bowed": 5307, " selling": 5308, " floating": 5309, "rr": 5310, " Smith": 5311, " bye": 5312, " King": 5313, " vict": 5314, " kingdom": 5315, " olives": 5316, " kicking": 5317, " Wiggly": 5318, " punished": 5319, " Liz": 5320, " Baby": 5321, "sit": 5322, " toes": 5323, " An": 5324, " grant": 5325, " muscles": 5326, " jewels": 5327, " Rosie": 5328, " beds": 5329, " melted": 5330, "Goodbye": 5331, " slice": 5332, " grin": 5333, " understanding": 5334, " collection": 5335, " tore": 5336, " measured": 5337, "aker": 5338, " cras": 5339, "omeday": 5340, "iers": 5341, " trapped": 5342, " lined": 5343, "'ve": 5344, " acted": 5345, "fortunately": 5346, " encouraged": 5347, "va": 5348, " Sandy": 5349, " received": 5350, " waffles": 5351, " Before": 5352, " Wally": 5353, " west": 5354, " meow": 5355, "ents": 5356, " patterns": 5357, "rin": 5358, "ino": 5359, "eath": 5360, " brus": 5361, " mouths": 5362, "kins": 5363, "ring": 5364, " Kate": 5365, "Meow": 5366, " peaches": 5367, " breeze": 5368, "aded": 5369, "une": 5370, " printed": 5371, " soldiers": 5372, " someday": 5373, " potatoes": 5374, " pupil": 5375, "umes": 5376, " Millie": 5377, " drinks": 5378, " shed": 5379, " experience": 5380, " Tuna": 5381, "eep": 5382, " presents": 5383, " firef": 5384, " Ruby": 5385, " surround": 5386, " none": 5387, "osed": 5388, "ann": 5389, " voices": 5390, " drinking": 5391, " Uncle": 5392, "ishing": 5393, " relaxed": 5394, " victory": 5395, "cus": 5396, " paints": 5397, " breaking": 5398, "eve": 5399, " hurried": 5400, "ission": 5401, " twink": 5402, " tongue": 5403, " recor": 5404, " costumes": 5405, " flat": 5406, " mentioned": 5407, " begged": 5408, " teasing": 5409, " whistling": 5410, " fetch": 5411, " permission": 5412, " sip": 5413, " disagreed": 5414, " pearl": 5415, " six": 5416, "akes": 5417, " stro": 5418, "vest": 5419, " These": 5420, " esc": 5421, " appro": 5422, " skipping": 5423, " fishing": 5424, " May": 5425, "Leo": 5426, " highest": 5427, " pra": 5428, " watches": 5429, " sorted": 5430, " ringing": 5431, "ship": 5432, " tonight": 5433, " Bo": 5434, " opin": 5435, " lets": 5436, "icing": 5437, " Qu": 5438, " perfectly": 5439, " shadows": 5440, " immediately": 5441, " herbs": 5442, " warmth": 5443, " spit": 5444, " remained": 5445, "ther": 5446, " Its": 5447, "walk": 5448, "Bobby": 5449, "irring": 5450, "Jen": 5451, " sneak": 5452, " lips": 5453, " kneeled": 5454, "Blue": 5455, " contest": 5456, " Che": 5457, "utter": 5458, " cartoons": 5459, " sidewalk": 5460, " colours": 5461, " stamps": 5462, " ago": 5463, "Ha": 5464, " Toto": 5465, " Boo": 5466, " Follow": 5467, " east": 5468, " headed": 5469, "oved": 5470, "\",": 5471, " strang": 5472, " ladyb": 5473, " fed": 5474, " supposed": 5475, " roots": 5476, " lick": 5477, " crunch": 5478, " mixing": 5479, " works": 5480, " decorations": 5481, " melting": 5482, " known": 5483, " emergen": 5484, "Mandy": 5485, " rested": 5486, " Ab": 5487, " lines": 5488, " Suzy": 5489, " lily": 5490, " Jul": 5491, " instr": 5492, " laid": 5493, " Gr": 5494, " succeeded": 5495, " cones": 5496, " wiggle": 5497, "ety": 5498, " bang": 5499, "sing": 5500, " shock": 5501, " setting": 5502, " Slow": 5503, " studied": 5504, " strangers": 5505, " Rocky": 5506, "Really": 5507, " twigs": 5508, " brid": 5509, " theirs": 5510, " Dr": 5511, " girls": 5512, "boo": 5513, "!\",": 5514, " screams": 5515, " lands": 5516, " ordered": 5517, " stirring": 5518, " moments": 5519, " fields": 5520, " alright": 5521, " stealing": 5522, "Andy": 5523, " rul": 5524, " bravely": 5525, "avid": 5526, " Both": 5527, " mister": 5528, "!'": 5529, " invest": 5530, " scratched": 5531, " playtime": 5532, " ripped": 5533, " investig": 5534, " tucked": 5535, " resting": 5536, " burning": 5537, "ishes": 5538, " Clara": 5539, " Chicky": 5540, " bridges": 5541, " text": 5542, " officer": 5543, "please": 5544, "Sammy": 5545, "Bird": 5546, "abies": 5547, " settled": 5548, " matched": 5549, " achie": 5550, " texture": 5551, "Happy": 5552, " waits": 5553, " turning": 5554, " Sky": 5555, "Peter": 5556, "ored": 5557, " trembling": 5558, "isten": 5559, " nails": 5560, "atie": 5561, " muffins": 5562, " Someone": 5563, "ids": 5564, " escaped": 5565, " James": 5566, " piles": 5567, " investigate": 5568, "osity": 5569, " broom": 5570, " ladybug": 5571, " sore": 5572, " Pepper": 5573, " appreciate": 5574, " admir": 5575, " threat": 5576, " babies": 5577, " silence": 5578, " sisters": 5579, " emergency": 5580, " area": 5581, "ides": 5582, " dads": 5583, " answers": 5584, " pupp": 5585, " keys": 5586, " chewing": 5587, " slapped": 5588, " wiz": 5589, " importance": 5590, "Boo": 5591, " served": 5592, " Hop": 5593, " safety": 5594, "izing": 5595, "Would": 5596, "Bu": 5597, " sparkle": 5598, " touching": 5599, " Later": 5600, " soared": 5601, "igail": 5602, " sings": 5603, " hen": 5604, "allen": 5605, "Ella": 5606, "bers": 5607, "antly": 5608, "Momo": 5609, " Dino": 5610, " keeps": 5611, " amazement": 5612, " challen": 5613, " twin": 5614, " hesit": 5615, " revealed": 5616, "achel": 5617, " item": 5618, " dire": 5619, " soaked": 5620, "zing": 5621, " writ": 5622, " foods": 5623, " rides": 5624, " dinosaurs": 5625, " recorded": 5626, " tickle": 5627, " inch": 5628, " Zigzag": 5629, " Me": 5630, " wizard": 5631, " vet": 5632, " trips": 5633, " glowed": 5634, " Frog": 5635, "Mmm": 5636, " hi": 5637, " beamed": 5638, " quack": 5639, " curled": 5640, " hated": 5641, " wink": 5642, " shopping": 5643, " eats": 5644, "Eventually": 5645, " Bug": 5646, " praised": 5647, " wooden": 5648, " bringing": 5649, " mittens": 5650, " studying": 5651, " guy": 5652, " brushes": 5653, " spaceship": 5654, " gust": 5655, " crawling": 5656, " Something": 5657, "Cat": 5658, " ruler": 5659, " flav": 5660, " downstairs": 5661, " shooting": 5662, " tastes": 5663, " napping": 5664, " sprinkles": 5665, " marks": 5666, " cuddled": 5667, " dot": 5668, "hello": 5669, "plash": 5670, " fut": 5671, "ales": 5672, "aved": 5673, " future": 5674, " monsters": 5675, " collecting": 5676, " measuring": 5677, " Happy": 5678, "'.": 5679, " families": 5680, " Out": 5681, " First": 5682, " Mo": 5683, " thrill": 5684, " oat": 5685, "irts": 5686, " result": 5687, "Jake": 5688, " approached": 5689, " Rabbit": 5690, "act": 5691, " crunchy": 5692, "Un": 5693, "ding": 5694, " remem": 5695, " bleeding": 5696, " remembers": 5697, " nicer": 5698, " beat": 5699, " sneaky": 5700, " disturbed": 5701, " leader": 5702, " scaring": 5703, "Or": 5704, "hind": 5705, " peel": 5706, " Hope": 5707, " firemen": 5708, " neighborhood": 5709, " Star": 5710, " grey": 5711, " Not": 5712, " motion": 5713, " noon": 5714, " possible": 5715, "Emily": 5716, "Somet": 5717, " apologized": 5718, "ues": 5719, " weighed": 5720, "Cl": 5721, " Did": 5722, " tickets": 5723, " naps": 5724, " loose": 5725, " pride": 5726, " youth": 5727, " swims": 5728, "ped": 5729, " strings": 5730, " recognized": 5731, " siren": 5732, " poking": 5733, "fied": 5734, " Ho": 5735, "cious": 5736, "elvet": 5737, " tricked": 5738, " wonders": 5739, " gained": 5740, "ha": 5741, " wanting": 5742, " crashed": 5743, " obe": 5744, " seesaw": 5745, " worker": 5746, "unnies": 5747, "ls": 5748, "oming": 5749, " draws": 5750, " scooped": 5751, ".'": 5752, " zooming": 5753, " opinion": 5754, " yelling": 5755, " prepared": 5756, " grinned": 5757, " Slowly": 5758, " awe": 5759, " poems": 5760, " doggy": 5761, " acting": 5762, " Beep": 5763, " happiest": 5764, " chef": 5765, " sneaked": 5766, " respons": 5767, " eff": 5768, " Always": 5769, " Lizzy": 5770, " owned": 5771, " bunnies": 5772, " anytime": 5773, " struck": 5774, " pedals": 5775, "oys": 5776, " knelt": 5777, "ena": 5778, "Ollie": 5779, " secrets": 5780, " pause": 5781, " decorated": 5782, " horns": 5783, " agreement": 5784, " Squ": 5785, "ided": 5786, " frost": 5787, " tallest": 5788, " obey": 5789, "Remember": 5790, "riends": 5791, "ogo": 5792, " Stop": 5793, " gigg": 5794, "Have": 5795, " decides": 5796, " Once": 5797, " behaved": 5798, " tugged": 5799, " sides": 5800, " woof": 5801, " slim": 5802, "zen": 5803, " goodnight": 5804, " keeper": 5805, " sparkling": 5806, " chirped": 5807, " precious": 5808, "mother": 5809, "uggling": 5810, "ien": 5811, "lier": 5812, "Tr": 5813, " repeated": 5814, " claps": 5815, "indy": 5816, "affes": 5817, " snowballs": 5818, " contain": 5819, "rs": 5820, " Ray": 5821, " ourselves": 5822, "allow": 5823, " giraffes": 5824, " balancing": 5825, " kindly": 5826, " spending": 5827, " writes": 5828, "ays": 5829, "ppers": 5830, " Like": 5831, "omas": 5832, " prop": 5833, " hissed": 5834, "First": 5835, " frozen": 5836, " frosting": 5837, " effort": 5838, " buzzing": 5839, " struggled": 5840, " Steve": 5841, " admiring": 5842, " rele": 5843, "iggy": 5844, " sweeties": 5845, " Velvet": 5846, " slimy": 5847, " brushed": 5848, " Am": 5849, " bloomed": 5850, "Susie": 5851, " polished": 5852, " Zoe": 5853, "arth": 5854, " comfy": 5855, " boo": 5856, " staying": 5857, " rubbing": 5858, "Ducky": 5859, " rocking": 5860, " pockets": 5861, " thrilled": 5862, " beside": 5863, " comple": 5864, " Aunt": 5865, " Maggie": 5866, "Ah": 5867, " eight": 5868, "urry": 5869, "isdom": 5870, " machines": 5871, " earlier": 5872, " yesterday": 5873, " seems": 5874, " rust": 5875, " Keep": 5876, "Sp": 5877, " traveled": 5878, " folding": 5879, " boom": 5880, " cracked": 5881, "ities": 5882, " hugging": 5883, " radishes": 5884, " Stitch": 5885, " opening": 5886, " loving": 5887, " circus": 5888, " surrounded": 5889, " curiosity": 5890, " Rachel": 5891, " spraying": 5892, " demanded": 5893, "oh": 5894, "anted": 5895, " paintings": 5896, "amie": 5897, " Green": 5898, " removed": 5899, " gaze": 5900, " honk": 5901, " pebbles": 5902, " zookeeper": 5903, " hardly": 5904, " catches": 5905, "edding": 5906, " sting": 5907, " stripes": 5908, " powers": 5909, " loaded": 5910, " Pippa": 5911, "Sometimes": 5912, " splashes": 5913, " pots": 5914, " petted": 5915, " matching": 5916, " David": 5917, "Thanks": 5918, " toss": 5919, " stare": 5920, " belly": 5921, "Yummy": 5922, "ibb": 5923, " whatever": 5924, " apologize": 5925, " rocked": 5926, " comforted": 5927, " Bree": 5928, " decision": 5929, "ern": 5930, " ribbons": 5931, " Joy": 5932, " Birdie": 5933, " struggling": 5934, " expected": 5935, " deser": 5936, " steep": 5937, "wh": 5938, " protected": 5939, " neighbors": 5940, " smiley": 5941, " chases": 5942, "During": 5943, " granted": 5944, " crumb": 5945, " Mat": 5946, " purred": 5947, " diving": 5948, " sadness": 5949, "Whiskers": 5950, " organizing": 5951, "lowers": 5952, " eagle": 5953, " heroes": 5954, " dipped": 5955, " sunlight": 5956, " lied": 5957, " pastels": 5958, " Frank": 5959, "Ex": 5960, " safer": 5961, " roads": 5962, " scru": 5963, " argued": 5964, " Milly": 5965, " goals": 5966, " Water": 5967, " discovery": 5968, " Abigail": 5969, " villag": 5970, " peered": 5971, "Ro": 5972, " Bouncy": 5973, "use": 5974, "loe": 5975, " tim": 5976, " dragons": 5977, " buildings": 5978, " buckets": 5979, " parties": 5980, " beard": 5981, " wedding": 5982, "Rex": 5983, " flutter": 5984, " planets": 5985, " ann": 5986, " Robby": 5987, " polishing": 5988, " fasc": 5989, "ira": 5990, " released": 5991, " Chr": 5992, " crabs": 5993, " Gogo": 5994, " tails": 5995, " Watch": 5996, " sausages": 5997, " argu": 5998, " contro": 5999, " bottles": 6000, " wiggled": 6001, " teased": 6002, "uke": 6003, " arguing": 6004, " sled": 6005, " padd": 6006, " dragged": 6007, " Car": 6008, " roaring": 6009, " clearing": 6010, " shirts": 6011, " movies": 6012, " gathering": 6013, " airpl": 6014, " wid": 6015, "joyed": 6016, " teaches": 6017, " spiders": 6018, " limes": 6019, " Remember": 6020, " Dare": 6021, " overjoyed": 6022, " actually": 6023, " sighs": 6024, " continue": 6025, " cuddle": 6026, " soaring": 6027, " smallest": 6028, " Jess": 6029, " drives": 6030, " Ju": 6031, " sparkles": 6032, " rip": 6033, " situ": 6034, " cubes": 6035, " refres": 6036, " talent": 6037, " challenge": 6038, " Olly": 6039, " grandmother": 6040, " Splash": 6041, " pouring": 6042, "umm": 6043, " pretends": 6044, " fascin": 6045, " cuts": 6046, " shrug": 6047, " quarreling": 6048, " peppers": 6049, " bank": 6050, "ten": 6051, " shivered": 6052, " mane": 6053, " dusty": 6054, " Jenn": 6055, "ley": 6056, " wondering": 6057, " villagers": 6058, " stretching": 6059, "njoy": 6060, "ib": 6061, " weeks": 6062, " wherever": 6063, " darker": 6064, "jam": 6065, "Tiny": 6066, "sses": 6067, " X": 6068, " rings": 6069, " onwards": 6070, " Katie": 6071, " united": 6072, "Achoo": 6073, " bead": 6074, " Everyday": 6075, " Being": 6076, " prettiest": 6077, "Johnny": 6078, " caut": 6079, " realize": 6080, " company": 6081, " penguins": 6082, "annah": 6083, "Luna": 6084, "Fr": 6085, " Spring": 6086, " bedtime": 6087, " completed": 6088, " Wisdom": 6089, " Leave": 6090, "\u00e2\u0080\u009d.": 6091, " knights": 6092, " flags": 6093, " Je": 6094, " Because": 6095, " playroom": 6096, " Prin": 6097, " actions": 6098, " Zero": 6099, " learns": 6100, " gotten": 6101, " patience": 6102, "inda": 6103, "dam": 6104, " kites": 6105, " responsible": 6106, " fears": 6107, " destination": 6108, " wires": 6109, " reply": 6110, " wrist": 6111, " dam": 6112, "aws": 6113, " packing": 6114, " mountains": 6115, " fault": 6116, " applauded": 6117, " scrubbed": 6118, " ma": 6119, " crept": 6120, " Ava": 6121, "Uh": 6122, " Earth": 6123, " satis": 6124, " third": 6125, " phot": 6126, " pencils": 6127, " wins": 6128, " sticking": 6129, " baker": 6130, " visiting": 6131, " wound": 6132, " uses": 6133, " peas": 6134, " reminder": 6135, " control": 6136, "ashed": 6137, "Grandpa": 6138, " joking": 6139, " awake": 6140, " instruct": 6141, " staring": 6142, " healed": 6143, " Put": 6144, "An": 6145, " hitting": 6146, " Fish": 6147, " screaming": 6148, " begin": 6149, "Rob": 6150, "uckily": 6151, " Friends": 6152, " Moo": 6153, "icorn": 6154, " helmets": 6155, "enty": 6156, " unicorn": 6157, "seek": 6158, " towels": 6159, "Silly": 6160, " Lou": 6161, " chips": 6162, "ica": 6163, " creation": 6164, " wasted": 6165, "bie": 6166, "Mar": 6167, " Behind": 6168, "laire": 6169, " masks": 6170, " items": 6171, " forgi": 6172, "ler": 6173, " firefight": 6174, " outdo": 6175, " lollipops": 6176, "Watch": 6177, " heav": 6178, " guns": 6179, " died": 6180, " Hippy": 6181, " seas": 6182, " glitter": 6183, "uddles": 6184, " arrive": 6185, " weren": 6186, " stole": 6187, " scales": 6188, " perched": 6189, " accom": 6190, " logs": 6191, " achieve": 6192, "die": 6193, " practicing": 6194, "ining": 6195, " whose": 6196, "Stay": 6197, " pumpkins": 6198, " instructions": 6199, " swoop": 6200, " batteries": 6201, " candies": 6202, " agrees": 6203, " project": 6204, " snakes": 6205, " chirping": 6206, "Benny": 6207, " shelves": 6208, " protecting": 6209, " parked": 6210, " exact": 6211, " Cra": 6212, " patiently": 6213, " activ": 6214, " videos": 6215, " shoulders": 6216, " blows": 6217, "hee": 6218, "Fo": 6219, " promises": 6220, "go": 6221, " dent": 6222, "usan": 6223, "uest": 6224, "jamas": 6225, " examined": 6226, " airplane": 6227, "Doggy": 6228, " roses": 6229, "ners": 6230, " accompl": 6231, " tasks": 6232, "Dave": 6233, " Hoot": 6234, "Poppy": 6235, " Bop": 6236, "Bunny": 6237, " beads": 6238, " bowls": 6239, " crumbs": 6240, "zes": 6241, " listens": 6242, " Love": 6243, " Catty": 6244, " Brownie": 6245, "Pete": 6246, " Ol": 6247, " dolphins": 6248, " cough": 6249, " bunch": 6250, " guest": 6251, "cakes": 6252, " requested": 6253, " remote": 6254, " improved": 6255, "anta": 6256, " reaching": 6257, " brand": 6258, "ayla": 6259, " alien": 6260, " Bye": 6261, "irm": 6262, " copy": 6263, " Sun": 6264, " cheering": 6265, " photos": 6266, " Julie": 6267, " Chew": 6268, "uggles": 6269, "Bad": 6270, " Jan": 6271, " Blink": 6272, "Time": 6273, " cans": 6274, " Cuddles": 6275, "...": 6276, " timer": 6277, " By": 6278, " replaced": 6279, "athy": 6280, " workers": 6281, " stern": 6282, " Enjoy": 6283, "aster": 6284, " neither": 6285, "Mike": 6286, " passing": 6287, " misses": 6288, " curtains": 6289, " confl": 6290, "Chirpy": 6291, " rainbows": 6292, " rubs": 6293, "George": 6294, "uctantly": 6295, " rolls": 6296, " patted": 6297, "ilo": 6298, " pajamas": 6299, " outdoors": 6300, "esome": 6301, "dies": 6302, " complaining": 6303, " Squirrel": 6304, "Lola": 6305, "Run": 6306, " puppet": 6307, " Princess": 6308, " closes": 6309, " beneath": 6310, " lap": 6311, " drums": 6312, " tune": 6313, " Beth": 6314, " Mouse": 6315, " filling": 6316, "Miss": 6317, "angled": 6318, " refuse": 6319, " Sorry": 6320, " sweat": 6321, " faced": 6322, " seven": 6323, " balanced": 6324, "eal": 6325, " rescued": 6326, "neath": 6327, "bl": 6328, " quacked": 6329, " Abby": 6330, "uded": 6331, "Paul": 6332, "istle": 6333, " awesome": 6334, " 1": 6335, " mission": 6336, " However": 6337, " guys": 6338, " conflict": 6339, " cautious": 6340, " vent": 6341, " observed": 6342, " cause": 6343, " introduc": 6344, " Thomas": 6345, " pastries": 6346, "  ": 6347, " Our": 6348, " exactly": 6349, " doctors": 6350, " rule": 6351, " becoming": 6352, " policeman": 6353, " mes": 6354, "uly": 6355, " rockets": 6356, "you": 6357, " Yes": 6358, " Dot": 6359, " fairies": 6360, "lay": 6361, " pout": 6362, " insist": 6363, " blooming": 6364, " tractor": 6365, " farther": 6366, " Sad": 6367, "avi": 6368, "Oops": 6369, "Great": 6370, " remembering": 6371, " included": 6372, "gers": 6373, " curly": 6374, "Zoom": 6375, "Fine": 6376, " teamwork": 6377, "zie": 6378, " fascinated": 6379, " wobbled": 6380, " slam": 6381, " truly": 6382, " helpers": 6383, " sights": 6384, " paddle": 6385, " stumble": 6386, " firm": 6387, "onn": 6388, "Henry": 6389, " Jilly": 6390, "acob": 6391, " caused": 6392, " prayer": 6393, " spong": 6394, " recording": 6395, "kelly": 6396, "ais": 6397, " traded": 6398, " starfish": 6399, " supplies": 6400, " thro": 6401, " pointy": 6402, " situation": 6403, " inviting": 6404, "eah": 6405, " neighbourhood": 6406, " everyday": 6407, " ornaments": 6408, " Ally": 6409, "inkle": 6410, " valued": 6411, " adding": 6412, "Some": 6413, " reluctantly": 6414, " dots": 6415, " stays": 6416, " tables": 6417, " prettier": 6418, " bare": 6419, " desert": 6420, " snowmen": 6421, " steady": 6422, " minerals": 6423, "araway": 6424, " thorn": 6425, "ody": 6426, " ast": 6427, " glasses": 6428, " faraway": 6429, "sm": 6430, " Get": 6431, " Foxy": 6432, " swooped": 6433, " Welcome": 6434, " Two": 6435, " Sure": 6436, " unf": 6437, " forks": 6438, " usually": 6439, " usual": 6440, "Polly": 6441, " dar": 6442, " Jamie": 6443, " winked": 6444, " sneezing": 6445, " solut": 6446, " loading": 6447, " sponge": 6448, " Quick": 6449, " insects": 6450, " pans": 6451, "Dog": 6452, " sobbed": 6453, " Santa": 6454, "James": 6455, " growling": 6456, "arter": 6457, " throat": 6458, " Chloe": 6459, " noses": 6460, " Josh": 6461, " Dizzy": 6462, " scarves": 6463, " confident": 6464, " yourselves": 6465, " Want": 6466, "agull": 6467, " homework": 6468, " superheroes": 6469, " Stay": 6470, "Joey": 6471, "rrr": 6472, " smarter": 6473, " windy": 6474, " librarian": 6475, "Tina": 6476, " Kids": 6477, " gems": 6478, "Days": 6479, "ora": 6480, " underneath": 6481, " kicks": 6482, " knowled": 6483, " itchy": 6484, " knowledge": 6485, " jackets": 6486, " Skelly": 6487, " For": 6488, " surface": 6489, " untie": 6490, " comm": 6491, " Duck": 6492, " princesses": 6493, "...\"": 6494, "Those": 6495, "ido": 6496, "Hold": 6497, "Yeah": 6498, "coon": 6499, " squares": 6500, " Henny": 6501, " warnings": 6502, " giggling": 6503, "iar": 6504, " reads": 6505, "vin": 6506, "Our": 6507, " choo": 6508, "eed": 6509, " younger": 6510, " clowns": 6511, " Mix": 6512, "Toby": 6513, "son": 6514, " ropes": 6515, " biting": 6516, " crowd": 6517, " Unfortunately": 6518, "pite": 6519, "Danny": 6520, "True": 6521, " seagull": 6522, " paddled": 6523, " wears": 6524, " delivered": 6525, " Mon": 6526, " twirl": 6527, " onions": 6528, " buzzed": 6529, " complained": 6530, " bumpy": 6531, " stem": 6532, "Ew": 6533, " piggy": 6534, "Mrs": 6535, " Anne": 6536, " direction": 6537, "ouch": 6538, " dived": 6539, "Roar": 6540, " tangled": 6541, " startled": 6542, "ults": 6543, " leaning": 6544, "bbie": 6545, " Ant": 6546, " Jones": 6547, " badge": 6548, " Po": 6549, "Grace": 6550, " unp": 6551, " deal": 6552, "though": 6553, "Annie": 6554, " vowed": 6555, " napkins": 6556, "anes": 6557, " tickled": 6558, " risk": 6559, " covers": 6560, " pec": 6561, "Shh": 6562, " yells": 6563, " satisfied": 6564, "int": 6565, " knocks": 6566, " refreshed": 6567, "tuce": 6568, " Sc": 6569, "cuse": 6570, " cous": 6571, " arrows": 6572, "Maggie": 6573, " Whistle": 6574, "Pe": 6575, " wipes": 6576, " speaking": 6577, " lettuce": 6578, " guessing": 6579, "Unfortunately": 6580, " Quack": 6581, " ripe": 6582, " Susan": 6583, " hides": 6584, " choices": 6585, " Dodo": 6586, " Rover": 6587, "Buzz": 6588, " signed": 6589, " slower": 6590, " seeker": 6591, " introduced": 6592, " singer": 6593, " creating": 6594, " Matt": 6595, " froze": 6596, " cent": 6597, " joked": 6598, " squeal": 6599, " toaster": 6600, " explorers": 6601, " avo": 6602, "Sophie": 6603, " praying": 6604, " written": 6605, " discovering": 6606, " provided": 6607, " Dara": 6608, " refle": 6609, " Lion": 6610, "Excuse": 6611, " mushrooms": 6612, " Jeff": 6613, " Paws": 6614, " paying": 6615, " knees": 6616, "fit": 6617, "ences": 6618, " hider": 6619, " wandering": 6620, " Ash": 6621, " images": 6622, "Charlie": 6623, " stung": 6624, " Wink": 6625, " magnets": 6626, " barely": 6627, " behaving": 6628, " tipto": 6629, "?\",": 6630, " marked": 6631, "brush": 6632, " restored": 6633, " Dee": 6634, " leading": 6635, "lled": 6636, "Big": 6637, " chuck": 6638, "ados": 6639, " nine": 6640, " greet": 6641, "Teddy": 6642, " gears": 6643, " bravery": 6644, " Snuggles": 6645, "ky": 6646, " competition": 6647, " outfit": 6648, "oline": 6649, " wishing": 6650, " properly": 6651, " ventured": 6652, "tle": 6653, "aa": 6654, " muscle": 6655, " dances": 6656, " chat": 6657, " salty": 6658, " pens": 6659, "amb": 6660, " Betsy": 6661, " ranger": 6662, " Ziggy": 6663, " deserve": 6664, " however": 6665, "sequ": 6666, " matters": 6667, " darkness": 6668, " burst": 6669, " Fu": 6670, " rainy": 6671, " cobwebs": 6672, " ruining": 6673, " chefs": 6674, " consequ": 6675, " blocking": 6676, " bak": 6677, "usted": 6678, "itely": 6679, "sty": 6680, " scur": 6681, " vines": 6682, " fab": 6683, "abel": 6684, " fabric": 6685, " entire": 6686, " basement": 6687, " performed": 6688, " least": 6689, " Buggy": 6690, "Sn": 6691, " scratches": 6692, " heavier": 6693, " Claire": 6694, " mints": 6695, " twirling": 6696, " avocados": 6697, "However": 6698, " Linda": 6699, "rink": 6700, "fl": 6701, " scurried": 6702, " losing": 6703, " sunflowers": 6704, " Jenna": 6705, " rainco": 6706, " swords": 6707, "Tweet": 6708, " click": 6709, " \n ": 6710, "agic": 6711, " Laser": 6712, " silent": 6713, " jobs": 6714, " necklaces": 6715, " flames": 6716, " Luke": 6717, " relief": 6718, " Grumpy": 6719, " snat": 6720, " sewed": 6721, " rotting": 6722, "len": 6723, "Listen": 6724, "Follow": 6725, " tricky": 6726, "Jerry": 6727, " lighter": 6728, "ophia": 6729, " bows": 6730, " Skip": 6731, " exha": 6732, " solution": 6733, " consequences": 6734, "Alex": 6735, " Lena": 6736, " tires": 6737, " stain": 6738, " Pr": 6739, "Beep": 6740, " unpacked": 6741, "Ab": 6742, " partic": 6743, "rance": 6744, " races": 6745, " pins": 6746, " bumps": 6747, " wraps": 6748, "aisies": 6749, " wow": 6750, " decorating": 6751, " backed": 6752, "cher": 6753, " dentist": 6754, " purr": 6755, " needles": 6756, " cautiously": 6757, " lifting": 6758, "izzie": 6759, " accomplish": 6760, " triangles": 6761, " daisies": 6762, "ept": 6763, " hesitated": 6764, " annoy": 6765, " Those": 6766, " growls": 6767, " crackers": 6768, "oke": 6769, " stomped": 6770, " grabbing": 6771, " cott": 6772, " figured": 6773, " bodies": 6774, " mater": 6775, " buying": 6776, " Tree": 6777, " material": 6778, " Rolly": 6779, " Fido": 6780, " Adam": 6781, " swans": 6782, " ties": 6783, " gri": 6784, "vers": 6785, " grows": 6786, " sweets": 6787, " Goodbye": 6788, " El": 6789, " owners": 6790, " flavor": 6791, " cheeks": 6792, " Cathy": 6793, " suffering": 6794, " Jessie": 6795, "vroom": 6796, " fact": 6797, " groups": 6798, "cl": 6799, "bly": 6800, " forehead": 6801, " lungs": 6802, "Harry": 6803, " repa": 6804, " interested": 6805, " bakery": 6806, " Milo": 6807, " freed": 6808, "Lilly": 6809, "itches": 6810, " Nothing": 6811, " chuckled": 6812, "For": 6813, " swept": 6814, " conn": 6815, "?'": 6816, " thud": 6817, " exhausted": 6818, "Tw": 6819, " twinkling": 6820, " tapped": 6821, " nect": 6822, "rosty": 6823, " nectar": 6824, "elle": 6825, " feast": 6826, " darling": 6827, "indr": 6828, " Mad": 6829, " worries": 6830, " uns": 6831, " tunnels": 6832, " fuzzy": 6833, " repaired": 6834, " reason": 6835, " Trust": 6836, " Copper": 6837, " Ball": 6838, " activities": 6839, "lets": 6840, " pecked": 6841, " Hannah": 6842, " entrance": 6843, " Try": 6844, " raindr": 6845, " meals": 6846, " Listen": 6847, " particular": 6848, " completely": 6849, " mailed": 6850, "ctions": 6851, " nests": 6852, " waiter": 6853, " cuddly": 6854, " sense": 6855, "Ru": 6856, " Nana": 6857, " colored": 6858, "arky": 6859, " leap": 6860, "step": 6861, "band": 6862, " plenty": 6863, " peeking": 6864, " slammed": 6865, " Cara": 6866, "no": 6867, " players": 6868, " month": 6869, " budge": 6870, " Birthday": 6871, " Q": 6872, " scra": 6873, " includ": 6874, " forgets": 6875, " den": 6876, " handful": 6877, " Oliver": 6878, " mer": 6879, "ossible": 6880, " genie": 6881, " Christ": 6882, " stool": 6883, " talks": 6884, " Pup": 6885, " Suzie": 6886, " passports": 6887, " feeding": 6888, " films": 6889, " baths": 6890, " impossible": 6891, " determination": 6892, "May": 6893, " printing": 6894, "boat": 6895, " designed": 6896, " buses": 6897, " opp": 6898, "ueen": 6899, "lephant": 6900, " suitcase": 6901, " bars": 6902, " counts": 6903, " stolen": 6904, " spreading": 6905, " spikes": 6906, " Snap": 6907, " wiping": 6908, " steer": 6909, " lamb": 6910, " Rain": 6911, " honked": 6912, "etty": 6913, "Whee": 6914, " cowb": 6915, " separated": 6916, "blings": 6917, " siblings": 6918, " hops": 6919, " chop": 6920, " sewing": 6921, " fires": 6922, " Twinkle": 6923, " fever": 6924, " twinkle": 6925, " ty": 6926, " camping": 6927, " Mira": 6928, " lower": 6929, " changing": 6930, "yes": 6931, "retch": 6932, " behavi": 6933, " Bloom": 6934, "mas": 6935, " liqu": 6936, " celebration": 6937, "but": 6938, " squealed": 6939, " dollhouse": 6940, "Sunny": 6941, " backward": 6942, " age": 6943, " snatched": 6944, " cash": 6945, "ho": 6946, " twice": 6947, "lee": 6948, " sway": 6949, "itched": 6950, " celebrating": 6951, " Peanut": 6952, " shrinking": 6953, " ache": 6954, "weed": 6955, " kings": 6956, "rious": 6957, " shops": 6958, " kittens": 6959, "cope": 6960, "Rose": 6961, " Jessica": 6962, " Jacob": 6963, "rig": 6964, " Gina": 6965, "aura": 6966, " hus": 6967, " touches": 6968, "airy": 6969, " pancakes": 6970, "nies": 6971, " avoid": 6972, " spat": 6973, " Frosty": 6974, "hog": 6975, " Nina": 6976, " paths": 6977, "ives": 6978, "cky": 6979, " Hold": 6980, " rotten": 6981, " calmed": 6982, "Sandy": 6983, " seaweed": 6984, " dropping": 6985, " Mel": 6986, "iles": 6987, "Pipp": 6988, " twisting": 6989, " stroked": 6990, " Jon": 6991, " untied": 6992, "llen": 6993, " playhouse": 6994, "Millie": 6995, " students": 6996, " puppies": 6997, "hi": 6998, " screws": 6999, " astron": 7000, " Re": 7001, " somebody": 7002, "igning": 7003, " liquid": 7004, "aren": 7005, "ammy": 7006, " wakes": 7007, " squish": 7008, " Woof": 7009, " bracelets": 7010, " astronaut": 7011, "immer": 7012, " thrown": 7013, " loops": 7014, " Other": 7015, "Luckily": 7016, " wrapping": 7017, " plain": 7018, " tramp": 7019, " planning": 7020, " skunk": 7021, " aimed": 7022, " pennies": 7023, " shoo": 7024, " lifts": 7025, " dancers": 7026, " sparks": 7027, " firefly": 7028, "pen": 7029, " poster": 7030, "yan": 7031, "endy": 7032, " cust": 7033, " Christmas": 7034, "Dan": 7035, " rewarded": 7036, " objects": 7037, " directions": 7038, "using": 7039, "ingo": 7040, " reflection": 7041, " husband": 7042, "\u00e2\u0080\u0094": 7043, "Take": 7044, "river": 7045, " clues": 7046, "uppy": 7047, " leads": 7048, " increased": 7049, " blocked": 7050, " rising": 7051, " dod": 7052, " cousin": 7053, " Yesterday": 7054, " Without": 7055, " forgetting": 7056, "rigued": 7057, " custom": 7058, "Kate": 7059, " trampoline": 7060, " beginning": 7061, " storekeeper": 7062, " pouted": 7063, " zebras": 7064, " hedgehog": 7065, " aff": 7066, " \u00e2\u0080\u0098": 7067, " borrowed": 7068, " Rollie": 7069, " snowfl": 7070, " countryside": 7071, "Jump": 7072, " mesmer": 7073, " Jay": 7074, " vehicles": 7075, " instrum": 7076, " Mic": 7077, " Kayla": 7078, " Up": 7079, " frowning": 7080, "ivity": 7081, "Pat": 7082, "Under": 7083, " marker": 7084, "yond": 7085, " presses": 7086, " beyond": 7087, " Queen": 7088, " damage": 7089, " Only": 7090, "iece": 7091, "ivery": 7092, " fart": 7093, " Tara": 7094, " Biggie": 7095, "jo": 7096, " health": 7097, " whispers": 7098, " swimsuit": 7099, " slips": 7100, " nibb": 7101, " Julia": 7102, "armer": 7103, " warmer": 7104, " flapping": 7105, " tiptoed": 7106, " regretted": 7107, "itted": 7108, "Zip": 7109, " laying": 7110, " Robo": 7111, "ades": 7112, " yelp": 7113, " Fire": 7114, " rains": 7115, " glued": 7116, " everybody": 7117, " creations": 7118, " hearing": 7119, " swir": 7120, " colder": 7121, "iversity": 7122, "ael": 7123, " shaped": 7124, " Elephant": 7125, " streets": 7126, " fins": 7127, " rusty": 7128, " cushions": 7129, "Out": 7130, " san": 7131, " farthest": 7132, " creativity": 7133, " Mikey": 7134, " sale": 7135, "Always": 7136, "ans": 7137, " strongest": 7138, "ibbit": 7139, " fits": 7140, " Sparky": 7141, " bells": 7142, " dollars": 7143, " Larry": 7144, " earn": 7145, "iam": 7146, "angle": 7147, " lending": 7148, " Moon": 7149, " Chirp": 7150, "eese": 7151, " cashier": 7152, "Milly": 7153, " including": 7154, " sniffs": 7155, " sank": 7156, " raincoat": 7157, " Rich": 7158, " trembled": 7159, " stopping": 7160, " source": 7161, "iti": 7162, "imon": 7163, "ae": 7164, " Missy": 7165, " wobbly": 7166, " indeed": 7167, "ters": 7168, " guests": 7169, " single": 7170, " recommended": 7171, " spells": 7172, " accomplishment": 7173, " belts": 7174, " surprising": 7175, " ends": 7176, " hopeful": 7177, "eet": 7178, " seasons": 7179, " Take": 7180, " Snowman": 7181, " Els": 7182, "Bear": 7183, " plans": 7184, "ichael": 7185, " supported": 7186, "stick": 7187, "illed": 7188, " suffered": 7189, " artist": 7190, " performance": 7191, "Nina": 7192, " slowed": 7193, " gross": 7194, " flavors": 7195, "iding": 7196, "ertain": 7197, " spins": 7198, "cho": 7199, "Quack": 7200, " labels": 7201, "uing": 7202, " raindrops": 7203, " delivery": 7204, "arac": 7205, " raccoon": 7206, " forgiving": 7207, "obody": 7208, " Woo": 7209, " pours": 7210, "the": 7211, "ility": 7212, " vanilla": 7213, " turtles": 7214, " stands": 7215, "Bill": 7216, "uess": 7217, " recipe": 7218, " beam": 7219, " tying": 7220, " Sw": 7221, " geese": 7222, " willing": 7223, " robber": 7224, " drawn": 7225, "Vroom": 7226, " wept": 7227, " Bones": 7228, " charac": 7229, " pops": 7230, " corners": 7231, " Sophia": 7232, "elia": 7233, " queens": 7234, " sailboat": 7235, " grip": 7236, " die": 7237, " drivers": 7238, "itude": 7239, " moo": 7240, " hallway": 7241, " imagining": 7242, " seconds": 7243, " Fuzzy": 7244, "Mine": 7245, " preparing": 7246, " widened": 7247, " adult": 7248, " Spirit": 7249, " grocer": 7250, " coop": 7251, " talented": 7252, " Pam": 7253, " Beaky": 7254, " Izzy": 7255, "ummies": 7256, " sailors": 7257, "lling": 7258, " softer": 7259, " aside": 7260, " watering": 7261, " sending": 7262, " knots": 7263, " unsure": 7264, " tipped": 7265, "Lulu": 7266, " treehouse": 7267, " horiz": 7268, " Lizzie": 7269, " notes": 7270, "Co": 7271, " echo": 7272, "igers": 7273, " achieved": 7274, " horizon": 7275, " squeak": 7276, " delivering": 7277, " pleasure": 7278, " hotter": 7279, " Stella": 7280, "Clara": 7281, " pupils": 7282, " burrow": 7283, " angels": 7284, " curiously": 7285, "Ellie": 7286, " yum": 7287, " blinking": 7288, " June": 7289, " tweet": 7290, " symbols": 7291, " det": 7292, " Stretch": 7293, "wk": 7294, " passen": 7295, " Rudy": 7296, " Cindy": 7297, " tummies": 7298, " tiss": 7299, " pigeons": 7300, " figures": 7301, "umbling": 7302, " bandages": 7303, " Robert": 7304, " coup": 7305, " Doctor": 7306, "oey": 7307, " robots": 7308, "alph": 7309, " tossed": 7310, " hour": 7311, " backwards": 7312, " roars": 7313, "Baby": 7314, " merma": 7315, "uzz": 7316, " rather": 7317, "atur": 7318, "Maria": 7319, "cited": 7320, " Play": 7321, " Crab": 7322, "Moo": 7323, "ighting": 7324, "Dolly": 7325, " groceries": 7326, " zipping": 7327, "Put": 7328, "Very": 7329, " unw": 7330, "prin": 7331, " among": 7332, " blown": 7333, " icing": 7334, "!\u00e2\u0080\u009d.": 7335, " rumble": 7336, " afterwards": 7337, "ipper": 7338, " screwd": 7339, "ushing": 7340, " sped": 7341, " prove": 7342, " glee": 7343, " Titi": 7344, " Tia": 7345, " dip": 7346, " overcome": 7347, "Ruby": 7348, "Quick": 7349, " surfboard": 7350, " shovels": 7351, " slices": 7352, " Toot": 7353, " merry": 7354, " wobble": 7355, " mate": 7356, " Turt": 7357, " Abbie": 7358, " heading": 7359, " disturbing": 7360, " swall": 7361, " reversed": 7362, " firefighters": 7363, "Jul": 7364, " swallowed": 7365, " chip": 7366, " scored": 7367, " flipped": 7368, "eds": 7369, "awn": 7370, " Jump": 7371, " squeezing": 7372, "usty": 7373, "Frank": 7374, "aty": 7375, "Su": 7376, " waking": 7377, " intrigued": 7378, "Sad": 7379, "Like": 7380, " maker": 7381, " Barky": 7382, "Betty": 7383, " puff": 7384, " hawk": 7385, " Ex": 7386, " encouraging": 7387, " aud": 7388, "osen": 7389, "onies": 7390, " chosen": 7391, "hew": 7392, " Farmer": 7393, " Ang": 7394, " couple": 7395, " designs": 7396, " slipping": 7397, " screwdriver": 7398, " squishy": 7399, " Emmy": 7400, " gardener": 7401, " center": 7402, " rivers": 7403, " respond": 7404, " markers": 7405, "iley": 7406, " tigers": 7407, " jars": 7408, "pecting": 7409, " frowns": 7410, "bird": 7411, " fluttered": 7412, " Sadly": 7413, " Kit": 7414, "Ribbit": 7415, " firefighter": 7416, " Sl": 7417, " Ryan": 7418, " suits": 7419, " secure": 7420, " sprinkled": 7421, " creamy": 7422, "ashes": 7423, " sharks": 7424, " ignoring": 7425, " bru": 7426, " giggles": 7427, " tissue": 7428, " tighter": 7429, " firmly": 7430, "ounce": 7431, " Laura": 7432, " shown": 7433, " familiar": 7434, "fly": 7435, " thorns": 7436, "Spike": 7437, " Wo": 7438, " drawers": 7439, "child": 7440, " Zee": 7441, " express": 7442, " def": 7443, "Car": 7444, "ments": 7445, " daring": 7446, " crossing": 7447, " audience": 7448, " performing": 7449, " coloured": 7450, " cloudy": 7451, " cor": 7452, " ais": 7453, " Nick": 7454, "rat": 7455, " pedaled": 7456, "Get": 7457, " mixture": 7458, " til": 7459, " gracefully": 7460, "ggy": 7461, " haircuts": 7462, " yielded": 7463, " ponies": 7464, " disob": 7465, " crowns": 7466, " bits": 7467, " todd": 7468, " Sleep": 7469, " nervously": 7470, " hangers": 7471, "bbled": 7472, " Patch": 7473, "Zoomy": 7474, " pays": 7475, " 2": 7476, " peck": 7477, " stroke": 7478, " ev": 7479, "fall": 7480, "Bang": 7481, " respected": 7482, " napped": 7483, " Ron": 7484, "aven": 7485, " minded": 7486, "ddie": 7487, "Bessie": 7488, "ably": 7489, "Boys": 7490, " tested": 7491, "ading": 7492, "parent": 7493, " Chris": 7494, "Kim": 7495, " University": 7496, " Near": 7497, " beeh": 7498, " Turtle": 7499, " surfing": 7500, " neighbours": 7501, "arrow": 7502, "vered": 7503, " shady": 7504, "iona": 7505, "arlings": 7506, " magician": 7507, " enthusiasm": 7508, " darlings": 7509, " wisely": 7510, " stitches": 7511, " sails": 7512, "Dear": 7513, " weekend": 7514, " thoughts": 7515, "Freddy": 7516, " Tweetie": 7517, " reminds": 7518, "fted": 7519, " temper": 7520, "oring": 7521, "tha": 7522, "antha": 7523, " surroundings": 7524, " spits": 7525, " fleas": 7526, " teams": 7527, " lessons": 7528, " fills": 7529, " flip": 7530, " Along": 7531, " paintbrush": 7532, " melons": 7533, " mermaid": 7534, "oni": 7535, "lle": 7536, "Katie": 7537, "rac": 7538, " grandchild": 7539, " hoops": 7540, " explo": 7541, " elbow": 7542, " sports": 7543, "Guess": 7544, " lies": 7545, " Fighting": 7546, " panicked": 7547, " cleaner": 7548, " amount": 7549, "cused": 7550, " longest": 7551, " scooters": 7552, " lent": 7553, "ita": 7554, "immering": 7555, " sill": 7556, " beloved": 7557, "Pippin": 7558, " beehive": 7559, "Alright": 7560, "ongrat": 7561, "oga": 7562, "ongratul": 7563, " oysters": 7564, " grandparent": 7565, " forgiven": 7566, " magazines": 7567, " arr": 7568, " Wise": 7569, " elf": 7570, " repeating": 7571, " discussed": 7572, " sweetest": 7573, " Thanks": 7574, "Keep": 7575, " wadd": 7576, " Maya": 7577, " reass": 7578, " lace": 7579, " Granny": 7580, " nightmares": 7581, " tubes": 7582, " Willy": 7583, "Am": 7584, " understands": 7585, " spoonful": 7586, " nood": 7587, " bathing": 7588, " Zoey": 7589, "asty": 7590, " sweep": 7591, " manners": 7592, "onna": 7593, "crow": 7594, "Uncle": 7595, " wrink": 7596, " sprang": 7597, " nur": 7598, " bully": 7599, " Holly": 7600, " guide": 7601, " Yet": 7602, " crew": 7603, "romise": 7604, "ancy": 7605, "Jazz": 7606, " breathed": 7607, "while": 7608, "steps": 7609, "ilda": 7610, "ently": 7611, " Bally": 7612, " bulbs": 7613, " neare": 7614, " grassy": 7615, " wiggly": 7616, " testing": 7617, " spies": 7618, " coug": 7619, " solving": 7620, " sheets": 7621, " Roo": 7622, " footsteps": 7623, "ntil": 7624, "Afterwards": 7625, " speeding": 7626, " focused": 7627, "ounced": 7628, "cept": 7629, "?!\"": 7630, " mesmerized": 7631, " camel": 7632, " braver": 7633, " hesitant": 7634, " Sparkle": 7635, " licking": 7636, " rushing": 7637, " Well": 7638, "ne": 7639, " joining": 7640, " Puppy": 7641, " polar": 7642, " greeted": 7643, " Martha": 7644, "espite": 7645, "anna": 7646, "--": 7647, " Bubb": 7648, "Which": 7649, "Kiki": 7650, " worn": 7651, " materials": 7652, " changes": 7653, " aren": 7654, " Nobody": 7655, "undred": 7656, " stored": 7657, " bicycles": 7658, "een": 7659, " mast": 7660, " anger": 7661, "Leave": 7662, " peacefully": 7663, " ships": 7664, " spice": 7665, " terrified": 7666, " nuzz": 7667, " gonna": 7668, " Show": 7669, " politely": 7670, "Snow": 7671, " spills": 7672, " scarecrow": 7673, " knives": 7674, " evil": 7675, " Mixy": 7676, "ppies": 7677, " burying": 7678, "ca": 7679, " healing": 7680, " donkey": 7681, " aeroplanes": 7682, "freeze": 7683, "Even": 7684, " seals": 7685, " scattering": 7686, " miles": 7687, " Chewy": 7688, "amboo": 7689, " dump": 7690, " worrying": 7691, " Soft": 7692, "Bee": 7693, "zoom": 7694, "beep": 7695, "David": 7696, " Lenny": 7697, " puzzled": 7698, " stacked": 7699, " Kip": 7700, "Penny": 7701, " Nice": 7702, " loses": 7703, "dding": 7704, " travelled": 7705, " baskets": 7706, " Win": 7707, " Okay": 7708, " gazing": 7709, " blast": 7710, "ipes": 7711, " Tess": 7712, "erm": 7713, "Hurry": 7714, " temperature": 7715, " und": 7716, " tasting": 7717, " dripping": 7718, " clue": 7719, " believing": 7720, " pinching": 7721, " soaking": 7722, " rats": 7723, " 10": 7724, "isc": 7725, " sandy": 7726, "rect": 7727, " Isn": 7728, " Simon": 7729, "rey": 7730, "anwhile": 7731, "gling": 7732, " Abi": 7733, "Binky": 7734, " punishment": 7735, " banged": 7736, " humans": 7737, " crashing": 7738, " force": 7739, " Ana": 7740, " hundred": 7741, " gest": 7742, " Lia": 7743, " swimmer": 7744, " Chess": 7745, " snowflakes": 7746, " relaxing": 7747, " resisted": 7748, " beeped": 7749, " Fairy": 7750, " quarreled": 7751, "form": 7752, "elie": 7753, " ramp": 7754, " Wendy": 7755, " joins": 7756, "abby": 7757, " backpacks": 7758, " Ph": 7759, "years": 7760, " dressing": 7761, " delayed": 7762, " toddler": 7763, " Luckily": 7764, "ofia": 7765, " flight": 7766, " covering": 7767, " Te": 7768, "orter": 7769, "Two": 7770, "Open": 7771, "By": 7772, " encouragement": 7773, " benches": 7774, " toward": 7775, " scraped": 7776, " purpose": 7777, " focus": 7778, " Judy": 7779, "Bow": 7780, " correct": 7781, "'.\"": 7782, " lipstick": 7783, " bamboo": 7784, "Spe": 7785, " twinkled": 7786, " potion": 7787, " permitted": 7788, " months": 7789, " Cow": 7790, " languages": 7791, " orders": 7792, " freedom": 7793, "Tony": 7794, " risks": 7795, " poppies": 7796, " master": 7797, "shm": 7798, " noodles": 7799, " faded": 7800, " wounds": 7801, "shmallow": 7802, "rier": 7803, "Kids": 7804, "isions": 7805, " Jojo": 7806, " creams": 7807, " birdhouse": 7808, " cells": 7809, " annoyed": 7810, " Herb": 7811, "opes": 7812, " sniffing": 7813, " cheers": 7814, " adults": 7815, "Birdy": 7816, " unwra": 7817, "ecca": 7818, "Buzzy": 7819, " puck": 7820, " opinions": 7821, " floats": 7822, "andas": 7823, "Instead": 7824, " flown": 7825, " sneezes": 7826, " scen": 7827, " handsome": 7828, " Hug": 7829, " nodding": 7830, " Mint": 7831, " smelling": 7832, " burnt": 7833, " 5": 7834, " drifted": 7835, "ider": 7836, "bage": 7837, " within": 7838, " scient": 7839, " height": 7840, " damaged": 7841, " bothering": 7842, " tearing": 7843, " slither": 7844, " pleaded": 7845, " instruments": 7846, " ease": 7847, " Ali": 7848, "Back": 7849, " scientist": 7850, " Marie": 7851, "Mira": 7852, "Goodnight": 7853, " pound": 7854, " seller": 7855, " handing": 7856, "da": 7857, " germ": 7858, " Say": 7859, " wasting": 7860, " files": 7861, " results": 7862, " dreamt": 7863, " Mabel": 7864, "bell": 7865, " explains": 7866, " destroying": 7867, " brushing": 7868, "ousy": 7869, " hiss": 7870, " characters": 7871, " Razor": 7872, " Cr": 7873, "Carl": 7874, " certain": 7875, " Ste": 7876, "Pandy": 7877, "Behind": 7878, " sweaty": 7879, "unched": 7880, " business": 7881, " Robbie": 7882, " talents": 7883, " onward": 7884, "Try": 7885, " engines": 7886, " bravest": 7887, "ition": 7888, " sternly": 7889, " Pen": 7890, " Janie": 7891, "prints": 7892, " postman": 7893, " mosquitoes": 7894, " minds": 7895, "cake": 7896, " tuck": 7897, " scares": 7898, "urious": 7899, " stomp": 7900, " apologised": 7901, "uel": 7902, " manag": 7903, " snuck": 7904, " bitten": 7905, "attered": 7906, " tilted": 7907, " switched": 7908, " reminding": 7909, " decisions": 7910, " singers": 7911, " desper": 7912, " behavior": 7913, " Poor": 7914, "ashing": 7915, " Judge": 7916, "bbers": 7917, "inny": 7918, " squeaked": 7919, " peeled": 7920, " Everybody": 7921, " yumm": 7922, " purrs": 7923, " Bra": 7924, " treated": 7925, " smashed": 7926, " rustling": 7927, " displayed": 7928, " Until": 7929, " neatly": 7930, " matey": 7931, " planting": 7932, " Bess": 7933, "inier": 7934, " marshmallow": 7935, " insp": 7936, " yelped": 7937, " sy": 7938, " grandparents": 7939, " cracks": 7940, " bellies": 7941, "aver": 7942, " shines": 7943, " scamp": 7944, " Navy": 7945, " hoo": 7946, " failed": 7947, " coloring": 7948, " Yoga": 7949, " zooms": 7950, " Make": 7951, "rup": 7952, " nasty": 7953, " breathing": 7954, " combed": 7955, " pandas": 7956, " despite": 7957, "line": 7958, " address": 7959, "ighing": 7960, " waterfall": 7961, "uffin": 7962, "omp": 7963, "cc": 7964, " Loop": 7965, " Angel": 7966, "Tilly": 7967, " wider": 7968, " robbers": 7969, " antic": 7970, "Play": 7971, "Abigail": 7972, " sweaters": 7973, " echoed": 7974, " doorway": 7975, " Todd": 7976, "evin": 7977, " edges": 7978, " inj": 7979, " Shadow": 7980, "Aunt": 7981, " gap": 7982, " disobey": 7983, " Blinky": 7984, "wise": 7985, "Liz": 7986, " Michael": 7987, "sss": 7988, " tar": 7989, " Flick": 7990, "oscope": 7991, "orking": 7992, "Wake": 7993, " taped": 7994, " magnif": 7995, "ulp": 7996, "father": 7997, " scolds": 7998, " flaps": 7999, " action": 8000, " crawls": 8001, " Mindy": 8002, "Ros": 8003, " swap": 8004, " gobbled": 8005, " backs": 8006, " Gary": 8007, " warri": 8008, " Fishy": 8009, " Eddie": 8010, "Slow": 8011, " steth": 8012, " sever": 8013, " shinier": 8014, " probably": 8015, " newspapers": 8016, " several": 8017, " occ": 8018, "Rock": 8019, "Lena": 8020, " encount": 8021, " Meg": 8022, " serving": 8023, " quieter": 8024, " plucked": 8025, " connected": 8026, "tock": 8027, " Share": 8028, " ouch": 8029, "igger": 8030, "Ted": 8031, "Adam": 8032, " gesture": 8033, "Too": 8034, "Fl": 8035, " student": 8036, " plot": 8037, " doorbell": 8038, " squaw": 8039, " cares": 8040, "fire": 8041, " rescuing": 8042, " grandson": 8043, " Se": 8044, " spy": 8045, " simply": 8046, " rows": 8047, " goo": 8048, "iel": 8049, " whistles": 8050, "mies": 8051, "vant": 8052, "Shrink": 8053, "Magic": 8054, " snaps": 8055, " shorter": 8056, " astronauts": 8057, " unpacking": 8058, " cottage": 8059, " Time": 8060, " swo": 8061, " accidents": 8062, "ibi": 8063, " swollen": 8064, " mood": 8065, " Nut": 8066, "Steve": 8067, "abelle": 8068, " Zippy": 8069, " Mousy": 8070, "anie": 8071, "Zara": 8072, " bothered": 8073, "Hannah": 8074, " stethoscope": 8075, " trusting": 8076, " causing": 8077, "Mat": 8078, "Mad": 8079, " leapt": 8080, " dresser": 8081, "found": 8082, "aint": 8083, " sou": 8084, " proper": 8085, " pills": 8086, "retty": 8087, " throughout": 8088, "Olive": 8089, " runner": 8090, " prayers": 8091, " Dina": 8092, " joyful": 8093, "Thomas": 8094, " Karen": 8095, "mates": 8096, " locks": 8097, " Prince": 8098, "Jamie": 8099, " goats": 8100, "what": 8101, " target": 8102, "rest": 8103, " Wait": 8104, " dears": 8105, " Bang": 8106, "artled": 8107, "Red": 8108, " waddled": 8109, " munch": 8110, " flips": 8111, " Cro": 8112, "onnie": 8113, " lowered": 8114, " stepping": 8115, " cons": 8116, " Jackie": 8117, " teachers": 8118, " cowboy": 8119, " Toys": 8120, " inches": 8121, " envelopes": 8122, "ears": 8123, " char": 8124, " Vroom": 8125, " explorer": 8126, " anticip": 8127, " playd": 8128, " Ready": 8129, " Ruff": 8130, " Ralph": 8131, "unity": 8132, "Nice": 8133, "Finn": 8134, " Bad": 8135, "ening": 8136, " knocking": 8137, " floors": 8138, " efforts": 8139, " Pl": 8140, " uniforms": 8141, "lied": 8142, " plug": 8143, " Tri": 8144, " aware": 8145, " footprints": 8146, "Someone": 8147, " nearly": 8148, " Fiona": 8149, "llas": 8150, " disc": 8151, " Ria": 8152, "ivi": 8153, " whimp": 8154, " trot": 8155, " sens": 8156, " glitt": 8157, " appreciation": 8158, "oosh": 8159, " necks": 8160, " collap": 8161, " checks": 8162, " lapt": 8163, " except": 8164, "ici": 8165, " charge": 8166, " Jacky": 8167, " fluttering": 8168, " umbrellas": 8169, "acy": 8170, " sandcastles": 8171, " Davey": 8172, " statues": 8173, " stamped": 8174, " Honey": 8175, "omb": 8176, "iscuit": 8177, "ails": 8178, "Hoppy": 8179, " shrank": 8180, " Amelia": 8181, "rily": 8182, " prick": 8183, " finishing": 8184, " adds": 8185, "rons": 8186, " stroll": 8187, " hunters": 8188, " dodged": 8189, " chocolates": 8190, " passengers": 8191, " germs": 8192, "oger": 8193, "nie": 8194, " wrig": 8195, " aprons": 8196, " aisle": 8197, " sets": 8198, ".'\"": 8199, " Gerry": 8200, " weeds": 8201, " novels": 8202, " demanding": 8203, " Taking": 8204, "gles": 8205, " scratching": 8206, " meows": 8207, "issa": 8208, "Dr": 8209, " nurses": 8210, "Lucky": 8211, " minding": 8212, " discussing": 8213, "urrender": 8214, " killed": 8215, " driveway": 8216, " Cari": 8217, " becomes": 8218, " toolbox": 8219, " laptop": 8220, " haird": 8221, " Eliz": 8222, " posit": 8223, " attack": 8224, " Sadie": 8225, " Gl": 8226, " Despite": 8227, "Speedy": 8228, "sol": 8229, " scampered": 8230, " bounces": 8231, " supplied": 8232, " sprays": 8233, " deed": 8234, " tempt": 8235, " suggestion": 8236, " friendships": 8237, " burns": 8238, "Coco": 8239, " slapping": 8240, " closing": 8241, "Arrr": 8242, " invites": 8243, " belongings": 8244, " anticipation": 8245, " springing": 8246, " form": 8247, " erase": 8248, " cotton": 8249, " Stan": 8250, " twists": 8251, " rays": 8252, " snuggle": 8253, " forgives": 8254, " models": 8255, " shall": 8256, " massages": 8257, " humming": 8258, " responded": 8259, " newfound": 8260, " ghosts": 8261, " expecting": 8262, " Shelly": 8263, " cheated": 8264, "Does": 8265, " Wooly": 8266, "Gigi": 8267, "otte": 8268, " traveling": 8269, " Ne": 8270, " cond": 8271, " battle": 8272, " although": 8273, " arran": 8274, "alloween": 8275, " mommies": 8276, " invitations": 8277, " carries": 8278, " aim": 8279, " refreshing": 8280, " presented": 8281, "hel": 8282, " twenty": 8283, " rowed": 8284, " Bumpy": 8285, "ots": 8286, " squir": 8287, "rie": 8288, "arlotte": 8289, " foxes": 8290, " cooper": 8291, " final": 8292, " duckling": 8293, " cafe": 8294, " Bibi": 8295, "Pip": 8296, " marshmallows": 8297, " clicked": 8298, " Zipper": 8299, "oor": 8300, " jets": 8301, " designing": 8302, " beaver": 8303, "five": 8304, " Muffin": 8305, " Halloween": 8306, " mugs": 8307, " Whoever": 8308, " drown": 8309, " Although": 8310, " tricycle": 8311, " picnics": 8312, " oppos": 8313, " convin": 8314, " Ruth": 8315, " Excited": 8316, "iens": 8317, " Cle": 8318, " scoops": 8319, " congratul": 8320, " Pop": 8321, " Maddie": 8322, "po": 8323, "off": 8324, "Sadly": 8325, " \u00e2\u0080\u0094": 8326, " travels": 8327, " aliens": 8328, " tests": 8329, " questioned": 8330, " Speed": 8331, "inted": 8332, " strips": 8333, " Im": 8334, "Near": 8335, "atty": 8336, "Mouse": 8337, "covered": 8338, " defe": 8339, " Flutter": 8340, " Bubba": 8341, "iri": 8342, "ended": 8343, "Br": 8344, " fights": 8345, "roken": 8346, "Ball": 8347, " opposite": 8348, " Biggy": 8349, "Hmm": 8350, "Find": 8351, "Elly": 8352, "Chloe": 8353, " rout": 8354, " grandfather": 8355, " encountered": 8356, " Never": 8357, " decl": 8358, "inch": 8359, " afford": 8360, " raising": 8361, "iment": 8362, " upside": 8363, " Vivi": 8364, "Meanwhile": 8365, "Jess": 8366, " flashed": 8367, " calmly": 8368, " Rita": 8369, " yawning": 8370, " sincere": 8371, " realizes": 8372, "aturday": 8373, "Trust": 8374, "Choo": 8375, " crystals": 8376, " buddy": 8377, " Samantha": 8378, " cupcakes": 8379, " buckled": 8380, "byes": 8381, "Both": 8382, " winners": 8383, " defin": 8384, "verse": 8385, "ris": 8386, " conc": 8387, "',": 8388, " weapons": 8389, " caw": 8390, "shadow": 8391, "Josh": 8392, " packages": 8393, " cheat": 8394, " Saturday": 8395, " sacks": 8396, " messes": 8397, " goodbyes": 8398, " coach": 8399, " attem": 8400, "quet": 8401, " convers": 8402, " Truck": 8403, " Flo": 8404, "val": 8405, " caps": 8406, " Mina": 8407, " Eva": 8408, "emies": 8409, " enemies": 8410, "asha": 8411, " yummiest": 8412, " scrub": 8413, " swallow": 8414, " returning": 8415, " admiration": 8416, " Softy": 8417, " Megan": 8418, "Since": 8419, " sprout": 8420, " Louise": 8421, " unable": 8422, " Playing": 8423, " Another": 8424, "ooks": 8425, " sadder": 8426, " freezing": 8427, " brightest": 8428, " bless": 8429, " Yawn": 8430, "rian": 8431, " respon": 8432, "reverse": 8433, " response": 8434, " cosy": 8435, " Oh": 8436, " diamonds": 8437, " bride": 8438, "stalk": 8439, " reapp": 8440, " opport": 8441, " honking": 8442, " garbage": 8443, " Man": 8444, " whispering": 8445, " stretches": 8446, " prevented": 8447, "erk": 8448, "antastic": 8449, " whoever": 8450, " odd": 8451, " awful": 8452, " Gray": 8453, "alth": 8454, " weighs": 8455, " journeys": 8456, " awoke": 8457, "Brrr": 8458, " traps": 8459, " spices": 8460, " dragonfly": 8461, " born": 8462, " reassured": 8463, " clip": 8464, "ivia": 8465, " stall": 8466, " beanstalk": 8467, " argum": 8468, " examining": 8469, " definitely": 8470, " beetles": 8471, " automobiles": 8472, " Maisy": 8473, "mine": 8474, "Hop": 8475, " visitors": 8476, " stuffing": 8477, " playdate": 8478, " washes": 8479, "cie": 8480, "broken": 8481, " wiser": 8482, " customer": 8483, "uper": 8484, "emma": 8485, "Rachel": 8486, " travelling": 8487, " Sofia": 8488, " Jolly": 8489, " Flop": 8490, "ouquet": 8491, " hairdress": 8492, " bouquet": 8493, " Nurse": 8494, "orse": 8495, "bble": 8496, ",'": 8497, " tumbled": 8498, " decoration": 8499, " campfire": 8500, " Elle": 8501, " honesty": 8502, " bud": 8503, "vy": 8504, "ebecca": 8505, "action": 8506, "Only": 8507, " bomb": 8508, " welcoming": 8509, " offering": 8510, " wealth": 8511, " troubles": 8512, " occas": 8513, " Ot": 8514, " Jax": 8515, " Hello": 8516, " loudest": 8517, " inspired": 8518, " increasing": 8519, " type": 8520, " parted": 8521, " groan": 8522, " Chick": 8523, " Nutty": 8524, "irac": 8525, " whales": 8526, " Thunder": 8527, " Ricky": 8528, " declared": 8529, " correctly": 8530, "yler": 8531, "ooky": 8532, "fus": 8533, " craft": 8534, " beaks": 8535, " Quacky": 8536, "athan": 8537, " cleared": 8538, " cowboys": 8539, " nuzzled": 8540, " Dotty": 8541, " prizes": 8542, "Finny": 8543, " warmly": 8544, " Missile": 8545, " rewards": 8546, " obeyed": 8547, " customers": 8548, "Should": 8549, " sirens": 8550, " comforting": 8551, " Fel": 8552, "shaped": 8553, " connect": 8554, " Flappy": 8555, "match": 8556, " towns": 8557, " Magic": 8558, " Bingo": 8559, "elieve": 8560, " rely": 8561, " Vicky": 8562, "Honey": 8563, " trigger": 8564, " owns": 8565, " insisting": 8566, " fantastic": 8567, " bends": 8568, " Fe": 8569, " spoiling": 8570, " hairdresser": 8571, " surrendered": 8572, " supporting": 8573, " shares": 8574, " poses": 8575, " pipes": 8576, " cleans": 8577, "rench": 8578, "Sun": 8579, "Outside": 8580, "Julie": 8581, " wrinkled": 8582, " Cook": 8583, " chopped": 8584, " recorder": 8585, " moons": 8586, " beaming": 8587, "unes": 8588, "ellow": 8589, "Beth": 8590, " thanking": 8591, " snowy": 8592, " Wolf": 8593, "enn": 8594, " scurry": 8595, " experien": 8596, " enjoyable": 8597, " active": 8598, " coral": 8599, " Piggy": 8600, " environ": 8601, " dollar": 8602, " Kevin": 8603, "worm": 8604, "elope": 8605, " loc": 8606, "Je": 8607, " streamers": 8608, " Bub": 8609, "udged": 8610, " Patty": 8611, " Mother": 8612, " Zack": 8613, "inger": 8614, "Suzy": 8615, " examp": 8616, " shorts": 8617, " shooed": 8618, " environment": 8619, "Tree": 8620, " ill": 8621, " scent": 8622, " bruises": 8623, "uster": 8624, " grat": 8625, " Luc": 8626, "Bo": 8627, " hisses": 8628, " steering": 8629, " self": 8630, " plugged": 8631, " Elsa": 8632, " warrior": 8633, "yl": 8634, " visits": 8635, " exercises": 8636, "screen": 8637, "irl": 8638, "aptain": 8639, " dangers": 8640, " cuddles": 8641, " Rel": 8642, " Ar": 8643, " unfortunately": 8644, " squished": 8645, " signing": 8646, " Light": 8647, "bee": 8648, "Ray": 8649, " pilots": 8650, " disappoint": 8651, "munk": 8652, " gratitude": 8653, " applauding": 8654, "alf": 8655, " providing": 8656, " Moppy": 8657, " tickles": 8658, " ting": 8659, " Rub": 8660, "Grow": 8661, " storms": 8662, " nights": 8663, " jud": 8664, " convinced": 8665, " badger": 8666, " Elsie": 8667, " youn": 8668, " responsib": 8669, " choosing": 8670, " Kelly": 8671, "Joy": 8672, " youngest": 8673, " nearest": 8674, " brains": 8675, " activity": 8676, "Abby": 8677, " exploded": 8678, " coughed": 8679, " arranged": 8680, "Claire": 8681, " rewarding": 8682, " Tre": 8683, " Fly": 8684, "good": 8685, "erpiece": 8686, " sunscreen": 8687, " peep": 8688, " bond": 8689, " Floppy": 8690, "asers": 8691, "Mon": 8692, " Tweety": 8693, " Sweet": 8694, " Katy": 8695, " Sal": 8696, "ilities": 8697, " annoying": 8698, "eow": 8699, " soapy": 8700, "sn": 8701, "meow": 8702, "Splash": 8703, " rails": 8704, " laces": 8705, " threads": 8706, " tapping": 8707, " offic": 8708, " appreciated": 8709, " Pine": 8710, " Phil": 8711, "boards": 8712, " weighing": 8713, " heartbroken": 8714, " emerged": 8715, " congratulated": 8716, " Pick": 8717, "Danger": 8718, " Sil": 8719, " crocodiles": 8720, " clerk": 8721, " scram": 8722, " attempt": 8723, " Nancy": 8724, "water": 8725, "Ahoy": 8726, " messed": 8727, " example": 8728, " dial": 8729, " Min": 8730, " Kay": 8731, " De": 8732, " Any": 8733, "Momma": 8734, " hooks": 8735, " Jonny": 8736, " tops": 8737, " chipmunk": 8738, " soot": 8739, " guarding": 8740, " bathed": 8741, "raged": 8742, " manager": 8743, " Tippy": 8744, "ortunately": 8745, " Microscope": 8746, "Friends": 8747, "etah": 8748, "Snowy": 8749, " masterpiece": 8750, " Baa": 8751, "ending": 8752, " erasers": 8753, " tips": 8754, " finishes": 8755, " fet": 8756, " common": 8757, " Tomorrow": 8758, "mbers": 8759, " trotted": 8760, " nibbled": 8761, " members": 8762, " digs": 8763, "People": 8764, " kinder": 8765, " cheetah": 8766, " particularly": 8767, " chews": 8768, " blond": 8769, "ircle": 8770, " rips": 8771, " beast": 8772, "Lizzy": 8773, " argument": 8774, "ative": 8775, " faith": 8776, " Helping": 8777, " earned": 8778, "Anne": 8779, " observing": 8780, " forgiveness": 8781, " Joke": 8782, " Cici": 8783, "chievous": 8784, " instantly": 8785, " fishes": 8786, " experienced": 8787, " curl": 8788, " cheaper": 8789, " Jumpy": 8790, "Rosie": 8791, " mischievous": 8792, " generosity": 8793, " cages": 8794, " Twist": 8795, "Gr": 8796, "Baa": 8797, " meowing": 8798, " foam": 8799, "mered": 8800, "Cindy": 8801, " stores": 8802, " grandd": 8803, " Ag": 8804, "etchup": 8805, " mattered": 8806, " teles": 8807, " passes": 8808, " limp": 8809, "Sque": 8810, " sleeps": 8811, "iolet": 8812, " breaths": 8813, "ordinary": 8814, "ettle": 8815, " rin": 8816, " gasps": 8817, " Freddie": 8818, "pr": 8819, "Got": 8820, " trans": 8821, " rumbling": 8822, " hatch": 8823, " Momma": 8824, "over": 8825, "abra": 8826, " tin": 8827, " satisf": 8828, " grassho": 8829, " accomplished": 8830, " Hopper": 8831, "acing": 8832, " thump": 8833, " telescope": 8834, " strum": 8835, " smartest": 8836, " mats": 8837, " whined": 8838, " moat": 8839, "Gina": 8840, " scrambled": 8841, " farmers": 8842, " Ice": 8843, " drip": 8844, "Robbie": 8845, " syrup": 8846, " gardens": 8847, " collapsed": 8848, " angrily": 8849, " More": 8850, "ouraged": 8851, "idey": 8852, " vegg": 8853, " styles": 8854, " forests": 8855, " experiences": 8856, " discoveries": 8857, "hole": 8858, " tor": 8859, " medals": 8860, " types": 8861, " otters": 8862, " meaning": 8863, " faint": 8864, " conqu": 8865, " Pig": 8866, " Does": 8867, "pit": 8868, "adabra": 8869, "acock": 8870, " snapping": 8871, " hardest": 8872, " fif": 8873, "ering": 8874, " movements": 8875, " expression": 8876, " surv": 8877, " chilly": 8878, " bubbly": 8879, " affect": 8880, "Pinky": 8881, " vests": 8882, " unfair": 8883, " court": 8884, "Whenever": 8885, " toothbrush": 8886, " scores": 8887, " extraordinary": 8888, "Never": 8889, " attitude": 8890, " vibr": 8891, " horri": 8892, " bluebird": 8893, " Monkey": 8894, "mel": 8895, "lls": 8896, "Mo": 8897, " spears": 8898, " ketchup": 8899, " Berry": 8900, "Mother": 8901, " sooner": 8902, " grasshopper": 8903, " behaviour": 8904, "Karen": 8905, " patches": 8906, " habit": 8907, "yd": 8908, "erts": 8909, " pokes": 8910, " momma": 8911, " afar": 8912, " Ashley": 8913, "ieves": 8914, "Jacob": 8915, " thicker": 8916, " scri": 8917, " Friend": 8918, "Jon": 8919, " squeezes": 8920, " slithered": 8921, " shrunk": 8922, " classmates": 8923, " Terry": 8924, " Fle": 8925, " icky": 8926, " prickly": 8927, " glittering": 8928, "lo": 8929, " expert": 8930, " topp": 8931, " kneeling": 8932, " announced": 8933, " Super": 8934, " Riri": 8935, "elling": 8936, " peacock": 8937, " marking": 8938, "ctric": 8939, " costs": 8940, " Cally": 8941, " Achoo": 8942, " zigzags": 8943, " watermel": 8944, " thieves": 8945, " skirts": 8946, " jumper": 8947, " hood": 8948, " acts": 8949, " Zog": 8950, " App": 8951, " wolves": 8952, " Swim": 8953, " Cloud": 8954, "Papa": 8955, " thumbs": 8956, " squeaky": 8957, " drift": 8958, " concer": 8959, " cocoon": 8960, " woodcut": 8961, " boards": 8962, " Eliza": 8963, " Becky": 8964, " servant": 8965, "idence": 8966, "affle": 8967, " cheating": 8968, " Jason": 8969, "bu": 8970, " trading": 8971, " raking": 8972, "cat": 8973, "Jessie": 8974, " explaining": 8975, " Eric": 8976, "rick": 8977, " tidied": 8978, " biscuit": 8979, " lunchtime": 8980, " luckily": 8981, " Ac": 8982, "Frog": 8983, " Puffy": 8984, " spilling": 8985, " Day": 8986, "Fire": 8987, " transform": 8988, " desserts": 8989, " Use": 8990, " Maddy": 8991, " Daniel": 8992, " Animal": 8993, "\u00e2\u0080\u00a6": 8994, "ror": 8995, "anced": 8996, " Mine": 8997, "its": 8998, " Still": 8999, " Gill": 9000, "rough": 9001, "amma": 9002, " messages": 9003, " mirac": 9004, " Captain": 9005, "idy": 9006, " windowsill": 9007, " chill": 9008, " beating": 9009, " Tammy": 9010, " Lung": 9011, " Gilly": 9012, "oot": 9013, " seeking": 9014, " actor": 9015, " Rainbow": 9016, " Lina": 9017, " William": 9018, "sess": 9019, " Math": 9020, "pril": 9021, "Any": 9022, " foreshadow": 9023, "war": 9024, "acles": 9025, "Bluey": 9026, " leans": 9027, " Step": 9028, " Pinch": 9029, " Hi": 9030, "racadabra": 9031, "Freeze": 9032, "Bounce": 9033, " watermelon": 9034, " hissing": 9035, " flashing": 9036, " dev": 9037, " cloths": 9038, " Tiger": 9039, " Monster": 9040, " Frankie": 9041, "pop": 9042, " winding": 9043, " positive": 9044, " funn": 9045, " discouraged": 9046, " Wil": 9047, " woodcutter": 9048, " forts": 9049, " dripped": 9050, " compete": 9051, " teapot": 9052, " pressing": 9053, " disagreeing": 9054, "icking": 9055, " glimmering": 9056, " veggies": 9057, " trusts": 9058, " tidying": 9059, " kangaroos": 9060, " Peep": 9061, " tempted": 9062, " landing": 9063, " Flora": 9064, " dock": 9065, " shallow": 9066, " overw": 9067, " formed": 9068, "eling": 9069, " rack": 9070, " fade": 9071, " Tooth": 9072, "flowers": 9073, " worst": 9074, " electric": 9075, " cops": 9076, "Nothing": 9077, " apology": 9078, "iving": 9079, "creams": 9080, "ai": 9081, " sleds": 9082, " Silver": 9083, " Life": 9084, "upid": 9085, " comets": 9086, " ass": 9087, "Owl": 9088, " sav": 9089, " Shark": 9090, " Mag": 9091, " Jelly": 9092, "Bug": 9093, " situations": 9094, " papa": 9095, " officers": 9096, " conversation": 9097, " 4": 9098, "Rain": 9099, " Roger": 9100, " Charlotte": 9101, "storm": 9102, "aye": 9103, " suns": 9104, " ding": 9105, "\u00e2\u0080\u009d,": 9106, " zips": 9107, " structures": 9108, " scurrying": 9109, " pizzas": 9110, " overwhel": 9111, " miller": 9112, " Butter": 9113, " granddaughter": 9114, " foggy": 9115, " Olivia": 9116, " Hurry": 9117, " Amber": 9118, "Zoe": 9119, " Janey": 9120, " webs": 9121, " deserved": 9122, "Rabbit": 9123, " opportunity": 9124, " cubs": 9125, " Yummy": 9126, " Spidey": 9127, " Sasha": 9128, " Mixie": 9129, " Buster": 9130, " snorted": 9131, " rhino": 9132, " differences": 9133, " Gold": 9134, " quacking": 9135, " Tell": 9136, "ifully": 9137, "Fifi": 9138, " heaven": 9139, " Birds": 9140, " unlo": 9141, " levers": 9142, " inchworm": 9143, " inter": 9144, " approach": 9145, " Tyler": 9146, "ssess": 9147, " seagulls": 9148, " possess": 9149, " cooperate": 9150, " Rufus": 9151, " Felix": 9152, " Boom": 9153, "welcome": 9154, "sers": 9155, "ragon": 9156, "?\u00e2\u0080\u009d.": 9157, "andra": 9158, " pose": 9159, " disappointment": 9160, " Smoke": 9161, "ocular": 9162, " speaks": 9163, " sneaks": 9164, "snap": 9165, " binocular": 9166, " artwork": 9167, " surfed": 9168, " scowl": 9169, " answering": 9170, " Snake": 9171, " shortcut": 9172, " Grand": 9173, " sipped": 9174, " robin": 9175, " dep": 9176, "Climb": 9177, " arrest": 9178, " Inky": 9179, "ssy": 9180, " unwrapped": 9181, " ribbit": 9182, " reun": 9183, " amused": 9184, " Amanda": 9185, "ugar": 9186, " repeats": 9187, " pepperoni": 9188, " applause": 9189, " keyhole": 9190, " checkout": 9191, " Mae": 9192, " Cars": 9193, "Lia": 9194, "Deal": 9195, " visitor": 9196, " striking": 9197, " puppets": 9198, " paddling": 9199, "Eat": 9200, " unz": 9201, " croaked": 9202, " attacked": 9203, " Circle": 9204, "orsie": 9205, " spooky": 9206, " Otto": 9207, " Gus": 9208, "Each": 9209, " groaned": 9210, " beautifully": 9211, " Brian": 9212, "sie": 9213, "ili": 9214, "gar": 9215, "cidents": 9216, " swimsuits": 9217, " consider": 9218, " checking": 9219, "uses": 9220, " Yellow": 9221, "jest": 9222, " waters": 9223, " groom": 9224, " Squeak": 9225, " Slinky": 9226, "yle": 9227, "Jenn": 9228, " invent": 9229, "Luke": 9230, " nets": 9231, " exams": 9232, "otion": 9233, "ets": 9234, " drying": 9235, " Rebecca": 9236, "udy": 9237, "artin": 9238, "agine": 9239, " shrugs": 9240, " lump": 9241, " Auntie": 9242, "lest": 9243, " sobbing": 9244, " shyly": 9245, " shoots": 9246, " honks": 9247, " heels": 9248, " cheerfully": 9249, " Since": 9250, "hny": 9251, "esses": 9252, " shh": 9253, " chin": 9254, "anish": 9255, " whimpered": 9256, " healthier": 9257, " hangs": 9258, "icious": 9259, "Milo": 9260, " Mus": 9261, " caterpillars": 9262, "izzes": 9263, "Slowly": 9264, " squinted": 9265, " magnifying": 9266, " fries": 9267, " Ratty": 9268, " fascinating": 9269, " blamed": 9270, " Find": 9271, "lers": 9272, "ulpture": 9273, "ching": 9274, " sculpture": 9275, " frustration": 9276, " Tip": 9277, "ouched": 9278, " shimmering": 9279, " Penelope": 9280, "eat": 9281, " poss": 9282, " Peace": 9283, "edic": 9284, "Sharing": 9285, " suck": 9286, " pleas": 9287, " numbered": 9288, " nibble": 9289, " Waffle": 9290, "othy": 9291, "ibbles": 9292, "ellie": 9293, "amil": 9294, " flowing": 9295, " baa": 9296, "hings": 9297, "Pepper": 9298, " raked": 9299, " grumbled": 9300, " Off": 9301, "that": 9302, "Bubbles": 9303, " builder": 9304, "racted": 9305, " swaying": 9306, " petting": 9307, " guards": 9308, " facing": 9309, " Woolly": 9310, " sprinkle": 9311, " mysteries": 9312, " details": 9313, " Har": 9314, "sey": 9315, " snort": 9316, " flock": 9317, " enemy": 9318, " Boat": 9319, " textures": 9320, " tablet": 9321, " goodies": 9322, " Curious": 9323, " Barry": 9324, "Yesterday": 9325, " popping": 9326, " wildflowers": 9327, " stacks": 9328, " marve": 9329, " fans": 9330, " crops": 9331, " countries": 9332, " Gracie": 9333, "how": 9334, " knobs": 9335, " Tessa": 9336, " Seeing": 9337, " local": 9338, " bushy": 9339, " stew": 9340, " peeped": 9341, " hunting": 9342, " drowned": 9343, " bowing": 9344, " binoculars": 9345, " angrier": 9346, " Bubu": 9347, " maps": 9348, " Match": 9349, " quizzes": 9350, " niece": 9351, " moonlight": 9352, " Li": 9353, " Glow": 9354, "Im": 9355, " outfits": 9356, " Johnson": 9357, " Deal": 9358, "OO": 9359, " whoosh": 9360, " weaker": 9361, " wrench": 9362, " mindful": 9363, " crowded": 9364, "cycles": 9365, "Squ": 9366, " endings": 9367, " Beef": 9368, "oll": 9369, " property": 9370, " hesitation": 9371, " flashes": 9372, "amiliar": 9373, " unless": 9374, " imaginations": 9375, " fond": 9376, " carts": 9377, " boil": 9378, " ability": 9379, " Oxy": 9380, " Andrew": 9381, "getic": 9382, " glared": 9383, " Right": 9384, " Accidents": 9385, "stand": 9386, " unfamiliar": 9387, " spaces": 9388, " microw": 9389, " knit": 9390, " haven": 9391, " folds": 9392, "ths": 9393, "saw": 9394, "Tuna": 9395, " responsibility": 9396, " dirtier": 9397, " Pet": 9398, "bank": 9399, " pouch": 9400, " microwave": 9401, " desks": 9402, "ibly": 9403, "Bless": 9404, " cracker": 9405, "rnie": 9406, " swapped": 9407, " member": 9408, " date": 9409, " aston": 9410, " Oxygen": 9411, " Ring": 9412, " Ravi": 9413, "lt": 9414, "free": 9415, "Want": 9416, "Cra": 9417, " whine": 9418, " softened": 9419, " rebu": 9420, " doorstep": 9421, " disappearing": 9422, " Peggy": 9423, " Helen": 9424, " Bun": 9425, " quacks": 9426, " natur": 9427, " Chip": 9428, "scar": 9429, " writer": 9430, " listener": 9431, " Too": 9432, " Fix": 9433, " priv": 9434, " blushed": 9435, " Spicy": 9436, "venir": 9437, " palms": 9438, " noticing": 9439, "upt": 9440, "repe": 9441, "poison": 9442, " souvenir": 9443, " Past": 9444, "repeat": 9445, "entr": 9446, "endant": 9447, " laws": 9448, " disaster": 9449, " Tra": 9450, " Res": 9451, " Jean": 9452, " Gabby": 9453, "str": 9454, "reg": 9455, "Robby": 9456, " phones": 9457, "ala": 9458, "Ava": 9459, " confidence": 9460, " Coal": 9461, " Cut": 9462, " Bert": 9463, " timid": 9464, " stirs": 9465, " overwhelmed": 9466, "ingly": 9467, "Being": 9468, " mayor": 9469, " flick": 9470, "guess": 9471, "asmine": 9472, "Che": 9473, " tugging": 9474, " Pretty": 9475, " Mole": 9476, "lor": 9477, " untangle": 9478, " owls": 9479, " mailing": 9480, " injured": 9481, "Whose": 9482, " satisfaction": 9483, " concentr": 9484, " White": 9485, " Immediately": 9486, " Books": 9487, "Fly": 9488, " March": 9489, " Animals": 9490, "mers": 9491, "Sc": 9492, "Mittens": 9493, " lim": 9494, " Eat": 9495, "this": 9496, "Mabel": 9497, " prank": 9498, " Wonder": 9499, " Nora": 9500, " Bonnie": 9501, "Wiggly": 9502, " hooves": 9503, " Triangle": 9504, " Run": 9505, " Pot": 9506, " Melissa": 9507, " Kn": 9508, "well": 9509, "Jeff": 9510, " fixer": 9511, " Startled": 9512, " Sir": 9513, " Clean": 9514, " Close": 9515, "icate": 9516, " snar": 9517, " clut": 9518, "lish": 9519, "bling": 9520, "Excited": 9521, " skies": 9522, " instrument": 9523, " Trucky": 9524, " capt": 9525, " Matilda": 9526, " Horsie": 9527, " Faye": 9528, "adually": 9529, " disagre": 9530, " desc": 9531, "iky": 9532, " wriggled": 9533, " stains": 9534, " rinse": 9535, " pecks": 9536, " creak": 9537, " Sleepy": 9538, "Susan": 9539, " shave": 9540, " bumping": 9541, " Icy": 9542, " Heli": 9543, " Crabby": 9544, "ulf": 9545, "els": 9546, " swirl": 9547, " ruff": 9548, " bending": 9549, " Sing": 9550, "cessary": 9551, "Playing": 9552, "Close": 9553, " sandpit": 9554, " exploration": 9555, " chatted": 9556, " Scissors": 9557, "Make": 9558, " rods": 9559, " lever": 9560, " facts": 9561, "Sm": 9562, " attaching": 9563, " Candy": 9564, " fooled": 9565, " burger": 9566, " Bro": 9567, " glows": 9568, " concerned": 9569, " clearly": 9570, "Maya": 9571, " salon": 9572, " reversing": 9573, " lava": 9574, " compan": 9575, " certainly": 9576, "Wally": 9577, " smelt": 9578, " motorcycles": 9579, " fetched": 9580, " circ": 9581, " troll": 9582, " tunes": 9583, " sometime": 9584, " prod": 9585, " oldest": 9586, " fireflies": 9587, "Ring": 9588, " kissing": 9589, " challenges": 9590, " blonde": 9591, "Kayla": 9592, " warmed": 9593, " Bobbie": 9594, " unlocking": 9595, " natural": 9596, " differently": 9597, " bound": 9598, " Lots": 9599, "urple": 9600, "sa": 9601, "erg": 9602, "Tara": 9603, "Dino": 9604, "Abracadabra": 9605, " rubb": 9606, " riverbank": 9607, " jig": 9608, " detect": 9609, " cutter": 9610, " cupcake": 9611, " conquered": 9612, " hates": 9613, " alley": 9614, " Flap": 9615, "sorry": 9616, " swirls": 9617, " sends": 9618, " realise": 9619, " Open": 9620, " Flopsy": 9621, "ani": 9622, "Julia": 9623, "Isn": 9624, " wiggling": 9625, " sensation": 9626, " munched": 9627, " banging": 9628, " Cammy": 9629, " toppings": 9630, " hippos": 9631, " fist": 9632, " clips": 9633, " Reliable": 9634, "Doctor": 9635, " swayed": 9636, " stings": 9637, " robe": 9638, " miracle": 9639, " halves": 9640, " brakes": 9641, " Greeny": 9642, "Hope": 9643, "Fish": 9644, " survive": 9645, " ostriches": 9646, " Pink": 9647, " Climb": 9648, "ula": 9649, "keepers": 9650, "bert": 9651, "Michael": 9652, " torto": 9653, " otherwise": 9654, " embra": 9655, " crushed": 9656, " bubbling": 9657, " Di": 9658, " tents": 9659, " Looking": 9660, " repairing": 9661, " Of": 9662, "change": 9663, " vinegar": 9664, " stretchy": 9665, " rubbish": 9666, " lizards": 9667, " Working": 9668, " Flicker": 9669, " passenger": 9670, " Ed": 9671, "aste": 9672, "Many": 9673, " vibrant": 9674, " tortoise": 9675, " pounced": 9676, " Which": 9677, "Suzie": 9678, " scene": 9679, " Rh": 9680, " Grump": 9681, "gr": 9682, " mooed": 9683, " glided": 9684, " desperately": 9685, " bas": 9686, " snip": 9687, " poop": 9688, " majest": 9689, " intently": 9690, " copied": 9691, " calmer": 9692, " Sundays": 9693, " Lightning": 9694, "rap": 9695, "ooh": 9696, " woken": 9697, " twel": 9698, " rags": 9699, " judges": 9700, " joyfully": 9701, " jing": 9702, " coolest": 9703, " Per": 9704, "smelling": 9705, " lectures": 9706, " glob": 9707, " Jody": 9708, "lyn": 9709, "isible": 9710, " hips": 9711, " cousins": 9712, " astonished": 9713, " capes": 9714, " Outside": 9715, "uno": 9716, "Eww": 9717, " successfully": 9718, " speaker": 9719, " reunited": 9720, " invisible": 9721, " guesses": 9722, " gooey": 9723, " arrives": 9724, "why": 9725, " twelve": 9726, " bats": 9727, "urity": 9728, "Mikey": 9729, " goodness": 9730, " computers": 9731, " chatting": 9732, " Carla": 9733, "mie": 9734, " stacking": 9735, " snowflake": 9736, "istory": 9737, " reappeared": 9738, " racer": 9739, " pounds": 9740, " parks": 9741, " desperate": 9742, " companion": 9743, " commun": 9744, "bed": 9745, "Zigzag": 9746, "Ol": 9747, " luckiest": 9748, " level": 9749, " dou": 9750, " ank": 9751, " tale": 9752, " stomachs": 9753, " sells": 9754, " gall": 9755, " dumb": 9756, " crickets": 9757, " Sugar": 9758, "Nick": 9759, " winds": 9760, " sus": 9761, " gates": 9762, " disobeyed": 9763, " disagreement": 9764, " Steven": 9765, "hile": 9766, "More": 9767, " pearls": 9768, " hoses": 9769, " crisp": 9770, " awhile": 9771, " Whee": 9772, "ites": 9773, "Lou": 9774, " soda": 9775, " popsic": 9776, " loyalty": 9777, " Orange": 9778, "Linda": 9779, " tongues": 9780, " Rosa": 9781, "usion": 9782, "rent": 9783, " rider": 9784, " CD": 9785, "Ooh": 9786, " Black": 9787, "pan": 9788, " surely": 9789, " abo": 9790, " Law": 9791, " Annabelle": 9792, "colored": 9793, " occasion": 9794, " bund": 9795, "rum": 9796, "izza": 9797, "dog": 9798, "!\u00e2\u0080\u0099": 9799, " stun": 9800, " guitars": 9801, " chicks": 9802, "chief": 9803, " separating": 9804, " seashe": 9805, " rebuild": 9806, " intelligence": 9807, " alligators": 9808, " aboard": 9809, " Raven": 9810, " Iron": 9811, " April": 9812, "Found": 9813, " croak": 9814, " creep": 9815, " Winky": 9816, " Violet": 9817, "aids": 9818, "Something": 9819, "Catch": 9820, " learner": 9821, " caution": 9822, " cuc": 9823, " Old": 9824, " Care": 9825, "solut": 9826, " whines": 9827, " spiky": 9828, " revealing": 9829, " rins": 9830, " Uni": 9831, "working": 9832, " tickling": 9833, " explod": 9834, " escap": 9835, " Settle": 9836, " underwater": 9837, " globe": 9838, " crouched": 9839, " Roar": 9840, " Coby": 9841, " Ba": 9842, "udge": 9843, "everse": 9844, "anne": 9845, "!'.": 9846, " prog": 9847, " blooms": 9848, " appearance": 9849, " ''": 9850, "urricane": 9851, "stop": 9852, "seph": 9853, "ifer": 9854, "fived": 9855, " strokes": 9856, " leaking": 9857, " hatched": 9858, " guardian": 9859, " Socky": 9860, "ealing": 9861, "arning": 9862, " zookeepers": 9863, " tant": 9864, " routine": 9865, " persistence": 9866, " doves": 9867, "Snap": 9868, "Sleep": 9869, "Chicky": 9870, " taps": 9871, " squashes": 9872, " quilt": 9873, " painful": 9874, " lighting": 9875, " blame": 9876, " admit": 9877, " Lu": 9878, "net": 9879, "Toys": 9880, "Ahh": 9881, " tempting": 9882, " shattered": 9883, " ripp": 9884, " mold": 9885, " deeply": 9886, " Puff": 9887, "ggles": 9888, "Three": 9889, "Ralph": 9890, "Matt": 9891, "Jan": 9892, " throne": 9893, " squirted": 9894, " security": 9895, " peeks": 9896, " electricity": 9897, " centre": 9898, " burgers": 9899, " Spin": 9900, "emon": 9901, "con": 9902, " realizing": 9903, " cooks": 9904, " allowing": 9905, " Liam": 9906, "ushes": 9907, "orth": 9908, "oss": 9909, "dest": 9910, "cker": 9911, "Jessica": 9912, " lar": 9913, " exchange": 9914, " chopping": 9915, "Share": 9916, "Sophia": 9917, " sweetly": 9918, " Race": 9919, " Quickly": 9920, " Alf": 9921, "vering": 9922, " sweeter": 9923, " rinsed": 9924, " glittered": 9925, "isapp": 9926, "Zero": 9927, "Sw": 9928, " melts": 9929, " melody": 9930, " goggles": 9931, " furious": 9932, " energetic": 9933, " defeated": 9934, " builders": 9935, " Inch": 9936, "asy": 9937, " waded": 9938, " tantrum": 9939, " sniffled": 9940, " chooses": 9941, " Otherwise": 9942, " Cats": 9943, " Comet": 9944, " container": 9945, " competing": 9946, " Giant": 9947, "eremy": 9948, "bang": 9949, " Sharp": 9950, " Mila": 9951, "arted": 9952, " undone": 9953, " seriously": 9954, " protection": 9955, " larger": 9956, " lull": 9957, " hudd": 9958, " attempts": 9959, " Rara": 9960, " Park": 9961, " Duke": 9962, "Shoo": 9963, "Lizzie": 9964, " tossing": 9965, " helicopters": 9966, " cooed": 9967, " cluck": 9968, " buckles": 9969, " Whale": 9970, " Pinchy": 9971, " Cher": 9972, "Sweet": 9973, " Tears": 9974, " Smo": 9975, " Over": 9976, "solutely": 9977, "Still": 9978, "Squeaky": 9979, " hummed": 9980, " dedic": 9981, " courageous": 9982, " Ma": 9983, " Hor": 9984, " Din": 9985, "Maddy": 9986, "Everything": 9987, "Curious": 9988, " racers": 9989, " patients": 9990, " muster": 9991, " god": 9992, " deserves": 9993, " aloud": 9994, " Things": 9995, "aps": 9996, "Use": 9997, " Squee": 9998, " Dragon": 9999}