{"\u0000": 0, "\u0001": 1, "\u0002": 2, "\u0003": 3, "\u0004": 4, "\u0005": 5, "\u0006": 6, "\u0007": 7, "\b": 8, "\t": 9, "\n": 10, "\u000b": 11, "\f": 12, "\r": 13, "\u000e": 14, "\u000f": 15, "\u0010": 16, "\u0011": 17, "\u0012": 18, "\u0013": 19, "\u0014": 20, "\u0015": 21, "\u0016": 22, "\u0017": 23, "\u0018": 24, "\u0019": 25, "\u001a": 26, "\u001b": 27, "\u001c": 28, "\u001d": 29, "\u001e": 30, "\u001f": 31, " ": 32, "!": 33, "\"": 34, "#": 35, "$": 36, "%": 37, "&": 38, "'": 39, "(": 40, ")": 41, "*": 42, "+": 43, ",": 44, "-": 45, ".": 46, "/": 47, "0": 48, "1": 49, "2": 50, "3": 51, "4": 52, "5": 53, "6": 54, "7": 55, "8": 56, "9": 57, ":": 58, ";": 59, "<": 60, "=": 61, ">": 62, "?": 63, "@": 64, "A": 65, "B": 66, "C": 67, "D": 68, "E": 69, "F": 70, "G": 71, "H": 72, "I": 73, "J": 74, "K": 75, "L": 76, "M": 77, "N": 78, "O": 79, "P": 80, "Q": 81, "R": 82, "S": 83, "T": 84, "U": 85, "V": 86, "W": 87, "X": 88, "Y": 89, "Z": 90, "[": 91, "\\": 92, "]": 93, "^": 94, "_": 95, "`": 96, "a": 97, "b": 98, "c": 99, "d": 100, "e": 101, "f": 102, "g": 103, "h": 104, "i": 105, "j": 106, "k": 107, "l": 108, "m": 109, "n": 110, "o": 111, "p": 112, "q": 113, "r": 114, "s": 115, "t": 116, "u": 117, "v": 118, "w": 119, "x": 120, "y": 121, "z": 122, "{": 123, "|": 124, "}": 125, "~": 126, "\u007f": 127, "\u0080": 128, "\u0081": 129, "\u0082": 130, "\u0083": 131, "\u0084": 132, "\u0085": 133, "\u0086": 134, "\u0087": 135, "\u0088": 136, "\u0089": 137, "\u008a": 138, "\u008b": 139, "\u008c": 140, "\u008d": 141, "\u008e": 142, "\u008f": 143, "\u0090": 144, "\u0091": 145, "\u0092": 146, "\u0093": 147, "\u0094": 148, "\u0095": 149, "\u0096": 150, "\u0097": 151, "\u0098": 152, "\u0099": 153, "\u009a": 154, "\u009b": 155, "\u009c": 156, "\u009d": 157, "\u009e": 158, "\u009f": 159, "\u00a0": 160, "\u00a1": 161, "\u00a2": 162, "\u00a3": 163, "\u00a4": 164, "\u00a5": 165, "\u00a6": 166, "\u00a7": 167, "\u00a8": 168, "\u00a9": 169, "\u00aa": 170, "\u00ab": 171, "\u00ac": 172, "\u00ad": 173, "\u00ae": 174, "\u00af": 175, "\u00b0": 176, "\u00b1": 177, "\u00b2": 178, "\u00b3": 179, "\u00b4": 180, "\u00b5": 181, "\u00b6": 182, "\u00b7": 183, "\u00b8": 184, "\u00b9": 185, "\u00ba": 186, "\u00bb": 187, "\u00bc": 188, "\u00bd": 189, "\u00be": 190, "\u00bf": 191, "\u00c0": 192, "\u00c1": 193, "\u00c2": 194, "\u00c3": 195, "\u00c4": 196, "\u00c5": 197, "\u00c6": 198, "\u00c7": 199, "\u00c8": 200, "\u00c9": 201, "\u00ca": 202, "\u00cb": 203, "\u00cc": 204, "\u00cd": 205, "\u00ce": 206, "\u00cf": 207, "\u00d0": 208, "\u00d1": 209, "\u00d2": 210, "\u00d3": 211, "\u00d4": 212, "\u00d5": 213, "\u00d6": 214, "\u00d7": 215, "\u00d8": 216, "\u00d9": 217, "\u00da": 218, "\u00db": 219, "\u00dc": 220, "\u00dd": 221, "\u00de": 222, "\u00df": 223, "\u00e0": 224, "\u00e1": 225, "\u00e2": 226, "\u00e3": 227, "\u00e4": 228, "\u00e5": 229, "\u00e6": 230, "\u00e7": 231, "\u00e8": 232, "\u00e9": 233, "\u00ea": 234, "\u00eb": 235, "\u00ec": 236, "\u00ed": 237, "\u00ee": 238, "\u00ef": 239, "\u00f0": 240, "\u00f1": 241, "\u00f2": 242, "\u00f3": 243, "\u00f4": 244, "\u00f5": 245, "\u00f6": 246, "\u00f7": 247, "\u00f8": 248, "\u00f9": 249, "\u00fa": 250, "\u00fb": 251, "\u00fc": 252, "\u00fd": 253, "\u00fe": 254, "\u00ff": 255, "<|endoftext|>": 256, "<|pad|>": 257, " t": 258, " a": 259, "he": 260, "in": 261, "re": 262, " the": 263, "on": 264, "er": 265, " s": 266, " w": 267, "at": 268, " o": 269, "en": 270, " c": 271, "it": 272, "is": 273, "an": 274, "or": 275, " b": 276, "es": 277, "ed": 278, " f": 279, "ing": 280, " p": 281, "ou": 282, " an": 283, "al": 284, " to": 285, "ar": 286, " m": 287, " in": 288, " of": 289, " h": 290, " d": 291, "\u00e2\u0080": 292, "as": 293, "ic": 294, " and": 295, " th": 296, "le": 297, "om": 298, "ion": 299, "ll": 300, "ent": 301, " n": 302, " l": 303, " re": 304, "st": 305, "ve": 306, " e": 307, "ly": 308, "ro": 309, " be": 310, " g": 311, "id": 312, "ut": 313, "ac": 314, "ot": 315, " T": 316, " I": 317, " that": 318, " on": 319, "ay": 320, " S": 321, " is": 322, "et": 323, "im": 324, "am": 325, "ad": 326, "ow": 327, "se": 328, "ig": 329, " for": 330, "\u00e2\u0080\u0099": 331, " A": 332, "ver": 333, "ur": 334, "ct": 335, "ld": 336, " C": 337, " u": 338, " st": 339, " y": 340, " it": 341, " he": 342, "ir": 343, "ation": 344, "ith": 345, " wh": 346, " M": 347, "ce": 348, "ter": 349, "ol": 350, " we": 351, "il": 352, " with": 353, " as": 354, " B": 355, "ch": 356, "ill": 357, "nd": 358, " P": 359, " was": 360, "ers": 361, " you": 362, "ke": 363, " \u00e2\u0080": 364, " con": 365, " de": 366, " r": 367, "her": 368, "if": 369, "ate": 370, "ag": 371, " at": 372, " ha": 373, " W": 374, " se": 375, " H": 376, "ore": 377, " pro": 378, "ul": 379, "pp": 380, "ment": 381, "ri": 382, " are": 383, " D": 384, " 1": 385, "us": 386, "est": 387, "ist": 388, " com": 389, "and": 390, " R": 391, "op": 392, "ain": 393, " The": 394, " 2": 395, "igh": 396, "rom": 397, "end": 398, " (": 399, "te": 400, "th": 401, "od": 402, " ne": 403, " F": 404, "um": 405, "un": 406, " ex": 407, "res": 408, "ab": 409, "\u00e2\u0080\u009d": 410, " not": 411, " N": 412, " v": 413, "ess": 414, " have": 415, "ity": 416, "ould": 417, " or": 418, " by": 419, "ort": 420, "os": 421, " G": 422, "ive": 423, " from": 424, "ant": 425, " al": 426, "'s": 427, "oc": 428, " su": 429, "art": 430, "el": 431, " L": 432, " sh": 433, " this": 434, "em": 435, "qu": 436, "nt": 437, "ight": 438, "pe": 439, "ust": 440, " le": 441, "ies": 442, " E": 443, " ch": 444, " sa": 445, " ab": 446, "The": 447, "out": 448, "all": 449, "ie": 450, "ack": 451, "red": 452, "00": 453, " \u00e2\u0080\u009c": 454, " has": 455, "ally": 456, " J": 457, " pl": 458, " go": 459, "ard": 460, "iv": 461, " his": 462, "ome": 463, "ap": 464, "ost": 465, "gh": 466, "ear": 467, " O": 468, " tr": 469, "our": 470, " j": 471, "ak": 472, "ud": 473, " wor": 474, "ast": 475, " do": 476, " they": 477, " but": 478, "rou": 479, " can": 480, "ge": 481, " will": 482, " said": 483, " whe": 484, " U": 485, " k": 486, "ich": 487, " all": 488, "ok": 489, " \"": 490, "ide": 491, " who": 492, "ame": 493, "ans": 494, "ther": 495, "ial": 496, " out": 497, "ff": 498, " their": 499, "ong": 500, "pl": 501, "ice": 502, "ure": 503, "one": 504, " more": 505, "age": 506, "ions": 507, "act": 508, " up": 509, "ike": 510, " me": 511, "ous": 512, "ine": 513, " ad": 514, "ep": 515, " about": 516, "ated": 517, "ra": 518, "ber": 519, "pt": 520, " one": 521, " were": 522, " so": 523, " us": 524, "ect": 525, "og": 526, "ime": 527, " K": 528, "ia": 529, " had": 530, "are": 531, "ub": 532, "cc": 533, " would": 534, " cl": 535, " 20": 536, " im": 537, " which": 538, "ind": 539, "xt": 540, "ue": 541, "ake": 542, "iz": 543, "very": 544, " ag": 545, " te": 546, " off": 547, " comp": 548, " un": 549, " been": 550, " int": 551, "so": 552, " en": 553, "per": 554, "ign": 555, "au": 556, " cont": 557, " Th": 558, "ary": 559, " year": 560, "ip": 561, "ace": 562, "ew": 563, " like": 564, "ven": 565, "ook": 566, " inc": 567, "ays": 568, " man": 569, " pe": 570, " In": 571, "ry": 572, "ose": 573, " res": 574, "able": 575, "ite": 576, " per": 577, "ass": 578, "ord": 579, " sp": 580, "ire": 581, " other": 582, "mer": 583, " some": 584, "ile": 585, "ib": 586, "ence": 587, " St": 588, "ople": 589, " 201": 590, "ks": 591, "ations": 592, " over": 593, "ical": 594, " there": 595, "ress": 596, " dis": 597, "ult": 598, " new": 599, "own": 600, " also": 601, " than": 602, " ar": 603, " bec": 604, "ru": 605, " them": 606, "ance": 607, "ough": 608, " app": 609, "port": 610, "ount": 611, "ail": 612, "ree": 613, "int": 614, " part": 615, " your": 616, " when": 617, " what": 618, "orm": 619, "ond": 620, " people": 621, "fter": 622, " sc": 623, " Ch": 624, "av": 625, "ase": 626, " qu": 627, " any": 628, " just": 629, " its": 630, " Y": 631, "ach": 632, "ction": 633, " time": 634, "of": 635, " kn": 636, " It": 637, " her": 638, " 3": 639, "ens": 640, "lic": 641, " rec": 642, "reat": 643, " my": 644, " get": 645, " if": 646, " V": 647, "ian": 648, ".\u00e2\u0080\u009d": 649, " into": 650, "ound": 651, " work": 652, " tw": 653, "irst": 654, "vel": 655, " no": 656, "du": 657, "ere": 658, "ings": 659, "ory": 660, "ick": 661, "ors": 662, " our": 663, "ition": 664, "ident": 665, "ob": 666, " -": 667, " pre": 668, "ove": 669, " play": 670, "ang": 671, "ink": 672, "ause": 673, "wn": 674, "text": 675, "amp": 676, "ade": 677, "ates": 678, "hing": 679, "ark": 680, " ro": 681, " pol": 682, " she": 683, "vers": 684, " co": 685, ",\u00e2\u0080\u009d": 686, " after": 687, " first": 688, " could": 689, " how": 690, " He": 691, "ne": 692, " 19": 693, "ious": 694, "nder": 695, "ild": 696, " acc": 697, " him": 698, "aw": 699, "'t": 700, "ons": 701, " po": 702, "|>": 703, "<|": 704, "endof": 705, "text|>": 706, "endoftext|>": 707, " only": 708, " fe": 709, "ict": 710, "hed": 711, " pr": 712, "rit": 713, "ov": 714, " two": 715, "ish": 716, " comm": 717, "\u00e2\u0080\u009c": 718, " spe": 719, "form": 720, " act": 721, "erv": 722, " bl": 723, "we": 724, " bet": 725, " dec": 726, ".\"": 727, "ning": 728, " back": 729, " most": 730, "ces": 731, "ft": 732, "ood": 733, "ck": 734, " \u00e2\u0080\u0093": 735, " am": 736, "oy": 737, " did": 738, "rough": 739, "iff": 740, "ater": 741, "round": 742, " again": 743, " 4": 744, "ual": 745, "day": 746, "ise": 747, " under": 748, " des": 749, " want": 750, "ull": 751, "sel": 752, " cons": 753, " \u00e2\u0080\u0094": 754, "..": 755, " because": 756, " now": 757, "lud": 758, "ents": 759, "man": 760, " years": 761, "tern": 762, "ublic": 763, " need": 764, "ec": 765, " even": 766, " $": 767, "iss": 768, " inv": 769, " att": 770, " know": 771, " We": 772, " see": 773, "ments": 774, "ced": 775, " add": 776, ",\"": 777, "old": 778, " ind": 779, "ting": 780, " sec": 781, "fore": 782, "uch": 783, " every": 784, "urn": 785, " 5": 786, " supp": 787, " make": 788, "pect": 789, " Un": 790, " em": 791, " these": 792, "ock": 793, "In": 794, "oll": 795, " where": 796, "ject": 797, "ational": 798, "vern": 799, " bu": 800, " look": 801, "Th": 802, " And": 803, "oss": 804, " don": 805, " ev": 806, "ump": 807, "ating": 808, " way": 809, " being": 810, " rem": 811, "ily": 812, " may": 813, "ng": 814, "row": 815, "lect": 816, "iew": 817, " then": 818, " right": 819, " many": 820, " [": 821, " diff": 822, " def": 823, "ason": 824, " rel": 825, " call": 826, " But": 827, " Tr": 828, "les": 829, "ied": 830, "ased": 831, " includ": 832, " think": 833, "aking": 834, " reg": 835, ").": 836, "ont": 837, "meric": 838, " imp": 839, " through": 840, "ath": 841, "ited": 842, "rib": 843, " sy": 844, " should": 845, " pres": 846, " say": 847, " fl": 848, "uring": 849, " last": 850, "ty": 851, " those": 852, "ower": 853, " very": 854, "other": 855, " much": 856, "000": 857, "ities": 858, "ific": 859, " state": 860, " This": 861, "ative": 862, " show": 863, "tle": 864, "hen": 865, " br": 866, "ss": 867, "arg": 868, " well": 869, "oth": 870, " ph": 871, " Wh": 872, "als": 873, "und": 874, " count": 875, " does": 876, " down": 877, " own": 878, "arly": 879, " end": 880, " ass": 881, " bel": 882, " use": 883, "ics": 884, "ange": 885, "ts": 886, "--": 887, " long": 888, " Americ": 889, "ters": 890, "ince": 891, " before": 892, "omet": 893, "gr": 894, " mon": 895, "ward": 896, " govern": 897, " start": 898, " report": 899, "ible": 900, " ke": 901, "up": 902, "ues": 903, " New": 904, "oun": 905, " fin": 906, " team": 907, "ble": 908, " made": 909, "ife": 910, "olog": 911, "ren": 912, "ener": 913, "),": 914, " such": 915, "com": 916, " 200": 917, "erson": 918, "ix": 919, " sm": 920, "ek": 921, "rest": 922, "\u00e2\u0080\u0094": 923, "lp": 924, "ility": 925, " going": 926, "ism": 927, "ful": 928, " world": 929, "ually": 930, " stud": 931, "ists": 932, " good": 933, " ac": 934, "tain": 935, " sub": 936, " eff": 937, "ini": 938, " sur": 939, " against": 940, "It": 941, "its": 942, " game": 943, " set": 944, "ork": 945, " 6": 946, " gu": 947, " point": 948, " ent": 949, "ys": 950, "gan": 951, "ars": 952, "li": 953, "stem": 954, " prov": 955, " still": 956, "roup": 957, " while": 958, "illion": 959, " help": 960, " lead": 961, "ell": 962, "ms": 963, "ween": 964, "ax": 965, "ank": 966, "alk": 967, "imes": 968, " says": 969, " ob": 970, "cy": 971, " produ": 972, "ef": 973, " inte": 974, " gr": 975, " inter": 976, " inst": 977, " str": 978, "cess": 979, " sim": 980, "self": 981, " conf": 982, " col": 983, " take": 984, "io": 985, " min": 986, "ures": 987, "arch": 988, " same": 989, " though": 990, " between": 991, "ollow": 992, " offic": 993, "ever": 994, " cr": 995, "land": 996, " differe": 997, "ool": 998, "uss": 999, "ution": 1000, " disc": 1001, "air": 1002, " op": 1003, "ah": 1004, " ed": 1005, " high": 1006, "read": 1007, " num": 1008, " law": 1009, " sign": 1010, "way": 1011, " government": 1012, "gg": 1013, "led": 1014, " Re": 1015, "ner": 1016, "hip": 1017, "atch": 1018, "hes": 1019, "ames": 1020, "any": 1021, " ter": 1022, " somet": 1023, "cent": 1024, "ten": 1025, "velop": 1026, "ted": 1027, "We": 1028, " ref": 1029, " trans": 1030, " ins": 1031, " run": 1032, " ser": 1033, " found": 1034, " three": 1035, "ives": 1036, "ave": 1037, " mem": 1038, " around": 1039, " here": 1040, "ather": 1041, " med": 1042, " real": 1043, " used": 1044, "ouse": 1045, " 10": 1046, "ved": 1047, " exp": 1048, "az": 1049, " Ar": 1050, "cept": 1051, "oot": 1052, " system": 1053, " You": 1054, "ci": 1055, " really": 1056, " mod": 1057, "ving": 1058, "con": 1059, "cer": 1060, " group": 1061, " support": 1062, " 7": 1063, " cour": 1064, "ets": 1065, "ale": 1066, "nin": 1067, "ins": 1068, " car": 1069, " ret": 1070, " hand": 1071, " public": 1072, " spec": 1073, "pr": 1074, "ph": 1075, " Le": 1076, "ying": 1077, " great": 1078, "ense": 1079, " ext": 1080, "ton": 1081, ".[": 1082, "irect": 1083, " cur": 1084, " fam": 1085, " Com": 1086, "alth": 1087, " happ": 1088, " fact": 1089, " exper": 1090, " They": 1091, " Trump": 1092, " fr": 1093, " wom": 1094, " Is": 1095, " cap": 1096, " both": 1097, " day": 1098, " find": 1099, " Al": 1100, "ular": 1101, " read": 1102, "ines": 1103, "oh": 1104, "ices": 1105, " det": 1106, " lit": 1107, " sl": 1108, " rep": 1109, "uth": 1110, " during": 1111, " Sh": 1112, " As": 1113, " 0": 1114, " serv": 1115, "the": 1116, " month": 1117, "ision": 1118, " develop": 1119, " big": 1120, "min": 1121, " 8": 1122, " person": 1123, "akes": 1124, " follow": 1125, " cre": 1126, " Cl": 1127, " iss": 1128, " told": 1129, " since": 1130, "ared": 1131, "med": 1132, "ically": 1133, " week": 1134, "ages": 1135, "ivers": 1136, " war": 1137, " few": 1138, "ording": 1139, " cent": 1140, " leg": 1141, "aj": 1142, "ex": 1143, "get": 1144, " polit": 1145, "ves": 1146, "ash": 1147, " expl": 1148, "ered": 1149, " lot": 1150, "ric": 1151, " belie": 1152, "ata": 1153, " gener": 1154, " too": 1155, " 9": 1156, "der": 1157, "rent": 1158, " opp": 1159, "Wh": 1160, " requ": 1161, " contin": 1162, "iet": 1163, "bers": 1164, "anc": 1165, " fil": 1166, " cor": 1167, "ention": 1168, "ness": 1169, " cle": 1170, " resp": 1171, " put": 1172, "ized": 1173, " If": 1174, " another": 1175, "20": 1176, "chool": 1177, " inf": 1178, " something": 1179, " different": 1180, " loc": 1181, " De": 1182, "ute": 1183, " invest": 1184, " soc": 1185, " power": 1186, " che": 1187, "uc": 1188, " '": 1189, " pass": 1190, " commun": 1191, " life": 1192, " Fr": 1193, " plan": 1194, "ody": 1195, " rele": 1196, " head": 1197, "ience": 1198, " things": 1199, "ned": 1200, "thing": 1201, " far": 1202, "ox": 1203, " art": 1204, " poss": 1205, " met": 1206, " camp": 1207, "ross": 1208, "arge": 1209, " vot": 1210, "This": 1211, "view": 1212, " child": 1213, "ier": 1214, "ants": 1215, " ask": 1216, " .": 1217, " might": 1218, " each": 1219, "ize": 1220, " dep": 1221, "iness": 1222, " never": 1223, " next": 1224, " For": 1225, " An": 1226, "ield": 1227, " second": 1228, " mark": 1229, " quest": 1230, " bus": 1231, " adv": 1232, "ik": 1233, "...": 1234, " dem": 1235, " come": 1236, " got": 1237, " \u00e2\u0080\u0098": 1238, "ret": 1239, " open": 1240, " best": 1241, "ient": 1242, "ital": 1243, " allow": 1244, " That": 1245, "rat": 1246, " seem": 1247, " post": 1248, "ple": 1249, "tem": 1250, "nce": 1251, " feel": 1252, " Pro": 1253, " US": 1254, "ug": 1255, " pri": 1256, "gram": 1257, " percent": 1258, "cl": 1259, " home": 1260, " dist": 1261, " direct": 1262, "ired": 1263, " incre": 1264, " contro": 1265, " Rep": 1266, "son": 1267, "less": 1268, "orn": 1269, "osed": 1270, " result": 1271, " hard": 1272, " care": 1273, "ately": 1274, " million": 1275, "chn": 1276, " comple": 1277, " place": 1278, " without": 1279, " inform": 1280, " including": 1281, " import": 1282, " av": 1283, "conom": 1284, " hum": 1285, "ama": 1286, " ide": 1287, " proble": 1288, " build": 1289, " top": 1290, " number": 1291, " country": 1292, "gy": 1293, "oney": 1294, "aim": 1295, " Bl": 1296, "ral": 1297, "tt": 1298, "ably": 1299, "uro": 1300, " stand": 1301, " gl": 1302, " el": 1303, "riend": 1304, " four": 1305, "ished": 1306, "ways": 1307, " partic": 1308, " better": 1309, " tri": 1310, "But": 1311, " recent": 1312, " interest": 1313, " mov": 1314, " let": 1315, "ration": 1316, "co": 1317, " season": 1318, " less": 1319, " turn": 1320, " little": 1321, " beh": 1322, " mil": 1323, "ead": 1324, " appro": 1325, "ract": 1326, "line": 1327, " bro": 1328, "ling": 1329, "ised": 1330, " called": 1331, "app": 1332, "10": 1333, " case": 1334, " dr": 1335, " Ind": 1336, " rest": 1337, " left": 1338, " pop": 1339, " ann": 1340, " Z": 1341, "ency": 1342, " move": 1343, "ode": 1344, " attack": 1345, "ina": 1346, " There": 1347, " keep": 1348, " full": 1349, "ering": 1350, " didn": 1351, "be": 1352, " fun": 1353, " main": 1354, "ajor": 1355, "__": 1356, " effect": 1357, "inal": 1358, "leg": 1359, " prev": 1360, " program": 1361, " using": 1362, " test": 1363, "to": 1364, "rem": 1365, " pay": 1366, "ature": 1367, " ear": 1368, " val": 1369, " police": 1370, " writ": 1371, " form": 1372, " econom": 1373, " data": 1374, " news": 1375, " pos": 1376, " win": 1377, " char": 1378, " American": 1379, " level": 1380, " sit": 1381, "ains": 1382, "iving": 1383, "uck": 1384, " small": 1385, "ined": 1386, "ready": 1387, "He": 1388, " school": 1389, " list": 1390, "ology": 1391, "rap": 1392, "ided": 1393, "mit": 1394, "ploy": 1395, "'re": 1396, "ger": 1397, " eas": 1398, " process": 1399, "ird": 1400, " change": 1401, "orth": 1402, " women": 1403, " current": 1404, " rece": 1405, " prom": 1406, " hist": 1407, " dri": 1408, " =": 1409, "reen": 1410, " president": 1411, " company": 1412, "used": 1413, " mat": 1414, "ruct": 1415, " already": 1416, "ohn": 1417, " United": 1418, "wit": 1419, " ty": 1420, " why": 1421, " bre": 1422, " unt": 1423, " money": 1424, " sol": 1425, " always": 1426, " later": 1427, " expect": 1428, " techn": 1429, " business": 1430, " How": 1431, " official": 1432, "ron": 1433, " Q": 1434, " Ob": 1435, "stand": 1436, "iversity": 1437, " book": 1438, " bo": 1439, " Ph": 1440, "aign": 1441, " thing": 1442, " class": 1443, " project": 1444, "ases": 1445, " claim": 1446, " job": 1447, " information": 1448, " organ": 1449, "aff": 1450, " She": 1451, " talk": 1452, "ards": 1453, " Be": 1454, " design": 1455, " story": 1456, " chang": 1457, " major": 1458, " able": 1459, " prof": 1460, " --": 1461, "lection": 1462, "iven": 1463, "ertain": 1464, " rese": 1465, " health": 1466, " vis": 1467, "urs": 1468, " free": 1469, "outh": 1470, "here": 1471, " Ad": 1472, " oper": 1473, " So": 1474, " away": 1475, "ior": 1476, " Can": 1477, " must": 1478, " city": 1479, "ample": 1480, "ians": 1481, "rist": 1482, "sc": 1483, "ural": 1484, " happen": 1485, "uthor": 1486, " 18": 1487, "acy": 1488, "urity": 1489, " important": 1490, " kill": 1491, " sk": 1492, "ption": 1493, " est": 1494, "ured": 1495, " old": 1496, " past": 1497, " pat": 1498, " Se": 1499, "ury": 1500, "ending": 1501, " doesn": 1502, "ission": 1503, " least": 1504, "---": 1505, " grow": 1506, " edit": 1507, " var": 1508, "ained": 1509, " cost": 1510, "ney": 1511, "ider": 1512, " Go": 1513, "ides": 1514, " days": 1515, " tell": 1516, " hop": 1517, " campaign": 1518, "side": 1519, " stre": 1520, " 12": 1521, " men": 1522, " came": 1523, " aff": 1524, " Mar": 1525, " const": 1526, "resident": 1527, " enough": 1528, " view": 1529, "ccess": 1530, " kind": 1531, " Sp": 1532, "oad": 1533, "ern": 1534, " making": 1535, "els": 1536, " large": 1537, " record": 1538, "50": 1539, "ush": 1540, " mar": 1541, " friend": 1542, " family": 1543, "\u00e2\u0080\u00a6": 1544, "ley": 1545, " elect": 1546, "ded": 1547, "eral": 1548, " polic": 1549, " tax": 1550, "ising": 1551, "ror": 1552, "by": 1553, "pped": 1554, "ality": 1555, "ator": 1556, "ified": 1557, "As": 1558, "ived": 1559, " until": 1560, "arent": 1561, "ional": 1562, " political": 1563, " vide": 1564, " deal": 1565, "ries": 1566, "alf": 1567, "augh": 1568, " ve": 1569, " working": 1570, "ued": 1571, " Republic": 1572, " took": 1573, " deb": 1574, "bs": 1575, "If": 1576, "ister": 1577, " line": 1578, " John": 1579, "aining": 1580, " air": 1581, " es": 1582, "ane": 1583, " intern": 1584, " fore": 1585, "iol": 1586, "ocrat": 1587, " become": 1588, " actually": 1589, "aps": 1590, "ony": 1591, " mean": 1592, "work": 1593, " Sc": 1594, " fund": 1595, "ware": 1596, "19": 1597, " Pl": 1598, "St": 1599, " former": 1600, " often": 1601, " Euro": 1602, "ott": 1603, " won": 1604, "ann": 1605, " give": 1606, " according": 1607, " ever": 1608, "most": 1609, "eng": 1610, "year": 1611, " prote": 1612, "wh": 1613, "aring": 1614, " games": 1615, "ison": 1616, " human": 1617, " bas": 1618, "ization": 1619, " return": 1620, " times": 1621, " order": 1622, " Russ": 1623, " word": 1624, " bit": 1625, " Dem": 1626, " name": 1627, "oint": 1628, "11": 1629, " sever": 1630, " Con": 1631, " All": 1632, " par": 1633, " dev": 1634, "icle": 1635, "for": 1636, "uture": 1637, "ither": 1638, " 199": 1639, " Mc": 1640, " At": 1641, " wr": 1642, "raft": 1643, " sing": 1644, " perform": 1645, " Sy": 1646, " market": 1647, " fac": 1648, " charac": 1649, "There": 1650, "iqu": 1651, " Or": 1652, "ene": 1653, "idd": 1654, " May": 1655, " ra": 1656, " doing": 1657, " appear": 1658, "ER": 1659, "ched": 1660, " players": 1661, " la": 1662, " night": 1663, " lear": 1664, "aken": 1665, "rop": 1666, "ats": 1667, "mber": 1668, " today": 1669, " early": 1670, " 15": 1671, " seen": 1672, "//": 1673, " having": 1674, " ,": 1675, " pot": 1676, " children": 1677, " event": 1678, " media": 1679, " social": 1680, " crit": 1681, " President": 1682, " whether": 1683, " several": 1684, " control": 1685, "idence": 1686, " meet": 1687, "sh": 1688, " milit": 1689, " press": 1690, " went": 1691, "artment": 1692, " five": 1693, " young": 1694, "ories": 1695, " prop": 1696, "iously": 1697, " sure": 1698, " equ": 1699, " beg": 1700, " question": 1701, " occ": 1702, "une": 1703, " likely": 1704, "vert": 1705, " members": 1706, "br": 1707, " certain": 1708, "ands": 1709, " eng": 1710, " water": 1711, " York": 1712, " example": 1713, "ots": 1714, " Col": 1715, " arg": 1716, " side": 1717, " done": 1718, " vers": 1719, "enn": 1720, " ant": 1721, " invol": 1722, "ee": 1723, " Mr": 1724, " States": 1725, " Europe": 1726, "ended": 1727, "let": 1728, " along": 1729, " short": 1730, " success": 1731, "ential": 1732, " months": 1733, "ball": 1734, " hour": 1735, " 11": 1736, "ium": 1737, " Ste": 1738, "iver": 1739, "ially": 1740, "And": 1741, " sex": 1742, "lf": 1743, " within": 1744, " desc": 1745, "imate": 1746, " course": 1747, " fight": 1748, "urch": 1749, "ubl": 1750, " among": 1751, " activ": 1752, "uff": 1753, "\u00e2\u0080\u0093": 1754, "ague": 1755, " once": 1756, "ster": 1757, " future": 1758, " investig": 1759, "ulation": 1760, "rew": 1761, " possible": 1762, " Obama": 1763, " cho": 1764, "nect": 1765, " Car": 1766, " understand": 1767, "iting": 1768, " concer": 1769, " On": 1770, " ]": 1771, "ones": 1772, "ortun": 1773, " problem": 1774, " Br": 1775, " priv": 1776, " means": 1777, " viol": 1778, " author": 1779, "itive": 1780, "ggest": 1781, " No": 1782, " avail": 1783, "oci": 1784, "ourn": 1785, "my": 1786, " known": 1787, " product": 1788, " non": 1789, "ivid": 1790, " thought": 1791, " yet": 1792, "gress": 1793, " across": 1794, " local": 1795, "ler": 1796, " hold": 1797, " Te": 1798, " fail": 1799, "inc": 1800, " When": 1801, " State": 1802, " community": 1803, " reason": 1804, " orig": 1805, "ede": 1806, " suggest": 1807, " &": 1808, "12": 1809, " makes": 1810, "verage": 1811, "por": 1812, "ald": 1813, "not": 1814, "back": 1815, " 2016": 1816, " i": 1817, "book": 1818, " asked": 1819, "ederal": 1820, "orld": 1821, " reported": 1822, "You": 1823, "aged": 1824, "ensive": 1825, " given": 1826, " strong": 1827, " prob": 1828, " mus": 1829, " others": 1830, " believe": 1831, " video": 1832, "iber": 1833, " ben": 1834, " getting": 1835, " House": 1836, "ances": 1837, " announ": 1838, " light": 1839, "ging": 1840, "ored": 1841, "ober": 1842, " University": 1843, " 30": 1844, "itions": 1845, " ident": 1846, "iron": 1847, " sent": 1848, " cut": 1849, " lim": 1850, " ca": 1851, " Christ": 1852, " Co": 1853, "iety": 1854, "30": 1855, "urther": 1856, " sour": 1857, " creat": 1858, " cond": 1859, " X": 1860, "ams": 1861, "'ve": 1862, " net": 1863, "ashing": 1864, " bat": 1865, "ament": 1866, " national": 1867, ".,": 1868, " close": 1869, "arm": 1870, " started": 1871, " saf": 1872, " death": 1873, "aster": 1874, " available": 1875, "For": 1876, " hig": 1877, " based": 1878, " issue": 1879, " indust": 1880, " Democrat": 1881, " low": 1882, " following": 1883, "resent": 1884, " account": 1885, " land": 1886, "use": 1887, " Cent": 1888, " employ": 1889, " love": 1890, " 2015": 1891, " #": 1892, " history": 1893, " ago": 1894, "orts": 1895, "selves": 1896, " mom": 1897, "ana": 1898, " party": 1899, " Am": 1900, "ability": 1901, " series": 1902, " comes": 1903, " trying": 1904, "uly": 1905, "utes": 1906, " almost": 1907, "gether": 1908, "ument": 1909, " together": 1910, "ination": 1911, "AT": 1912, " America": 1913, " idea": 1914, "pro": 1915, "ief": 1916, " access": 1917, " foc": 1918, "eb": 1919, "hers": 1920, "ilar": 1921, " Fl": 1922, "reed": 1923, "ails": 1924, " commit": 1925, "itional": 1926, " isn": 1927, " Sen": 1928, " clear": 1929, " 16": 1930, " One": 1931, " trad": 1932, " Min": 1933, "though": 1934, "ring": 1935, " What": 1936, " pract": 1937, " added": 1938, " impro": 1939, " experience": 1940, "erence": 1941, " film": 1942, "15": 1943, " half": 1944, "ustom": 1945, "ged": 1946, " hit": 1947, " Bro": 1948, "witter": 1949, "rict": 1950, " anal": 1951, " prot": 1952, "inton": 1953, "ograp": 1954, "unch": 1955, " 2014": 1956, " rul": 1957, "ividual": 1958, " looking": 1959, " six": 1960, " live": 1961, " anything": 1962, " area": 1963, " complete": 1964, "erman": 1965, "minist": 1966, " miss": 1967, "rael": 1968, " Comm": 1969, " fav": 1970, " Ex": 1971, "tempt": 1972, " ris": 1973, "nes": 1974, " present": 1975, "ai": 1976, "ote": 1977, "rug": 1978, " saying": 1979, "raw": 1980, "aid": 1981, " Canad": 1982, " vict": 1983, "IN": 1984, "cially": 1985, " bad": 1986, "ows": 1987, "uge": 1988, " taken": 1989, "oto": 1990, " entire": 1991, " Pr": 1992, "ators": 1993, " mor": 1994, " bill": 1995, "af": 1996, " compet": 1997, " Eng": 1998, " behind": 1999, "ien": 2000, " aut": 2001, "'m": 2002, " To": 2003, " court": 2004, "play": 2005, " try": 2006, "wards": 2007, " military": 2008, " z": 2009, " near": 2010, "osp": 2011, "What": 2012, " face": 2013, " mult": 2014, " er": 2015, " 14": 2016, " security": 2017, " Pol": 2018, "ps": 2019, " proper": 2020, " discuss": 2021, " threat": 2022, "ev": 2023, " study": 2024, " single": 2025, " rather": 2026, " individual": 2027, "ert": 2028, " Af": 2029, " War": 2030, " Brit": 2031, " sw": 2032, " \u00c2": 2033, " quick": 2034, " tot": 2035, " Don": 2036, "An": 2037, " mind": 2038, " Sec": 2039, "lement": 2040, "ales": 2041, "atic": 2042, " North": 2043, "amed": 2044, "aper": 2045, " publ": 2046, "par": 2047, " policy": 2048, " mess": 2049, "ris": 2050, " black": 2051, " wanted": 2052, " fall": 2053, "irc": 2054, "**": 2055, "off": 2056, " food": 2057, " sum": 2058, " someone": 2059, "lling": 2060, "ids": 2061, "On": 2062, " Dep": 2063, " /": 2064, " cult": 2065, " special": 2066, " comb": 2067, " key": 2068, " player": 2069, " redu": 2070, " |": 2071, " Gr": 2072, " bring": 2073, " 13": 2074, " compan": 2075, " 17": 2076, "ply": 2077, "rote": 2078, " attempt": 2079, " Bar": 2080, " National": 2081, " taking": 2082, "When": 2083, "yn": 2084, "ON": 2085, "ify": 2086, "olution": 2087, " :": 2088, "viron": 2089, " foot": 2090, " Cal": 2091, "://": 2092, " else": 2093, " pret": 2094, " body": 2095, " space": 2096, "over": 2097, " coun": 2098, "elt": 2099, " probably": 2100, "16": 2101, "icult": 2102, ".)": 2103, " front": 2104, " cou": 2105, " nothing": 2106, " Im": 2107, "ashington": 2108, " connect": 2109, "ches": 2110, " World": 2111, " research": 2112, "14": 2113, " Clinton": 2114, " City": 2115, "ming": 2116, " coming": 2117, " points": 2118, " Israel": 2119, " however": 2120, "RE": 2121, " describ": 2122, " jo": 2123, "go": 2124, " signific": 2125, " similar": 2126, "lier": 2127, " Man": 2128, "reme": 2129, "cing": 2130, " benef": 2131, " Aust": 2132, " imm": 2133, " decision": 2134, " either": 2135, "aces": 2136, "Ad": 2137, " Har": 2138, "ault": 2139, " mass": 2140, " sus": 2141, " targ": 2142, "ully": 2143, "sy": 2144, " feat": 2145, "That": 2146, " conv": 2147, " exist": 2148, "irl": 2149, " enc": 2150, " 2013": 2151, " rights": 2152, " service": 2153, " Su": 2154, "asing": 2155, "IS": 2156, "oon": 2157, " fire": 2158, " doc": 2159, " wrote": 2160, " further": 2161, " house": 2162, "rodu": 2163, " ban": 2164, "ww": 2165, " fig": 2166, " chall": 2167, " third": 2168, "mb": 2169, " protect": 2170, " wa": 2171, " create": 2172, "sw": 2173, " stop": 2174, " field": 2175, " pick": 2176, "now": 2177, "AN": 2178, "ape": 2179, "ively": 2180, " meas": 2181, " repl": 2182, " compl": 2183, "ung": 2184, " With": 2185, " issues": 2186, "pping": 2187, " begin": 2188, " super": 2189, "amer": 2190, " step": 2191, "ried": 2192, "ently": 2193, " whole": 2194, " relations": 2195, " seems": 2196, " )": 2197, " tem": 2198, " companies": 2199, "pecially": 2200, " due": 2201, " exec": 2202, " cand": 2203, " everything": 2204, "eal": 2205, " federal": 2206, " Ed": 2207, " states": 2208, " Gu": 2209, " ey": 2210, " room": 2211, "aul": 2212, " tra": 2213, " watch": 2214, " custom": 2215, " Ge": 2216, " leaders": 2217, "13": 2218, "ran": 2219, "uation": 2220, " However": 2221, "pite": 2222, " Jan": 2223, " Washington": 2224, "Ch": 2225, "lam": 2226, " self": 2227, " role": 2228, "ilt": 2229, " sound": 2230, " lab": 2231, "head": 2232, " dam": 2233, "ivil": 2234, " officials": 2235, " stri": 2236, "So": 2237, " 2012": 2238, " tre": 2239, "iday": 2240, "lu": 2241, "ibility": 2242, " released": 2243, " Inst": 2244, " began": 2245, " Dav": 2246, " App": 2247, " South": 2248, " opt": 2249, "obal": 2250, " students": 2251, " treat": 2252, " final": 2253, " character": 2254, " position": 2255, " matter": 2256, "\u00c3\u00a9": 2257, "ender": 2258, " ener": 2259, "lim": 2260, " outside": 2261, " dou": 2262, "ery": 2263, "sec": 2264, "ades": 2265, "vironment": 2266, " development": 2267, " statement": 2268, " himself": 2269, " 2017": 2270, " stat": 2271, " above": 2272, "like": 2273, " init": 2274, " break": 2275, " 100": 2276, " amount": 2277, " provide": 2278, "att": 2279, " hours": 2280, " itself": 2281, " themselves": 2282, " office": 2283, " represent": 2284, " action": 2285, " di": 2286, " became": 2287, " 198": 2288, " general": 2289, " continue": 2290, " Part": 2291, " countries": 2292, " Intern": 2293, " neg": 2294, " address": 2295, "iod": 2296, "tee": 2297, " 25": 2298, " gun": 2299, "aced": 2300, "ask": 2301, " true": 2302, " specific": 2303, "ograph": 2304, "umb": 2305, "arter": 2306, "reg": 2307, " larg": 2308, " significant": 2309, "lish": 2310, " simply": 2311, " Ass": 2312, " Res": 2313, " wasn": 2314, "'ll": 2315, "ili": 2316, " interview": 2317, "acebook": 2318, " ground": 2319, " rad": 2320, "oid": 2321, "ogn": 2322, " difficult": 2323, " running": 2324, " Just": 2325, " evidence": 2326, " administ": 2327, "BC": 2328, " cop": 2329, "17": 2330, "ream": 2331, " drug": 2332, " version": 2333, " bar": 2334, "ogle": 2335, " agree": 2336, "iddle": 2337, "eks": 2338, " building": 2339, " China": 2340, " needs": 2341, " profess": 2342, "angu": 2343, " groups": 2344, " typ": 2345, " respons": 2346, " common": 2347, " shows": 2348, " everyone": 2349, " dom": 2350, " dest": 2351, " red": 2352, " needed": 2353, " ball": 2354, " woman": 2355, "___": 2356, " German": 2357, " lat": 2358, " below": 2359, "right": 2360, " Sep": 2361, "light": 2362, "ournal": 2363, " music": 2364, " exc": 2365, " release": 2366, "ift": 2367, " inj": 2368, " pretty": 2369, " Ab": 2370, "AR": 2371, "ribut": 2372, " Med": 2373, " include": 2374, " saw": 2375, " deep": 2376, "body": 2377, " ap": 2378, "18": 2379, " played": 2380, " quite": 2381, " industry": 2382, " charg": 2383, " mag": 2384, " energy": 2385, " playing": 2386, " mot": 2387, " 50": 2388, " candid": 2389, " sense": 2390, " phys": 2391, " late": 2392, " alleg": 2393, " white": 2394, " His": 2395, "ival": 2396, " friends": 2397, " gen": 2398, " legal": 2399, "atur": 2400, "bo": 2401, " anim": 2402, "isc": 2403, "yle": 2404, " After": 2405, "omm": 2406, "How": 2407, "AS": 2408, "where": 2409, " abs": 2410, "lev": 2411, " instead": 2412, " billion": 2413, " lost": 2414, " especially": 2415, " value": 2416, " Mus": 2417, " West": 2418, " host": 2419, "time": 2420, "osing": 2421, "oring": 2422, " hom": 2423, " News": 2424, "ager": 2425, " ple": 2426, "istic": 2427, " weeks": 2428, "eg": 2429, "epend": 2430, " Not": 2431, "ccording": 2432, " forward": 2433, " deter": 2434, " election": 2435, " recently": 2436, " jud": 2437, " track": 2438, " suff": 2439, " vote": 2440, "lt": 2441, " Twitter": 2442, " object": 2443, "medi": 2444, " period": 2445, " changes": 2446, " opportun": 2447, " White": 2448, " Oct": 2449, " longer": 2450, "irt": 2451, "arc": 2452, "oke": 2453, " pain": 2454, "ique": 2455, " soon": 2456, " site": 2457, " {": 2458, " ep": 2459, "hod": 2460, "ript": 2461, "ached": 2462, " accept": 2463, " Cong": 2464, "irm": 2465, " shoot": 2466, " economic": 2467, " hope": 2468, " moment": 2469, " decl": 2470, "lege": 2471, " consum": 2472, " Will": 2473, " pie": 2474, " tit": 2475, " check": 2476, "oph": 2477, "oe": 2478, " potential": 2479, " block": 2480, " March": 2481, "ole": 2482, " wrong": 2483, "duct": 2484, "ners": 2485, "ij": 2486, "den": 2487, " Department": 2488, " higher": 2489, "onse": 2490, " cred": 2491, " online": 2492, " focus": 2493, " 24": 2494, " consider": 2495, "key": 2496, " educ": 2497, "ancial": 2498, " My": 2499, "ns": 2500, "iding": 2501, " circ": 2502, " works": 2503, " relig": 2504, " share": 2505, " parent": 2506, "cial": 2507, " held": 2508, "25": 2509, " pred": 2510, " Dr": 2511, " walk": 2512, " webs": 2513, " lo": 2514, "ularly": 2515, "==": 2516, " reve": 2517, " led": 2518, "lear": 2519, " stay": 2520, " These": 2521, "overed": 2522, " stru": 2523, " goal": 2524, " Republican": 2525, " risk": 2526, " words": 2527, " Aug": 2528, " rev": 2529, " sold": 2530, " review": 2531, "icro": 2532, " contract": 2533, " results": 2534, " services": 2535, " laws": 2536, "They": 2537, " code": 2538, "cil": 2539, " Mich": 2540, " wind": 2541, " function": 2542, " aud": 2543, " Syri": 2544, "put": 2545, " ce": 2546, " total": 2547, "aut": 2548, "fect": 2549, " article": 2550, " age": 2551, " applic": 2552, " minutes": 2553, " personal": 2554, "ilities": 2555, " anyone": 2556, "uary": 2557, "ients": 2558, "itution": 2559, " June": 2560, "asons": 2561, "ateg": 2562, " prim": 2563, "anger": 2564, " target": 2565, " den": 2566, " earlier": 2567, "ule": 2568, " favor": 2569, " express": 2570, "haps": 2571, "fer": 2572, " dead": 2573, " answ": 2574, "che": 2575, " upd": 2576, " popular": 2577, " comput": 2578, " vol": 2579, "pril": 2580, " necess": 2581, "ham": 2582, " hy": 2583, " rate": 2584, "ES": 2585, "aging": 2586, " technology": 2587, "apan": 2588, " respect": 2589, "val": 2590, " environment": 2591, " 2011": 2592, "Ph": 2593, " received": 2594, " expected": 2595, "ember": 2596, " Sm": 2597, " Par": 2598, "ends": 2599, "ude": 2600, " base": 2601, " created": 2602, " surpr": 2603, " anti": 2604, "ech": 2605, " July": 2606, "alt": 2607, "eter": 2608, " problems": 2609, "uel": 2610, " ways": 2611, "iple": 2612, " port": 2613, "action": 2614, " private": 2615, " Do": 2616, " scient": 2617, " increase": 2618, "ray": 2619, "reet": 2620, " announced": 2621, " comment": 2622, "isl": 2623, " cannot": 2624, " easy": 2625, "Al": 2626, " shot": 2627, " Congress": 2628, " questions": 2629, " En": 2630, "bit": 2631, " force": 2632, "aterial": 2633, " Pe": 2634, " impact": 2635, "hern": 2636, " et": 2637, " Mond": 2638, "ples": 2639, " pack": 2640, " +": 2641, " pur": 2642, " Facebook": 2643, " langu": 2644, "atives": 2645, " God": 2646, "ctor": 2647, " involved": 2648, "omb": 2649, "aving": 2650, "ills": 2651, "60": 2652, "lex": 2653, "hood": 2654, "onst": 2655, " Austral": 2656, " div": 2657, "uesday": 2658, " execut": 2659, " model": 2660, "itiz": 2661, " sen": 2662, " speak": 2663, " staff": 2664, " exact": 2665, " civil": 2666, "ires": 2667, " nearly": 2668, " type": 2669, "ourt": 2670, "okes": 2671, " original": 2672, " cases": 2673, " content": 2674, " 197": 2675, " relationship": 2676, " terror": 2677, " Google": 2678, "To": 2679, " leave": 2680, " Friday": 2681, " response": 2682, " capt": 2683, " inside": 2684, " <": 2685, " phot": 2686, "At": 2687, "lled": 2688, " fans": 2689, "llig": 2690, " April": 2691, " international": 2692, " coll": 2693, " heart": 2694, " average": 2695, "eed": 2696, " broad": 2697, " arrest": 2698, " users": 2699, " Count": 2700, "cast": 2701, " cal": 2702, "rel": 2703, " cell": 2704, " worth": 2705, " Em": 2706, " soft": 2707, " ur": 2708, " living": 2709, "bor": 2710, " Red": 2711, "ips": 2712, " nation": 2713, "ky": 2714, " killed": 2715, " reports": 2716, " 2010": 2717, "\u00e3\u0081": 2718, " becom": 2719, " source": 2720, " Monday": 2721, " Tuesday": 2722, " subject": 2723, " worked": 2724, "atural": 2725, "ests": 2726, " estab": 2727, " immedi": 2728, "EN": 2729, " respond": 2730, " global": 2731, " associ": 2732, "joy": 2733, "tember": 2734, " club": 2735, "ops": 2736, " Americans": 2737, "ael": 2738, " obs": 2739, "ites": 2740, " Per": 2741, " Pal": 2742, " chance": 2743, " oil": 2744, " Act": 2745, " ability": 2746, " takes": 2747, "rought": 2748, " weap": 2749, "hel": 2750, " price": 2751, " Japan": 2752, "ological": 2753, " director": 2754, "izing": 2755, " workers": 2756, " terms": 2757, " tou": 2758, " road": 2759, "mon": 2760, " published": 2761, " del": 2762, " While": 2763, " phone": 2764, "rain": 2765, " collect": 2766, " financial": 2767, " mid": 2768, "osition": 2769, " decided": 2770, "ises": 2771, "OR": 2772, " Russia": 2773, "ese": 2774, " Some": 2775, " mother": 2776, " squ": 2777, " Wed": 2778, " lack": 2779, " defin": 2780, "ovember": 2781, " 40": 2782, " girl": 2783, " store": 2784, " gave": 2785, " buy": 2786, " influ": 2787, " Calif": 2788, " log": 2789, " happened": 2790, " require": 2791, " Now": 2792, " emer": 2793, "ino": 2794, " fem": 2795, " San": 2796, "\".": 2797, " capital": 2798, "clus": 2799, " foreign": 2800, " currently": 2801, " Off": 2802, "based": 2803, " goes": 2804, " By": 2805, "oved": 2806, " Geor": 2807, "vertise": 2808, " situation": 2809, " Cor": 2810, " indic": 2811, " offer": 2812, " whose": 2813, " @": 2814, " tal": 2815, " material": 2816, " lives": 2817, " affect": 2818, "rown": 2819, "ought": 2820, " plans": 2821, "hem": 2822, "nesday": 2823, "unt": 2824, " arri": 2825, " bur": 2826, " member": 2827, " pict": 2828, "ursday": 2829, " Feb": 2830, " particip": 2831, "ruction": 2832, " recogn": 2833, " turned": 2834, " method": 2835, " events": 2836, " January": 2837, " Hill": 2838, " network": 2839, "One": 2840, "ctions": 2841, " teams": 2842, " Sund": 2843, "fully": 2844, " bank": 2845, " meeting": 2846, "40": 2847, " norm": 2848, " introdu": 2849, " simple": 2850, " Ag": 2851, " Islam": 2852, " ill": 2853, " huge": 2854, " September": 2855, " regard": 2856, " areas": 2857, " cy": 2858, " Me": 2859, "order": 2860, " TV": 2861, "bl": 2862, " couple": 2863, " approach": 2864, "aur": 2865, " career": 2866, " Afric": 2867, " Gl": 2868, "ttp": 2869, "load": 2870, "\",": 2871, " deli": 2872, "oud": 2873, " race": 2874, "ees": 2875, " performance": 2876, " page": 2877, "ety": 2878, "apt": 2879, " November": 2880, " tool": 2881, " David": 2882, " felt": 2883, " quickly": 2884, " mis": 2885, " numbers": 2886, "oor": 2887, " email": 2888, " El": 2889, " 21": 2890, "aily": 2891, " ord": 2892, "istan": 2893, " administration": 2894, " hon": 2895, " Wednesday": 2896, " victim": 2897, " Paul": 2898, " via": 2899, " improve": 2900, " engine": 2901, " text": 2902, "chie": 2903, " fre": 2904, " pull": 2905, " Ang": 2906, " round": 2907, " built": 2908, " 22": 2909, " pers": 2910, " European": 2911, " dig": 2912, " Thursday": 2913, " father": 2914, "ornia": 2915, " loss": 2916, "avy": 2917, " thous": 2918, "\u00c2\u00ad": 2919, "ructure": 2920, " production": 2921, " boy": 2922, "ume": 2923, "lin": 2924, " heard": 2925, "down": 2926, "Sh": 2927, " economy": 2928, "\u00e2\u0080\u009d.": 2929, " enjoy": 2930, " August": 2931, " trade": 2932, " Sch": 2933, "face": 2934, " website": 2935, "iment": 2936, " secret": 2937, " cover": 2938, " reveal": 2939, " wide": 2940, " board": 2941, " match": 2942, "AL": 2943, " allowed": 2944, " Court": 2945, " hands": 2946, " spent": 2947, " travel": 2948, " lower": 2949, " bi": 2950, " repe": 2951, "atory": 2952, " poll": 2953, " included": 2954, "cember": 2955, " ste": 2956, " October": 2957, " neigh": 2958, " legisl": 2959, "orters": 2960, "uses": 2961, " behav": 2962, "iction": 2963, " knew": 2964, " wants": 2965, " town": 2966, "ights": 2967, " British": 2968, " separ": 2969, " Ne": 2970, "ences": 2971, "estern": 2972, " visit": 2973, " Canada": 2974, "rect": 2975, "anks": 2976, "With": 2977, " perfect": 2978, " gets": 2979, "ession": 2980, " movement": 2981, " aren": 2982, "ishing": 2983, "raz": 2984, "ground": 2985, "agement": 2986, " tried": 2987, " cause": 2988, "?\u00e2\u0080\u009d": 2989, "gest": 2990, " }": 2991, " forces": 2992, " Sunday": 2993, " ens": 2994, "After": 2995, "force": 2996, "ceed": 2997, " attention": 2998, " particular": 2999, "urd": 3000, "][": 3001, " veh": 3002, " bud": 3003, " fear": 3004, " population": 3005, " various": 3006, "ened": 3007, " UK": 3008, " reach": 3009, " looks": 3010, " 23": 3011, " California": 3012, " brought": 3013, " vo": 3014, " Kore": 3015, " link": 3016, "ibly": 3017, ");": 3018, "arily": 3019, " IS": 3020, "200": 3021, " previous": 3022, "ED": 3023, " mention": 3024, " Russian": 3025, " morning": 3026, " Qu": 3027, "cle": 3028, "idered": 3029, " Sw": 3030, "'d": 3031, " fair": 3032, " growth": 3033, "aker": 3034, "undred": 3035, "99": 3036, "sequ": 3037, "yond": 3038, " progress": 3039, " fell": 3040, "alled": 3041, " song": 3042, "iam": 3043, "ening": 3044, "AC": 3045, " training": 3046, "hold": 3047, " size": 3048, "uk": 3049, " Black": 3050, "cies": 3051, " December": 3052, "idents": 3053, "field": 3054, "ledge": 3055, " Her": 3056, " contact": 3057, " hor": 3058, " demand": 3059, "While": 3060, " image": 3061, " rac": 3062, " hot": 3063, "ification": 3064, "OS": 3065, " leader": 3066, "ecause": 3067, " rules": 3068, " liber": 3069, " prep": 3070, " search": 3071, "ze": 3072, " ess": 3073, " Post": 3074, "set": 3075, " citiz": 3076, " upon": 3077, " strugg": 3078, " Street": 3079, " latest": 3080, "come": 3081, "ondon": 3082, " independ": 3083, "US": 3084, "uments": 3085, "inks": 3086, "arth": 3087, " features": 3088, " coach": 3089, " Park": 3090, "Tr": 3091, " fast": 3092, " talking": 3093, " Cont": 3094, " Jew": 3095, " addition": 3096, "ges": 3097, " star": 3098, " wond": 3099, " Senate": 3100, "oo": 3101, "IT": 3102, " Pat": 3103, " speed": 3104, " exam": 3105, "iant": 3106, " considered": 3107, "raq": 3108, "icles": 3109, "aries": 3110, " reb": 3111, "omp": 3112, " levels": 3113, "eth": 3114, " Times": 3115, " County": 3116, "lligence": 3117, " slow": 3118, " investigation": 3119, "bed": 3120, "ille": 3121, " conduct": 3122, "aph": 3123, " Party": 3124, "22": 3125, " King": 3126, " medical": 3127, " mach": 3128, " sn": 3129, "imately": 3130, "vent": 3131, " achie": 3132, " language": 3133, "aturday": 3134, " card": 3135, "unk": 3136, " critic": 3137, " sort": 3138, " Center": 3139, "ope": 3140, " Tex": 3141, " pen": 3142, " und": 3143, " India": 3144, " paper": 3145, "wo": 3146, "ysis": 3147, "IC": 3148, " 2008": 3149, "pir": 3150, " conserv": 3151, " parents": 3152, " sexual": 3153, "ma": 3154, " systems": 3155, " prior": 3156, "uit": 3157, "asc": 3158, "imin": 3159, " doll": 3160, " written": 3161, "uf": 3162, " box": 3163, " spokes": 3164, "igr": 3165, " seek": 3166, " sens": 3167, "eared": 3168, " document": 3169, "het": 3170, "idge": 3171, " increasing": 3172, " hear": 3173, "ani": 3174, "atform": 3175, " draw": 3176, " seven": 3177, " son": 3178, " Muslim": 3179, " effort": 3180, "ruary": 3181, " jobs": 3182, "sych": 3183, " Iran": 3184, " extreme": 3185, " prevent": 3186, " learn": 3187, "ining": 3188, " serious": 3189, " regul": 3190, " inn": 3191, " range": 3192, " ...": 3193, "room": 3194, "rast": 3195, " violence": 3196, " Mark": 3197, "80": 3198, "ources": 3199, " Iraq": 3200, "itch": 3201, "OP": 3202, " surve": 3203, " completely": 3204, " conc": 3205, " 2009": 3206, " message": 3207, "tr": 3208, "ico": 3209, "ha": 3210, " \u00e2": 3211, " obv": 3212, " interesting": 3213, "reedom": 3214, "She": 3215, " screen": 3216, "abor": 3217, " opportunity": 3218, "eff": 3219, " Char": 3220, " climate": 3221, "24": 3222, " majority": 3223, "anced": 3224, " particularly": 3225, " doub": 3226, " journal": 3227, " despite": 3228, " Rom": 3229, " claims": 3230, " Ke": 3231, " answer": 3232, " society": 3233, " London": 3234, " defense": 3235, " carry": 3236, "entially": 3237, "mp": 3238, "aming": 3239, " guy": 3240, " extra": 3241, "ension": 3242, " Donald": 3243, "isions": 3244, " attacks": 3245, " required": 3246, "erve": 3247, "rench": 3248, "illed": 3249, " biggest": 3250, "vertisement": 3251, " exactly": 3252, " East": 3253, " paid": 3254, " More": 3255, "ibr": 3256, "iers": 3257, " experien": 3258, "lying": 3259, "uclear": 3260, "inese": 3261, "isi": 3262, " modern": 3263, "fort": 3264, " remain": 3265, " quarter": 3266, " officers": 3267, " hundred": 3268, " cross": 3269, " except": 3270, " Net": 3271, "utions": 3272, "ari": 3273, " table": 3274, " practice": 3275, "inally": 3276, " natural": 3277, " middle": 3278, "erc": 3279, " 27": 3280, " certainly": 3281, "na": 3282, " dro": 3283, "oses": 3284, " Saturday": 3285, " stories": 3286, " histor": 3287, " gas": 3288, " products": 3289, " surv": 3290, " looked": 3291, " sometimes": 3292, "nces": 3293, " stuff": 3294, " science": 3295, " finally": 3296, " user": 3297, " Tur": 3298, "AM": 3299, " summer": 3300, " movie": 3301, " blood": 3302, "ospital": 3303, "aves": 3304, " communic": 3305, " aw": 3306, "ously": 3307, " lay": 3308, " changed": 3309, " term": 3310, " ones": 3311, " leading": 3312, " described": 3313, " Sand": 3314, " imag": 3315, " eight": 3316, " February": 3317, " prison": 3318, " convers": 3319, "fl": 3320, "ny": 3321, " details": 3322, "icks": 3323, " starting": 3324, " Spe": 3325, " quality": 3326, " occur": 3327, " pan": 3328, "hib": 3329, " showed": 3330, " named": 3331, " giving": 3332, " ult": 3333, " remains": 3334, " McC": 3335, "uing": 3336, " region": 3337, "pper": 3338, " provided": 3339, " costs": 3340, "akers": 3341, " Soc": 3342, "arr": 3343, " damage": 3344, " Mor": 3345, " mob": 3346, " danger": 3347, " fit": 3348, " TH": 3349, " chief": 3350, "aught": 3351, " poor": 3352, " path": 3353, "ida": 3354, " education": 3355, " multiple": 3356, " continued": 3357, "ett": 3358, "enge": 3359, " growing": 3360, "No": 3361, " demonst": 3362, " *": 3363, " parts": 3364, " 26": 3365, " writing": 3366, " comments": 3367, " 28": 3368, " ment": 3369, "yl": 3370, " maintain": 3371, " safe": 3372, " assist": 3373, " thinking": 3374, " Des": 3375, "inary": 3376, " Republicans": 3377, " Even": 3378, " purp": 3379, " request": 3380, " write": 3381, " fix": 3382, " item": 3383, " purch": 3384, " Coun": 3385, "ables": 3386, " died": 3387, " Democratic": 3388, "FL": 3389, "ara": 3390, "ago": 3391, "coin": 3392, " ready": 3393, " wouldn": 3394, " implement": 3395, "23": 3396, " increased": 3397, " culture": 3398, " efforts": 3399, " voters": 3400, "ux": 3401, " camer": 3402, " mill": 3403, "aly": 3404, "pre": 3405, "oper": 3406, " reading": 3407, "mitted": 3408, "iminal": 3409, " file": 3410, " usually": 3411, " calls": 3412, " spot": 3413, "Im": 3414, " effects": 3415, " Gener": 3416, "zz": 3417, "ban": 3418, " perhaps": 3419, "arian": 3420, " alone": 3421, "iles": 3422, " First": 3423, " Mon": 3424, " although": 3425, " towards": 3426, " League": 3427, " consist": 3428, "hest": 3429, " Bill": 3430, " Texas": 3431, " select": 3432, " guys": 3433, " standard": 3434, " Michael": 3435, " subst": 3436, " cele": 3437, " beyond": 3438, " directly": 3439, " platform": 3440, " Chinese": 3441, " (@": 3442, " hous": 3443, "using": 3444, "itute": 3445, " speech": 3446, "tered": 3447, " reality": 3448, "icated": 3449, " kids": 3450, " James": 3451, " avoid": 3452, " throughout": 3453, " football": 3454, " student": 3455, " tur": 3456, " couldn": 3457, "BI": 3458, "ford": 3459, " unf": 3460, " immediately": 3461, "oul": 3462, " rob": 3463, " includes": 3464, " cat": 3465, " concept": 3466, " center": 3467, " choice": 3468, " scene": 3469, " complex": 3470, "anch": 3471, " additional": 3472, "sp": 3473, " challeng": 3474, " Cons": 3475, " wife": 3476, " clos": 3477, "Re": 3478, " tro": 3479, " recomm": 3480, " researc": 3481, " epis": 3482, "itor": 3483, " ver": 3484, " Minister": 3485, " sle": 3486, "All": 3487, " corpor": 3488, " \u00e2\u0080\u00a6": 3489, " designed": 3490, " Ser": 3491, "agon": 3492, " remember": 3493, " software": 3494, " safety": 3495, " Indian": 3496, "wise": 3497, " gone": 3498, " il": 3499, "astic": 3500, "ports": 3501, " sell": 3502, " toward": 3503, " agency": 3504, " ten": 3505, " officer": 3506, "aches": 3507, "bur": 3508, " figure": 3509, " piece": 3510, " brain": 3511, "omen": 3512, " battle": 3513, " Jack": 3514, " counter": 3515, "men": 3516, " debate": 3517, "airs": 3518, "ression": 3519, "ston": 3520, " thousands": 3521, "adem": 3522, "rupt": 3523, "ingin": 3524, " ahead": 3525, " opin": 3526, "icient": 3527, "Now": 3528, "imum": 3529, " relative": 3530, "irth": 3531, " letter": 3532, " receive": 3533, " pressure": 3534, " \u00d0": 3535, " blog": 3536, "oes": 3537, "ilies": 3538, "ampions": 3539, " >": 3540, " sil": 3541, " moved": 3542, " launch": 3543, " appears": 3544, " option": 3545, " Play": 3546, " passed": 3547, " ut": 3548, " clean": 3549, " prec": 3550, " stage": 3551, "roy": 3552, " 60": 3553, " Bo": 3554, " Serv": 3555, "olute": 3556, " II": 3557, "atever": 3558, "berg": 3559, "OT": 3560, " property": 3561, "27": 3562, " helped": 3563, " drive": 3564, " Apple": 3565, "just": 3566, " alleged": 3567, " Green": 3568, " twe": 3569, "new": 3570, " disapp": 3571, " tour": 3572, " meaning": 3573, " rock": 3574, " dog": 3575, " x": 3576, "itation": 3577, "urt": 3578, " cris": 3579, " Associ": 3580, " suspect": 3581, " date": 3582, " Rich": 3583, "aughter": 3584, " moving": 3585, " score": 3586, " Democrats": 3587, " organization": 3588, " sat": 3589, " conditions": 3590, " touch": 3591, " dark": 3592, " command": 3593, " Then": 3594, " ign": 3595, "?\"": 3596, " reasons": 3597, " budget": 3598, " crow": 3599, " park": 3600, "more": 3601, " nuclear": 3602, " myself": 3603, " nom": 3604, " deg": 3605, " happy": 3606, " device": 3607, " difference": 3608, "rief": 3609, " Sim": 3610, " maybe": 3611, " beginning": 3612, "AD": 3613, " copy": 3614, " nature": 3615, " failed": 3616, " fan": 3617, "wood": 3618, "yan": 3619, " characters": 3620, " cast": 3621, " computer": 3622, " encour": 3623, "sis": 3624, " aim": 3625, " title": 3626, " wall": 3627, " compared": 3628, " league": 3629, "ocked": 3630, " Super": 3631, "ivity": 3632, " estim": 3633, "add": 3634, " Val": 3635, " Star": 3636, " college": 3637, "ean": 3638, " eyes": 3639, " shown": 3640, " English": 3641, " century": 3642, " powerful": 3643, " Day": 3644, "lease": 3645, "ource": 3646, " bal": 3647, "aint": 3648, " limited": 3649, " yes": 3650, " band": 3651, " contribut": 3652, " positive": 3653, " forced": 3654, " necessary": 3655, " Che": 3656, " refer": 3657, " candidate": 3658, " stra": 3659, " disp": 3660, "35": 3661, "cient": 3662, " books": 3663, " trust": 3664, "AP": 3665, " French": 3666, " largest": 3667, "26": 3668, " arch": 3669, "enty": 3670, " sal": 3671, " Here": 3672, " conference": 3673, "aud": 3674, " Rober": 3675, " note": 3676, " analysis": 3677, "ufact": 3678, " spending": 3679, " presidential": 3680, "45": 3681, " Of": 3682, " citizens": 3683, "orks": 3684, " schools": 3685, " Mart": 3686, "igration": 3687, " Syria": 3688, " throw": 3689, " Ben": 3690, "venue": 3691, " aware": 3692, " meant": 3693, " executive": 3694, " eventually": 3695, "My": 3696, " physical": 3697, " followed": 3698, " feature": 3699, "ares": 3700, " firm": 3701, " Tor": 3702, " treatment": 3703, " Wind": 3704, " Air": 3705, " streng": 3706, " mix": 3707, " confir": 3708, " bott": 3709, "ero": 3710, "orney": 3711, " 29": 3712, " Dis": 3713, " grad": 3714, " religious": 3715, " easily": 3716, "band": 3717, " autom": 3718, "board": 3719, " esc": 3720, " pus": 3721, " cool": 3722, "etro": 3723, " 196": 3724, " families": 3725, " illeg": 3726, "ressed": 3727, "craft": 3728, "cul": 3729, "rated": 3730, " actions": 3731, " overall": 3732, " Mex": 3733, " allows": 3734, " gives": 3735, " feed": 3736, " \u00c2\u00a3": 3737, "):": 3738, " susp": 3739, "ube": 3740, " yourself": 3741, "By": 3742, "Is": 3743, " draft": 3744, "ken": 3745, "bum": 3746, " appeared": 3747, "ram": 3748, " smart": 3749, " detail": 3750, " income": 3751, "iring": 3752, " analy": 3753, " Bel": 3754, " signed": 3755, "New": 3756, "encies": 3757, " Ham": 3758, " central": 3759, " ideas": 3760, " ang": 3761, " Govern": 3762, " senior": 3763, "Advertisement": 3764, " frequ": 3765, " weapons": 3766, " har": 3767, "ID": 3768, " display": 3769, " promot": 3770, " nice": 3771, "inn": 3772, " credit": 3773, " decades": 3774, " psych": 3775, " politics": 3776, "Don": 3777, " crime": 3778, "OM": 3779, "chan": 3780, "EC": 3781, " uses": 3782, " door": 3783, " dise": 3784, "uty": 3785, " International": 3786, " unique": 3787, "28": 3788, " swe": 3789, " altern": 3790, " lif": 3791, "According": 3792, " drop": 3793, " sales": 3794, "mar": 3795, " developed": 3796, "***": 3797, "resh": 3798, " customers": 3799, "ET": 3800, " benefits": 3801, " conflic": 3802, "urance": 3803, "Ar": 3804, " related": 3805, " crisis": 3806, " School": 3807, " mist": 3808, "erry": 3809, "iable": 3810, " predict": 3811, " noted": 3812, " Cap": 3813, "29": 3814, " Australia": 3815, " EU": 3816, "box": 3817, " truth": 3818, " goals": 3819, "iny": 3820, " individuals": 3821, " charge": 3822, " Earth": 3823, "part": 3824, " beaut": 3825, " continues": 3826, "onents": 3827, " Union": 3828, " Arab": 3829, " observ": 3830, " rap": 3831, " challenge": 3832, "que": 3833, " sto": 3834, "nown": 3835, " apparent": 3836, " Angel": 3837, "Be": 3838, "itely": 3839, " Smith": 3840, " lic": 3841, " projects": 3842, " peace": 3843, " measure": 3844, " Police": 3845, " correct": 3846, "oti": 3847, " intelligence": 3848, " Christian": 3849, " previously": 3850, " Germany": 3851, " fully": 3852, " rule": 3853, " manager": 3854, " brother": 3855, " rates": 3856, " advant": 3857, "change": 3858, " expand": 3859, " clearly": 3860, " reform": 3861, " lines": 3862, "net": 3863, " successful": 3864, "riage": 3865, " highly": 3866, " larger": 3867, "ounds": 3868, " traff": 3869, "Un": 3870, " spread": 3871, "iance": 3872, " seemed": 3873, " Council": 3874, " straight": 3875, "Some": 3876, " Comp": 3877, " criminal": 3878, " minor": 3879, " emb": 3880, " George": 3881, " programs": 3882, "iced": 3883, "attle": 3884, "owers": 3885, " Franc": 3886, " incident": 3887, " resources": 3888, "21": 3889, " Tom": 3890, " greater": 3891, " primary": 3892, "IA": 3893, "inated": 3894, "antly": 3895, " knowledge": 3896, "ki": 3897, " studies": 3898, "while": 3899, "dom": 3900, " save": 3901, "orter": 3902, " web": 3903, "ategy": 3904, " kept": 3905, " attract": 3906, " Flor": 3907, "olic": 3908, " spir": 3909, " emot": 3910, " color": 3911, " feet": 3912, "sey": 3913, " rare": 3914, " reached": 3915, " arm": 3916, "secut": 3917, " High": 3918, "levision": 3919, " Internet": 3920, " Brown": 3921, "oday": 3922, "iders": 3923, "osh": 3924, "rs": 3925, " favorite": 3926, " places": 3927, " Cr": 3928, " Rec": 3929, " regular": 3930, "wide": 3931, "ota": 3932, "bon": 3933, " manufact": 3934, " laun": 3935, " Def": 3936, "100": 3937, " send": 3938, "term": 3939, " prem": 3940, "roll": 3941, "lick": 3942, "icit": 3943, "ingly": 3944, " knows": 3945, " shooting": 3946, " activity": 3947, " pun": 3948, " sources": 3949, " normal": 3950, "icago": 3951, "onent": 3952, "ser": 3953, " Ant": 3954, "ville": 3955, " status": 3956, " fighting": 3957, " voice": 3958, " rise": 3959, "ocks": 3960, " fine": 3961, " owners": 3962, " caused": 3963, " claimed": 3964, " Mac": 3965, " enem": 3966, " liter": 3967, " Rob": 3968, " General": 3969, "aith": 3970, "EO": 3971, " options": 3972, " 2007": 3973, " integr": 3974, "ength": 3975, " Up": 3976, "usion": 3977, " spend": 3978, " Gold": 3979, "ado": 3980, " cities": 3981, "miss": 3982, " organiz": 3983, "ING": 3984, " ended": 3985, "www": 3986, " researchers": 3987, "iled": 3988, " calling": 3989, " shut": 3990, " reflect": 3991, " La": 3992, "org": 3993, "mission": 3994, "Pro": 3995, "mark": 3996, "\u00e2\u0080\u009d,": 3997, "oles": 3998, "70": 3999, "roid": 4000, " prices": 4001, " Every": 4002, " album": 4003, " From": 4004, "ifying": 4005, " employees": 4006, " female": 4007, " England": 4008, "ya": 4009, " virt": 4010, " crowd": 4011, " haven": 4012, " ele": 4013, " raised": 4014, "mittee": 4015, "uana": 4016, " jump": 4017, "33": 4018, " supposed": 4019, "itness": 4020, " happens": 4021, " adding": 4022, " policies": 4023, " names": 4024, " charges": 4025, " pros": 4026, " trou": 4027, "ribution": 4028, "ica": 4029, "uman": 4030, " basic": 4031, "Not": 4032, "iverse": 4033, "inger": 4034, " Mag": 4035, " concerns": 4036, " traditional": 4037, " Bre": 4038, " wait": 4039, " absolute": 4040, " acqu": 4041, " plant": 4042, " hospital": 4043, " funding": 4044, " Bay": 4045, " slight": 4046, "rol": 4047, " commer": 4048, " print": 4049, " patients": 4050, "Sc": 4051, " authorities": 4052, " minister": 4053, "vere": 4054, " creating": 4055, " http": 4056, " freedom": 4057, " AP": 4058, " mechan": 4059, " scen": 4060, " Mo": 4061, " style": 4062, " seeing": 4063, " grand": 4064, ".\u00e2\u0080\u0099": 4065, " beat": 4066, " lik": 4067, "dd": 4068, "rian": 4069, "ona": 4070, " station": 4071, " Scott": 4072, "see": 4073, " push": 4074, "ijuana": 4075, " behavior": 4076, " leaving": 4077, " cry": 4078, " impl": 4079, " birth": 4080, " ir": 4081, " actual": 4082, "pen": 4083, "EL": 4084, " ensure": 4085, " offered": 4086, " agreement": 4087, " Florida": 4088, " eth": 4089, " Ber": 4090, "soft": 4091, " Hillary": 4092, " posted": 4093, " Reg": 4094, " gold": 4095, " Sun": 4096, " weekend": 4097, " green": 4098, " Most": 4099, "alse": 4100, " weight": 4101, "OU": 4102, ".'": 4103, "acing": 4104, " determin": 4105, " vac": 4106, "Here": 4107, " revealed": 4108, " Well": 4109, " application": 4110, " mostly": 4111, " values": 4112, " propos": 4113, "itude": 4114, " Alex": 4115, "aby": 4116, " willing": 4117, "earch": 4118, " rank": 4119, " adop": 4120, " According": 4121, " adult": 4122, "ttps": 4123, " establ": 4124, " eye": 4125, " records": 4126, "amb": 4127, "\u00e2\u0080\u00a2": 4128, "500": 4129, " enforce": 4130, " picture": 4131, " believed": 4132, " Let": 4133, " mer": 4134, "pri": 4135, "uild": 4136, " brief": 4137, " learned": 4138, " Law": 4139, " install": 4140, "gen": 4141, " strategy": 4142, " appl": 4143, "igned": 4144, " choose": 4145, "istry": 4146, "SA": 4147, " dire": 4148, " wonder": 4149, " qual": 4150, " massive": 4151, "cher": 4152, " devices": 4153, " benefit": 4154, " wild": 4155, " parties": 4156, " Chicago": 4157, " lawy": 4158, " uns": 4159, " People": 4160, " cars": 4161, " Trans": 4162, " Phil": 4163, " arrested": 4164, " Mat": 4165, " mount": 4166, " whatever": 4167, " wat": 4168, " Oh": 4169, " France": 4170, " street": 4171, " ;": 4172, " provides": 4173, " whom": 4174, " assault": 4175, "90": 4176, "ties": 4177, "liament": 4178, " asking": 4179, " influence": 4180, " judge": 4181, " lose": 4182, " fat": 4183, " feeling": 4184, " operations": 4185, " produced": 4186, " temper": 4187, "cont": 4188, "ste": 4189, " critical": 4190, " Lou": 4191, " Secret": 4192, " negoti": 4193, " mission": 4194, " enter": 4195, " Bush": 4196, "Ex": 4197, " images": 4198, "\u00d0\u00be": 4199, " Stud": 4200, " confirmed": 4201, "point": 4202, " showing": 4203, "IL": 4204, " Port": 4205, " district": 4206, "ription": 4207, " runs": 4208, " pattern": 4209, " tend": 4210, "===": 4211, " border": 4212, " residents": 4213, "orial": 4214, "rav": 4215, " debt": 4216, "However": 4217, " \u00c3": 4218, "aked": 4219, " cru": 4220, " teac": 4221, " Committee": 4222, "mine": 4223, "Cl": 4224, " opposition": 4225, " celebr": 4226, " Wall": 4227, " Health": 4228, " section": 4229, " defend": 4230, " etc": 4231, "estic": 4232, " produce": 4233, "icial": 4234, " Inte": 4235, " Commission": 4236, " drink": 4237, " independent": 4238, " Mod": 4239, "ront": 4240, "cell": 4241, " Why": 4242, " brand": 4243, "ented": 4244, "ugg": 4245, "ags": 4246, " core": 4247, " Press": 4248, " tick": 4249, " digital": 4250, " Bit": 4251, " hero": 4252, " advoc": 4253, " dollars": 4254, "ae": 4255, " Sam": 4256, "ocr": 4257, "rial": 4258, " effective": 4259, " solution": 4260, " Mal": 4261, " vill": 4262, " interested": 4263, " Korea": 4264, "BA": 4265, " highest": 4266, "irg": 4267, "ords": 4268, " memory": 4269, " opening": 4270, " worse": 4271, " learning": 4272, " responsible": 4273, " trial": 4274, " daily": 4275, " kick": 4276, " theory": 4277, " Other": 4278, " offers": 4279, " Palest": 4280, "me": 4281, " replace": 4282, " restrict": 4283, " Get": 4284, " mur": 4285, " Office": 4286, " agreed": 4287, " television": 4288, " Francis": 4289, "cience": 4290, " Micro": 4291, " Because": 4292, " occas": 4293, "ST": 4294, "illing": 4295, "CC": 4296, " vs": 4297, " detect": 4298, " train": 4299, "aste": 4300, " investment": 4301, " types": 4302, "iation": 4303, " Western": 4304, "icians": 4305, " chair": 4306, "aks": 4307, " miles": 4308, " millions": 4309, "Con": 4310, "no": 4311, "gency": 4312, " chem": 4313, " Justice": 4314, " Del": 4315, " generally": 4316, " basis": 4317, " proposed": 4318, " 80": 4319, " Mike": 4320, " Mil": 4321, " Cup": 4322, "These": 4323, "ipe": 4324, " heavy": 4325, " explained": 4326, " Our": 4327, " map": 4328, "uries": 4329, "AA": 4330, "rad": 4331, " der": 4332, "oly": 4333, " partners": 4334, "ander": 4335, " opinion": 4336, " defe": 4337, " onto": 4338, " protest": 4339, "Get": 4340, " associated": 4341, " load": 4342, "rig": 4343, "azing": 4344, " NFL": 4345, "win": 4346, "rate": 4347, "oom": 4348, "44": 4349, " Found": 4350, " male": 4351, " becomes": 4352, " reject": 4353, "vest": 4354, "outhern": 4355, " Security": 4356, " coal": 4357, " obtain": 4358, " destroy": 4359, " advantage": 4360, " assum": 4361, " Liber": 4362, " condition": 4363, " announce": 4364, " hundreds": 4365, "ading": 4366, " achieve": 4367, " opened": 4368, "eline": 4369, " understanding": 4370, "odes": 4371, " Johnson": 4372, "coming": 4373, "icip": 4374, " surround": 4375, "well": 4376, "orthern": 4377, "bert": 4378, "upp": 4379, " initial": 4380, " Big": 4381, " sleep": 4382, "36": 4383, " ship": 4384, "rey": 4385, " marriage": 4386, " management": 4387, " Windows": 4388, " thus": 4389, " limit": 4390, " born": 4391, " becoming": 4392, "known": 4393, " photo": 4394, " easier": 4395, "FC": 4396, " Great": 4397, " rat": 4398, " legislation": 4399, " controvers": 4400, " unlike": 4401, " electric": 4402, " Many": 4403, "32": 4404, " camera": 4405, " Mad": 4406, "witch": 4407, " accused": 4408, " spl": 4409, " neighbor": 4410, " double": 4411, " ice": 4412, " species": 4413, " shared": 4414, " join": 4415, " illegal": 4416, " 31": 4417, " Lab": 4418, " 2006": 4419, "Mr": 4420, " machine": 4421, " harm": 4422, " served": 4423, " Jer": 4424, "GB": 4425, " extremely": 4426, "olf": 4427, " active": 4428, " 35": 4429, " serve": 4430, " documents": 4431, " Islamic": 4432, " frame": 4433, " strik": 4434, "level": 4435, "za": 4436, " Dist": 4437, " audience": 4438, "BS": 4439, " location": 4440, "lant": 4441, " AM": 4442, " scientists": 4443, " bottom": 4444, "orrow": 4445, " victims": 4446, " wealth": 4447, " professional": 4448, " resist": 4449, " reduce": 4450, " belief": 4451, " nine": 4452, " solid": 4453, " winning": 4454, " marijuana": 4455, " Uk": 4456, " negative": 4457, "75": 4458, "ih": 4459, "iful": 4460, "lands": 4461, " communities": 4462, " returned": 4463, "ortunately": 4464, "ears": 4465, " incred": 4466, " PM": 4467, " Institute": 4468, "met": 4469, " church": 4470, "PS": 4471, " department": 4472, " Sanders": 4473, " ran": 4474, " victory": 4475, " purpose": 4476, " 90": 4477, " Commun": 4478, " amb": 4479, " vehicle": 4480, " internet": 4481, " leadership": 4482, " Hall": 4483, "istics": 4484, " bomb": 4485, " mobile": 4486, "ios": 4487, "ghan": 4488, " instance": 4489, "ipped": 4490, "38": 4491, " separate": 4492, " existing": 4493, " notice": 4494, " hearing": 4495, " die": 4496, " explain": 4497, " doubt": 4498, " faith": 4499, " teach": 4500, "house": 4501, " Your": 4502, "atically": 4503, " episode": 4504, " bed": 4505, " watching": 4506, " comfort": 4507, " Canadian": 4508, " Fin": 4509, " Bank": 4510, " notes": 4511, "aran": 4512, " Att": 4513, "irgin": 4514, " Ev": 4515, " fresh": 4516, " unc": 4517, " radio": 4518, " Inc": 4519, " views": 4520, " putting": 4521, "asy": 4522, " Sl": 4523, " supporters": 4524, " conservative": 4525, " purs": 4526, " argument": 4527, "omas": 4528, " Fox": 4529, " micro": 4530, "ario": 4531, "acity": 4532, " launched": 4533, "works": 4534, "scrib": 4535, "OL": 4536, " appeal": 4537, "iliar": 4538, " items": 4539, " committee": 4540, " Art": 4541, "resp": 4542, "which": 4543, " definitely": 4544, "ada": 4545, " dangerous": 4546, "iller": 4547, "zen": 4548, " coverage": 4549, " direction": 4550, " Over": 4551, " sun": 4552, " charged": 4553, " floor": 4554, "PA": 4555, " max": 4556, "ography": 4557, "34": 4558, "EM": 4559, " Carol": 4560, " Church": 4561, " issued": 4562, " drugs": 4563, "Image": 4564, " task": 4565, "ipp": 4566, " background": 4567, " competition": 4568, " trend": 4569, " stated": 4570, "vention": 4571, "andom": 4572, " traffic": 4573, " FBI": 4574, " commercial": 4575, " Direct": 4576, " spoke": 4577, "inct": 4578, " transfer": 4579, "ctors": 4580, " suggested": 4581, " structure": 4582, " sett": 4583, "ady": 4584, " sites": 4585, " hus": 4586, " north": 4587, " Since": 4588, " Like": 4589, " restaur": 4590, "ampionship": 4591, " labor": 4592, " decade": 4593, " Bur": 4594, " repeated": 4595, " Game": 4596, "gers": 4597, " react": 4598, "oman": 4599, " cards": 4600, " animals": 4601, "going": 4602, " novel": 4603, "bing": 4604, "but": 4605, "NA": 4606, "ribute": 4607, " daughter": 4608, "anted": 4609, " driving": 4610, " closed": 4611, " worst": 4612, " contain": 4613, " entirely": 4614, " ded": 4615, " Britain": 4616, "ici": 4617, "Bl": 4618, " driver": 4619, " Wil": 4620, " disease": 4621, " nor": 4622, " telling": 4623, "iling": 4624, " smaller": 4625, " discovered": 4626, "akistan": 4627, " Pri": 4628, "Americ": 4629, "ait": 4630, " Los": 4631, " hack": 4632, "!\u00e2\u0080\u009d": 4633, "equ": 4634, "ference": 4635, " Que": 4636, "spe": 4637, " false": 4638, " cash": 4639, " concerned": 4640, "ulf": 4641, " plays": 4642, " surface": 4643, "semb": 4644, "udd": 4645, "annel": 4646, " supported": 4647, "ulated": 4648, " tools": 4649, " compar": 4650, "oyal": 4651, " Chris": 4652, " experiment": 4653, " finding": 4654, " transport": 4655, "night": 4656, " categ": 4657, "\u00e3\u0082": 4658, " aspect": 4659, "##": 4660, " businesses": 4661, " 70": 4662, " UN": 4663, " farm": 4664, " please": 4665, " older": 4666, "azon": 4667, "phone": 4668, "how": 4669, " activities": 4670, " requires": 4671, "itt": 4672, "CH": 4673, " gay": 4674, " Jones": 4675, " ge": 4676, "ibrary": 4677, " strength": 4678, " wel": 4679, "48": 4680, "andon": 4681, "do": 4682, " insurance": 4683, " consequ": 4684, "37": 4685, " largely": 4686, " murder": 4687, "NN": 4688, "55": 4689, " exerc": 4690, " caught": 4691, " candidates": 4692, "kins": 4693, " Israeli": 4694, " allowing": 4695, "icy": 4696, " blue": 4697, " Are": 4698, " annual": 4699, " Ken": 4700, " testing": 4701, "ossible": 4702, " strateg": 4703, " Sup": 4704, "ius": 4705, " raise": 4706, " stock": 4707, "overy": 4708, " Robert": 4709, "izes": 4710, " decisions": 4711, " accur": 4712, "rick": 4713, " context": 4714, "lor": 4715, " fuel": 4716, " Ac": 4717, "SP": 4718, "osure": 4719, " Ukrain": 4720, " concern": 4721, " afford": 4722, " believes": 4723, " construction": 4724, " truly": 4725, " tim": 4726, " Ty": 4727, " Miss": 4728, " justice": 4729, "igrants": 4730, " generation": 4731, " highlight": 4732, "rim": 4733, " unit": 4734, " Tre": 4735, " presence": 4736, " Jewish": 4737, "anging": 4738, "!!": 4739, " Sil": 4740, "\u00d0\u00b0": 4741, "tery": 4742, "\u00d0\u00b5": 4743, "ception": 4744, " Africa": 4745, " guess": 4746, "ancy": 4747, " witness": 4748, "itable": 4749, " holding": 4750, " Gree": 4751, " establish": 4752, " length": 4753, " planning": 4754, "ava": 4755, " African": 4756, " sequ": 4757, "cknow": 4758, " san": 4759, " refuge": 4760, " placed": 4761, " catch": 4762, " Afghan": 4763, " Association": 4764, " tells": 4765, "\u00e2\u0080\u0098": 4766, "inter": 4767, " scale": 4768, "bre": 4769, " spokesman": 4770, "nel": 4771, "Le": 4772, " rough": 4773, " attend": 4774, "olly": 4775, " Ver": 4776, " cells": 4777, " joined": 4778, " Add": 4779, " mentioned": 4780, " interests": 4781, " abuse": 4782, "\u00e2\u0080\u0094\u00e2\u0080": 4783, "pective": 4784, " Jim": 4785, "More": 4786, " hasn": 4787, " PC": 4788, " initi": 4789, " kid": 4790, " enforcement": 4791, "la": 4792, " GOP": 4793, " introduced": 4794, " deliver": 4795, " conflict": 4796, " Pre": 4797, " Mer": 4798, " rout": 4799, " Microsoft": 4800, "\u0094\u00e2\u0080\u0094": 4801, " phil": 4802, " update": 4803, " missing": 4804, " providing": 4805, " waiting": 4806, "ey": 4807, " cancer": 4808, "39": 4809, " recommend": 4810, "ocracy": 4811, " established": 4812, "bour": 4813, "isation": 4814, " eat": 4815, " Yes": 4816, " occup": 4817, " Frank": 4818, " Jeff": 4819, " Angeles": 4820, " removed": 4821, " 2005": 4822, "ula": 4823, " offensive": 4824, " Fore": 4825, " Instead": 4826, "icon": 4827, " injury": 4828, " sports": 4829, "47": 4830, " fant": 4831, " discussion": 4832, "lig": 4833, " operation": 4834, " download": 4835, " useful": 4836, " newsp": 4837, " conversation": 4838, " homes": 4839, "ronic": 4840, " south": 4841, " cook": 4842, " CEO": 4843, " assess": 4844, "itz": 4845, " Group": 4846, "formation": 4847, " banks": 4848, "onto": 4849, " stopped": 4850, " Const": 4851, " obvious": 4852, "ications": 4853, " measures": 4854, " models": 4855, " Kh": 4856, " fourth": 4857, " MP": 4858, "Our": 4859, "season": 4860, "what": 4861, " bul": 4862, "DA": 4863, " 2018": 4864, "anda": 4865, " files": 4866, " girls": 4867, " Louis": 4868, " stick": 4869, "cks": 4870, "vant": 4871, "azine": 4872, "mail": 4873, "umn": 4874, " managed": 4875, "iter": 4876, "apped": 4877, "oted": 4878, " Tim": 4879, " figures": 4880, "oms": 4881, " Leg": 4882, "Pl": 4883, " identified": 4884, " graph": 4885, " Jud": 4886, " Sal": 4887, " finished": 4888, "igan": 4889, " funds": 4890, "real": 4891, " Pakistan": 4892, " setting": 4893, " conclud": 4894, " prefer": 4895, " hair": 4896, " committed": 4897, " Mexico": 4898, "49": 4899, " skills": 4900, " appropri": 4901, " spirit": 4902, " Rock": 4903, " veter": 4904, " focused": 4905, " arrived": 4906, " THE": 4907, " housing": 4908, "ros": 4909, " keeping": 4910, " therefore": 4911, " acknow": 4912, "ulate": 4913, "Des": 4914, " partner": 4915, " exclus": 4916, " Android": 4917, "kin": 4918, "enses": 4919, "ups": 4920, "rd": 4921, " earth": 4922, " transl": 4923, "place": 4924, " tough": 4925, "outs": 4926, " Japanese": 4927, " 2000": 4928, " relatively": 4929, "\u00c3\u00a1": 4930, " Supreme": 4931, "owl": 4932, "wing": 4933, "gl": 4934, " identity": 4935, " feels": 4936, " Met": 4937, " otherwise": 4938, " survey": 4939, " Ryan": 4940, "ocal": 4941, "RA": 4942, "ication": 4943, "itutional": 4944, " protection": 4945, " exchange": 4946, " owner": 4947, " Virgin": 4948, "isf": 4949, "Trump": 4950, " trip": 4951, " steps": 4952, " husband": 4953, " Inter": 4954, "agn": 4955, " tweet": 4956, " connection": 4957, " Army": 4958, " slightly": 4959, " Prof": 4960, "erences": 4961, "eah": 4962, " Sur": 4963, " weak": 4964, " Government": 4965, "verse": 4966, "\":": 4967, " circum": 4968, " elements": 4969, " click": 4970, " Richard": 4971, " strike": 4972, " photos": 4973, " mere": 4974, " defensive": 4975, " Nor": 4976, "dden": 4977, " gain": 4978, " fle": 4979, "gar": 4980, " depend": 4981, "ucky": 4982, " collection": 4983, "onym": 4984, " killing": 4985, " roll": 4986, "ighter": 4987, "hens": 4988, "Go": 4989, " corner": 4990, "ka": 4991, "ancing": 4992, "odies": 4993, " suggests": 4994, "uct": 4995, " aggress": 4996, "with": 4997, "prof": 4998, " guard": 4999, "Photo": 5000, " gender": 5001, "makers": 5002, " College": 5003, " commission": 5004, " Although": 5005, "range": 5006, " dat": 5007, "46": 5008, " Ir": 5009, " Dec": 5010, " mental": 5011, "icide": 5012, "rees": 5013, " amazing": 5014, " Sub": 5015, "hi": 5016, " planet": 5017, " Team": 5018, "rency": 5019, " Out": 5020, " bigger": 5021, " failure": 5022, " Jose": 5023, " supply": 5024, "Why": 5025, "ania": 5026, " starts": 5027, " sides": 5028, "hedul": 5029, "iser": 5030, " familiar": 5031, " remind": 5032, " sust": 5033, "ym": 5034, "ils": 5035, " spect": 5036, "uate": 5037, " speaking": 5038, " talks": 5039, " happening": 5040, " organizations": 5041, " hate": 5042, "gypt": 5043, " window": 5044, " army": 5045, " Good": 5046, " Joe": 5047, " none": 5048, "uke": 5049, " Pet": 5050, " taxes": 5051, " planned": 5052, " Martin": 5053, " thanks": 5054, "mas": 5055, " Mary": 5056, " struct": 5057, " pit": 5058, " decide": 5059, " sudden": 5060, " wish": 5061, " crew": 5062, " carried": 5063, " Mont": 5064, "oston": 5065, " pet": 5066, "awn": 5067, "agues": 5068, "ynam": 5069, " regist": 5070, "TC": 5071, " multi": 5072, "idering": 5073, " helping": 5074, "ano": 5075, "Last": 5076, " award": 5077, " standards": 5078, " 32": 5079, " Fire": 5080, " revolution": 5081, " environmental": 5082, "].": 5083, " Web": 5084, "pm": 5085, "arsh": 5086, " Thomas": 5087, "olit": 5088, " script": 5089, "ola": 5090, " seconds": 5091, "run": 5092, " Research": 5093, "gn": 5094, " scientific": 5095, " immigration": 5096, " Bern": 5097, " standing": 5098, " Their": 5099, " 45": 5100, "stream": 5101, "ocol": 5102, " que": 5103, " beer": 5104, " domestic": 5105, "imal": 5106, "adium": 5107, " pair": 5108, "uters": 5109, " Also": 5110, " Secretary": 5111, " Us": 5112, " academ": 5113, "fe": 5114, " cold": 5115, " variety": 5116, " markets": 5117, "aven": 5118, " sch": 5119, "HL": 5120, " territ": 5121, " dropped": 5122, " accounts": 5123, "!\"": 5124, " filed": 5125, "erous": 5126, "acks": 5127, "illa": 5128, " balance": 5129, "eless": 5130, " impossible": 5131, " Ter": 5132, " interact": 5133, " rou": 5134, " neighborhood": 5135, "lo": 5136, " degree": 5137, "Read": 5138, " Atlant": 5139, " turns": 5140, "itect": 5141, " possibly": 5142, " appre": 5143, " operating": 5144, " princ": 5145, " alternative": 5146, "aren": 5147, " union": 5148, " votes": 5149, " vul": 5150, "ader": 5151, " professor": 5152, " tack": 5153, " Service": 5154, " increasingly": 5155, "ayer": 5156, "ruit": 5157, " apply": 5158, " fellow": 5159, " cuts": 5160, "ores": 5161, " honest": 5162, " univers": 5163, " Prime": 5164, " server": 5165, " developers": 5166, "arks": 5167, " Syrian": 5168, " apparently": 5169, "vis": 5170, "stein": 5171, " lived": 5172, " changing": 5173, " worry": 5174, "rastructure": 5175, " Carolina": 5176, " tests": 5177, " units": 5178, " rich": 5179, " Two": 5180, "cious": 5181, "icted": 5182, "From": 5183, "aded": 5184, " humans": 5185, "IM": 5186, " Foundation": 5187, " Mos": 5188, " agencies": 5189, " sounds": 5190, "ashed": 5191, " twice": 5192, " ultimately": 5193, "obby": 5194, " losing": 5195, " philos": 5196, " authority": 5197, " soldiers": 5198, "\u00e3\u0083": 5199, " animal": 5200, " ath": 5201, " Images": 5202, " settle": 5203, " schedul": 5204, " mut": 5205, " colle": 5206, " corporate": 5207, " absolutely": 5208, " healthy": 5209, " paying": 5210, "och": 5211, " equip": 5212, "gu": 5213, "iams": 5214, " developing": 5215, " sea": 5216, " closer": 5217, " Den": 5218, " innov": 5219, " Time": 5220, "related": 5221, " seeking": 5222, " regarding": 5223, "coh": 5224, " skin": 5225, " expensive": 5226, "ansion": 5227, " possibility": 5228, " beautiful": 5229, " religion": 5230, " Central": 5231, " apart": 5232, " fundament": 5233, " experts": 5234, " solar": 5235, "65": 5236, " yards": 5237, " writer": 5238, " flight": 5239, " vast": 5240, " District": 5241, " Last": 5242, " deploy": 5243, " adjust": 5244, "Of": 5245, " internal": 5246, " Under": 5247, " Lat": 5248, " Peter": 5249, " Plan": 5250, "apers": 5251, " imagine": 5252, " Jon": 5253, "IV": 5254, " applications": 5255, "ologies": 5256, "31": 5257, " vision": 5258, "look": 5259, "state": 5260, "osen": 5261, " Francisco": 5262, "iot": 5263, " Toronto": 5264, " sitting": 5265, " trail": 5266, " unless": 5267, " USA": 5268, " Jes": 5269, "isted": 5270, " heat": 5271, " gar": 5272, " 2004": 5273, "IP": 5274, "Even": 5275, " responsibility": 5276, " capacity": 5277, "atures": 5278, " Middle": 5279, " error": 5280, "aine": 5281, " symb": 5282, " fol": 5283, " Dan": 5284, "pire": 5285, " arms": 5286, " pil": 5287, " covered": 5288, "idden": 5289, "ias": 5290, " appoint": 5291, " famous": 5292, " Camp": 5293, " forms": 5294, "uzz": 5295, "ND": 5296, " university": 5297, " tight": 5298, "top": 5299, " presented": 5300, "ortion": 5301, "oving": 5302, "enced": 5303, " ST": 5304, " clim": 5305, " Egypt": 5306, " earn": 5307, " Put": 5308, " convention": 5309, "under": 5310, "Just": 5311, " Public": 5312, " surprise": 5313, " attorney": 5314, " elections": 5315, " estimated": 5316, " fif": 5317, " Mur": 5318, " Ari": 5319, " teen": 5320, " instit": 5321, " vehicles": 5322, "rible": 5323, " Amazon": 5324, "road": 5325, " intended": 5326, " rid": 5327, " odd": 5328, " helps": 5329, " occurred": 5330, "person": 5331, "ala": 5332, " streets": 5333, "uster": 5334, "hand": 5335, " Boston": 5336, " Sol": 5337, " =>": 5338, "roud": 5339, "=\"": 5340, " sport": 5341, "sen": 5342, " determine": 5343, "ressive": 5344, " Bitcoin": 5345, " expert": 5346, " schem": 5347, "alls": 5348, " consult": 5349, "uration": 5350, "Let": 5351, " broken": 5352, " guaran": 5353, "lets": 5354, " fired": 5355, " ton": 5356, " flow": 5357, " domin": 5358, "porary": 5359, "eder": 5360, "LE": 5361, " shall": 5362, "inte": 5363, " reserv": 5364, " troops": 5365, "ION": 5366, " Those": 5367, " hyp": 5368, "Up": 5369, " nar": 5370, "terday": 5371, " pieces": 5372, " Chief": 5373, " prepared": 5374, " Mass": 5375, " Cath": 5376, " rapid": 5377, "orage": 5378, " Jo": 5379, " located": 5380, " Social": 5381, " baby": 5382, " conclus": 5383, " bringing": 5384, " prove": 5385, " specifically": 5386, " Any": 5387, " potentially": 5388, " sector": 5389, "anche": 5390, " random": 5391, " jail": 5392, "OW": 5393, " selling": 5394, " governments": 5395, " Once": 5396, " equal": 5397, "Ab": 5398, "class": 5399, " faster": 5400, " heav": 5401, " Spr": 5402, " boost": 5403, "useum": 5404, "vey": 5405, "war": 5406, " proposal": 5407, "oty": 5408, " factors": 5409, " clin": 5410, " Gal": 5411, " plenty": 5412, "TH": 5413, " equipment": 5414, " council": 5415, " era": 5416, " infrastructure": 5417, "Do": 5418, " stress": 5419, "phas": 5420, " stars": 5421, " Journal": 5422, " Rub": 5423, "endment": 5424, " Virginia": 5425, " breat": 5426, " prosecut": 5427, " voted": 5428, " offering": 5429, " carbon": 5430, "inent": 5431, " expressed": 5432, " combat": 5433, " vulner": 5434, " broke": 5435, "()": 5436, "ureau": 5437, " clot": 5438, " Cur": 5439, "ours": 5440, " Federal": 5441, " ruling": 5442, " retail": 5443, " Guard": 5444, " refused": 5445, " dram": 5446, " elected": 5447, " Open": 5448, " River": 5449, "Every": 5450, " secure": 5451, "cean": 5452, " seasons": 5453, " conducted": 5454, ",'": 5455, " Paris": 5456, " challenges": 5457, " remove": 5458, "isher": 5459, "rog": 5460, " methods": 5461, "ht": 5462, " weapon": 5463, "noon": 5464, " pointed": 5465, " Island": 5466, " master": 5467, " remained": 5468, " Australian": 5469, " prime": 5470, "ENT": 5471, " trig": 5472, " Mel": 5473, " positions": 5474, " Cru": 5475, " infect": 5476, " din": 5477, " criticism": 5478, "ipping": 5479, "First": 5480, "ocking": 5481, " Medic": 5482, " Please": 5483, "tion": 5484, "onom": 5485, "IG": 5486, " sale": 5487, " Fe": 5488, "olved": 5489, " cultural": 5490, "that": 5491, " weren": 5492, " significantly": 5493, " brow": 5494, "etic": 5495, " originally": 5496, "Ste": 5497, "rie": 5498, " During": 5499, " stret": 5500, " affected": 5501, " appearance": 5502, " cas": 5503, " Sant": 5504, " tourn": 5505, " facing": 5506, " greatest": 5507, " finish": 5508, " Lee": 5509, " youth": 5510, " tele": 5511, "yr": 5512, " Who": 5513, " percentage": 5514, " Photo": 5515, "col": 5516, " determined": 5517, " signs": 5518, " involve": 5519, "95": 5520, "cel": 5521, "\u00d0\u00b8": 5522, " thank": 5523, " bought": 5524, " 500": 5525, "lyn": 5526, "standing": 5527, " chemical": 5528, "ashion": 5529, "64": 5530, " shape": 5531, " Sing": 5532, " regime": 5533, " grew": 5534, "pired": 5535, " remaining": 5536, " Steve": 5537, "lymp": 5538, " Ro": 5539, " minimum": 5540, " Saud": 5541, "reens": 5542, " indeed": 5543, " dream": 5544, "rier": 5545, "Since": 5546, "aling": 5547, " marg": 5548, "Sp": 5549, " Both": 5550, ">>": 5551, " mode": 5552, " herself": 5553, " voting": 5554, " Color": 5555, " obviously": 5556, " Force": 5557, " reduced": 5558, " Nov": 5559, " Rem": 5560, " wood": 5561, "ordin": 5562, " recorded": 5563, " argued": 5564, " 1990": 5565, " revenue": 5566, " tact": 5567, " wearing": 5568, "ighters": 5569, " leads": 5570, " hun": 5571, "edia": 5572, " politicians": 5573, " plus": 5574, " switch": 5575, " contrast": 5576, " handle": 5577, " purchase": 5578, " thr": 5579, " subs": 5580, " concent": 5581, " proced": 5582, "\u00d1\u0082": 5583, " agent": 5584, "hab": 5585, "mm": 5586, "arp": 5587, " Williams": 5588, " appreci": 5589, " experienced": 5590, " hurt": 5591, " excited": 5592, " videos": 5593, " https": 5594, "cohol": 5595, " supporting": 5596, "DP": 5597, " Haw": 5598, " vir": 5599, " Free": 5600, " surprising": 5601, "ller": 5602, " minute": 5603, " explos": 5604, " Pac": 5605, " belong": 5606, " consumers": 5607, " identify": 5608, " considering": 5609, "ownt": 5610, " Conserv": 5611, "apter": 5612, " aircraft": 5613, " aid": 5614, "Ne": 5615, "CL": 5616, " pulled": 5617, " rent": 5618, "gment": 5619, " basically": 5620, " differences": 5621, "ogue": 5622, " Book": 5623, " glass": 5624, "http": 5625, " Rad": 5626, " afternoon": 5627, " shift": 5628, " diss": 5629, " ends": 5630, "essions": 5631, " turning": 5632, " bound": 5633, " films": 5634, " spring": 5635, " depart": 5636, " prospect": 5637, "ruption": 5638, "ket": 5639, " Charl": 5640, "life": 5641, " treated": 5642, " accident": 5643, ",[": 5644, " motiv": 5645, " listen": 5646, " seat": 5647, " Power": 5648, " combined": 5649, " construct": 5650, "Ind": 5651, " seriously": 5652, " privacy": 5653, "apping": 5654, " evening": 5655, "hered": 5656, " opportunities": 5657, "asp": 5658, "hy": 5659, " struggle": 5660, " 195": 5661, " panel": 5662, " enemy": 5663, " lots": 5664, " completed": 5665, " Daily": 5666, " visual": 5667, "His": 5668, "pet": 5669, "Phone": 5670, " talked": 5671, "pted": 5672, " hopes": 5673, "uts": 5674, " passing": 5675, "oral": 5676, " id": 5677, " apps": 5678, "osite": 5679, "05": 5680, "gent": 5681, " Step": 5682, "PD": 5683, " calcul": 5684, " mort": 5685, "Another": 5686, " widely": 5687, "ensions": 5688, " emergency": 5689, " Hol": 5690, "amm": 5691, " Show": 5692, " suit": 5693, " element": 5694, " ast": 5695, "anged": 5696, "SS": 5697, "ucks": 5698, "aled": 5699, " powers": 5700, " Rel": 5701, " BBC": 5702, " flat": 5703, " Olymp": 5704, " burn": 5705, "TV": 5706, " discl": 5707, " plants": 5708, " Space": 5709, "ato": 5710, " liberal": 5711, "Pe": 5712, "raud": 5713, "obe": 5714, " opposed": 5715, " sad": 5716, "Well": 5717, " proceed": 5718, "ompl": 5719, " copyright": 5720, " Project": 5721, "oking": 5722, " advance": 5723, " factor": 5724, " distance": 5725, " 2003": 5726, "ivered": 5727, " dismiss": 5728, "plom": 5729, " attempts": 5730, " tun": 5731, "ette": 5732, "Am": 5733, " Road": 5734, "abilities": 5735, " IN": 5736, "ributed": 5737, " trouble": 5738, "unction": 5739, " hol": 5740, " collabor": 5741, " default": 5742, "idel": 5743, " zone": 5744, " encoun": 5745, " Jackson": 5746, " upgr": 5747, "ita": 5748, "rawn": 5749, " reaction": 5750, " storm": 5751, " reporters": 5752, " Mem": 5753, " frust": 5754, "PR": 5755, "nell": 5756, " writes": 5757, "adow": 5758, "mosp": 5759, "mond": 5760, "aints": 5761, " typically": 5762, "lines": 5763, " Today": 5764, "respond": 5765, "UT": 5766, " pages": 5767, " instruct": 5768, "inian": 5769, "eds": 5770, "ternal": 5771, " reference": 5772, " grab": 5773, "zer": 5774, " package": 5775, " bodies": 5776, " matters": 5777, "sts": 5778, "01": 5779, "free": 5780, " denied": 5781, "care": 5782, "App": 5783, " quant": 5784, " disappoint": 5785, " sem": 5786, " explo": 5787, " Bet": 5788, " NAS": 5789, " optim": 5790, "ache": 5791, " quiet": 5792, " entertain": 5793, " responded": 5794, " approved": 5795, " Turkey": 5796, " satisf": 5797, "aped": 5798, "Rep": 5799, " broadcast": 5800, "esters": 5801, " institutions": 5802, " advert": 5803, "42": 5804, " stands": 5805, " Director": 5806, " sets": 5807, "estival": 5808, "ga": 5809, " elimin": 5810, "razy": 5811, "\u00c3\u00a4": 5812, "host": 5813, " valid": 5814, " renew": 5815, " Ohio": 5816, "Cont": 5817, " split": 5818, " severe": 5819, " William": 5820, " sac": 5821, " capable": 5822, " Matt": 5823, " Penn": 5824, " 2001": 5825, " //": 5826, " pitch": 5827, "aniel": 5828, " caption": 5829, " loved": 5830, " technical": 5831, " giant": 5832, "pass": 5833, " tradition": 5834, "isters": 5835, " cann": 5836, "water": 5837, " bull": 5838, "abin": 5839, " confident": 5840, "elly": 5841, "uous": 5842, " confidence": 5843, "rum": 5844, " numerous": 5845, " reportedly": 5846, " Ma": 5847, " faces": 5848, "],": 5849, "writ": 5850, " weather": 5851, " fly": 5852, "rid": 5853, " transition": 5854, " 36": 5855, " System": 5856, "unte": 5857, " Afghanistan": 5858, " Squ": 5859, " waste": 5860, " creation": 5861, " perspective": 5862, " unable": 5863, " forget": 5864, " Labour": 5865, "De": 5866, " Yet": 5867, "astern": 5868, "employ": 5869, "oken": 5870, " Media": 5871, "angers": 5872, "II": 5873, " craft": 5874, " substant": 5875, " cooper": 5876, " violent": 5877, " suffered": 5878, "ilit": 5879, " mand": 5880, "ampion": 5881, " coast": 5882, "43": 5883, " pictures": 5884, " experiences": 5885, " approx": 5886, " route": 5887, "abled": 5888, "rant": 5889, "88": 5890, " flag": 5891, " advice": 5892, " Andrew": 5893, "usiness": 5894, " declared": 5895, " ordered": 5896, " Human": 5897, "razil": 5898, " crimes": 5899, " coff": 5900, " proud": 5901, "ishes": 5902, " reporting": 5903, " messages": 5904, "sex": 5905, " circumst": 5906, " findings": 5907, "Res": 5908, "ulations": 5909, " eval": 5910, " excell": 5911, "Over": 5912, " declined": 5913, " Wal": 5914, " explains": 5915, " Lin": 5916, "can": 5917, " delay": 5918, " \\": 5919, " Follow": 5920, " newspaper": 5921, "ounded": 5922, " connected": 5923, "ilty": 5924, " shouldn": 5925, " mal": 5926, "evin": 5927, "oves": 5928, " ongoing": 5929, " cloud": 5930, "dule": 5931, " van": 5932, " movies": 5933, " picked": 5934, "resents": 5935, "77": 5936, " admitted": 5937, " gra": 5938, " delivered": 5939, "During": 5940, " guns": 5941, " ML": 5942, "ionally": 5943, " Scot": 5944, " walking": 5945, " prin": 5946, " agents": 5947, "called": 5948, " editor": 5949, " thoughts": 5950, " married": 5951, " Tra": 5952, " auth": 5953, " emails": 5954, " appropriate": 5955, "edd": 5956, " emphas": 5957, " Rod": 5958, "uations": 5959, " edge": 5960, " architect": 5961, " Grand": 5962, " leaves": 5963, " updates": 5964, " accompl": 5965, "OD": 5966, " gather": 5967, " forg": 5968, " Muslims": 5969, "ansas": 5970, " Wood": 5971, " quarterback": 5972, " session": 5973, "ooth": 5974, " pool": 5975, " Techn": 5976, " Science": 5977, "cos": 5978, " injured": 5979, "arn": 5980, " publicly": 5981, "ellow": 5982, " Sov": 5983, " statements": 5984, " perman": 5985, "arl": 5986, " legit": 5987, " confirm": 5988, "nergy": 5989, " Lake": 5990, " ourselves": 5991, "Other": 5992, " realize": 5993, " drivers": 5994, " rot": 5995, "MA": 5996, " Av": 5997, " Dou": 5998, "mates": 5999, ",\u00e2\u0080\u0099": 6000, " armed": 6001, "essor": 6002, " dial": 6003, "cons": 6004, "Te": 6005, "TA": 6006, " lawyer": 6007, "ourney": 6008, " rail": 6009, " readers": 6010, "reland": 6011, " contains": 6012, " argue": 6013, " Rev": 6014, " talent": 6015, " filled": 6016, " Sum": 6017, " allegations": 6018, " activists": 6019, " Christmas": 6020, " dynam": 6021, " 1980": 6022, " Michigan": 6023, "date": 6024, " Back": 6025, " Ron": 6026, "long": 6027, " crack": 6028, " transform": 6029, " Read": 6030, "Tube": 6031, " buildings": 6032, " wear": 6033, "Many": 6034, " Ill": 6035, " sam": 6036, " terrorist": 6037, " tree": 6038, " exercise": 6039, "enda": 6040, " label": 6041, " effectively": 6042, "Oh": 6043, " practices": 6044, " god": 6045, " subsequ": 6046, " Jul": 6047, " Sher": 6048, "TS": 6049, "uls": 6050, " flo": 6051, " fish": 6052, "enture": 6053, " shop": 6054, " examples": 6055, "41": 6056, " Hy": 6057, " patient": 6058, " Gen": 6059, " Seattle": 6060, " objects": 6061, " See": 6062, " tech": 6063, " secretary": 6064, "gia": 6065, "asure": 6066, " rain": 6067, "urning": 6068, " missed": 6069, " causes": 6070, "illy": 6071, " debut": 6072, " essentially": 6073, "66": 6074, " moral": 6075, "orders": 6076, "ador": 6077, "word": 6078, "def": 6079, "acter": 6080, " Work": 6081, "arters": 6082, " Ukraine": 6083, " centre": 6084, " Stan": 6085, "hedule": 6086, "Follow": 6087, "amin": 6088, " Vict": 6089, " ID": 6090, " injuries": 6091, "icing": 6092, " Phot": 6093, " motor": 6094, " iPhone": 6095, " artist": 6096, " client": 6097, " bond": 6098, " thinks": 6099, "iat": 6100, "aza": 6101, "orse": 6102, "ouston": 6103, " pure": 6104, " hell": 6105, "Although": 6106, " Saudi": 6107, " facts": 6108, "\u0082\u00ac": 6109, " desire": 6110, "agers": 6111, " ske": 6112, "orry": 6113, " linked": 6114, "\u00c3\u00ad": 6115, " governor": 6116, " Bat": 6117, " materials": 6118, "nan": 6119, " performed": 6120, "Spe": 6121, " franch": 6122, "esome": 6123, " suc": 6124, " philosoph": 6125, " initially": 6126, " Sign": 6127, " necessarily": 6128, " Kim": 6129, " Fer": 6130, " expansion": 6131, " scheduled": 6132, "ERS": 6133, " warned": 6134, "iest": 6135, " diplom": 6136, " advanced": 6137, " explan": 6138, " ing": 6139, " vari": 6140, " everybody": 6141, " joint": 6142, " decre": 6143, " resolution": 6144, " increases": 6145, "enger": 6146, "Yes": 6147, " accepted": 6148, " incor": 6149, " myster": 6150, " faced": 6151, " bare": 6152, "illance": 6153, " announcement": 6154, " follows": 6155, " Mount": 6156, " nations": 6157, " playoff": 6158, " Life": 6159, " abandon": 6160, " Second": 6161, " Id": 6162, " radical": 6163, " athlet": 6164, " neither": 6165, " yesterday": 6166, " datab": 6167, " nearby": 6168, " distribution": 6169, "otic": 6170, " applied": 6171, "irty": 6172, " magazine": 6173, "Most": 6174, "athan": 6175, "rich": 6176, " consequences": 6177, " mir": 6178, " doctor": 6179, " listed": 6180, "uy": 6181, " Columb": 6182, " atmosp": 6183, "American": 6184, " surprised": 6185, " fort": 6186, " offense": 6187, "Qu": 6188, "itors": 6189, " CNN": 6190, " RE": 6191, " spons": 6192, " begins": 6193, " Week": 6194, " threats": 6195, " af": 6196, "sembly": 6197, " represents": 6198, " Jews": 6199, " GM": 6200, " Aff": 6201, " enh": 6202, " moves": 6203, " remark": 6204, " TO": 6205, " songs": 6206, " pra": 6207, "kay": 6208, " behavi": 6209, " ride": 6210, "Can": 6211, " adds": 6212, " withd": 6213, "\u00c3\u0082": 6214, " improved": 6215, "rip": 6216, " phen": 6217, " Blue": 6218, " bot": 6219, " warm": 6220, " alcohol": 6221, " output": 6222, "law": 6223, " AT": 6224, " flood": 6225, " Develop": 6226, " Hen": 6227, "whel": 6228, "edy": 6229, " shots": 6230, " fill": 6231, " Vol": 6232, " stood": 6233, " brings": 6234, " alt": 6235, " pushed": 6236, " guilty": 6237, " Romney": 6238, " subscrib": 6239, "85": 6240, " entry": 6241, "ocratic": 6242, " Dev": 6243, " Brazil": 6244, " democracy": 6245, " boys": 6246, "burg": 6247, "rac": 6248, " 33": 6249, " row": 6250, " config": 6251, " NBA": 6252, " lawsuit": 6253, " Ireland": 6254, " manufacture": 6255, " receiving": 6256, " rein": 6257, " Barack": 6258, "Then": 6259, " trib": 6260, " totally": 6261, " Only": 6262, " discussed": 6263, " restaurant": 6264, " sought": 6265, " rising": 6266, " entered": 6267, " ISIS": 6268, " Board": 6269, " 300": 6270, " consistent": 6271, " historical": 6272, "twitter": 6273, " storage": 6274, "ideo": 6275, " correspond": 6276, " plane": 6277, " combination": 6278, " scored": 6279, " input": 6280, " symbol": 6281, " bright": 6282, " button": 6283, "irds": 6284, " succeed": 6285, "stood": 6286, " creative": 6287, " investors": 6288, " square": 6289, " articles": 6290, " 2002": 6291, " island": 6292, "pty": 6293, " deaths": 6294, " scr": 6295, " functions": 6296, " networks": 6297, " classes": 6298, " unlikely": 6299, "alty": 6300, " Prem": 6301, " heads": 6302, "ician": 6303, " boss": 6304, " native": 6305, "icious": 6306, " lie": 6307, " sav": 6308, " Lib": 6309, " roughly": 6310, " consumer": 6311, " Whe": 6312, " Walk": 6313, "fortunately": 6314, " Ms": 6315, " string": 6316, " Maybe": 6317, " heavily": 6318, " Another": 6319, " fairly": 6320, " temperature": 6321, "arden": 6322, "ican": 6323, " kit": 6324, " existence": 6325, " Its": 6326, " Asia": 6327, " contest": 6328, " plot": 6329, "issions": 6330, " Cub": 6331, " resident": 6332, "usal": 6333, " targets": 6334, " Bob": 6335, " resc": 6336, " Korean": 6337, "duc": 6338, " lock": 6339, " younger": 6340, " colleagues": 6341, " Str": 6342, "',": 6343, " Swed": 6344, "PU": 6345, "abb": 6346, " library": 6347, "\u00c3\u00b6": 6348, " rally": 6349, " parliament": 6350, " protests": 6351, " anywhere": 6352, "oked": 6353, " Sports": 6354, " Sky": 6355, " bike": 6356, "zona": 6357, " breaking": 6358, "acle": 6359, " stores": 6360, " expression": 6361, " sym": 6362, " chain": 6363, " blow": 6364, " warning": 6365, " importance": 6366, " defined": 6367, " chart": 6368, " buying": 6369, " manage": 6370, " prohib": 6371, "ii": 6372, " classic": 6373, " cere": 6374, " snow": 6375, " adults": 6376, " illust": 6377, " Each": 6378, "See": 6379, "Ob": 6380, " marketing": 6381, " links": 6382, "\u00c3\u00b3": 6383, "born": 6384, " shif": 6385, "iques": 6386, "andal": 6387, " Club": 6388, " tow": 6389, " Hist": 6390, " fraud": 6391, "OC": 6392, "Man": 6393, "pret": 6394, "dis": 6395, " facility": 6396, "ollywood": 6397, " hardware": 6398, " schol": 6399, " allegedly": 6400, " 37": 6401, "cho": 6402, " regulations": 6403, " bon": 6404, " doctors": 6405, " Colorado": 6406, " currency": 6407, " household": 6408, " replaced": 6409, "agan": 6410, " essential": 6411, " Ram": 6412, "En": 6413, "opy": 6414, "onna": 6415, " somewhat": 6416, " Div": 6417, "press": 6418, "86": 6419, " nav": 6420, "power": 6421, " favour": 6422, " promise": 6423, " DC": 6424, " Boy": 6425, " laugh": 6426, "Pol": 6427, " Rights": 6428, "ena": 6429, " holds": 6430, " opposite": 6431, "ocket": 6432, " tom": 6433, "\u00d1\u0081": 6434, " moments": 6435, "west": 6436, " hat": 6437, "tering": 6438, " opponent": 6439, " bug": 6440, " Far": 6441, " campus": 6442, " acts": 6443, " rum": 6444, "etroit": 6445, " versions": 6446, " metal": 6447, " motion": 6448, "hips": 6449, " evolution": 6450, "ometimes": 6451, " vice": 6452, "anish": 6453, " sees": 6454, " Image": 6455, " bag": 6456, " relevant": 6457, " industrial": 6458, " zero": 6459, "IR": 6460, " sick": 6461, "oma": 6462, " closely": 6463, "hetic": 6464, " emotional": 6465, "chen": 6466, "game": 6467, "IF": 6468, " YouTube": 6469, " Year": 6470, "va": 6471, " fewer": 6472, " division": 6473, "olve": 6474, " adm": 6475, " downt": 6476, " harder": 6477, " refere": 6478, " customer": 6479, " hoping": 6480, "ologist": 6481, " Brook": 6482, "Donald": 6483, " Valley": 6484, " hur": 6485, " mechanism": 6486, "ittle": 6487, "inem": 6488, " Gra": 6489, "ml": 6490, " Houston": 6491, " Elect": 6492, " returns": 6493, "NC": 6494, "atell": 6495, " volunte": 6496, " participants": 6497, " extent": 6498, " intention": 6499, "alian": 6500, "pan": 6501, " excellent": 6502, " Soviet": 6503, " acknowled": 6504, "llect": 6505, " syn": 6506, "ulous": 6507, " Mot": 6508, "oming": 6509, " Games": 6510, " squad": 6511, " circumstances": 6512, " fashion": 6513, " isol": 6514, "esc": 6515, "\u00c3\u00bc": 6516, "otal": 6517, "greg": 6518, " immediate": 6519, " Eric": 6520, " suffering": 6521, "po": 6522, " Watch": 6523, " lies": 6524, " tiny": 6525, " authors": 6526, " batt": 6527, " 38": 6528, " grown": 6529, " Gar": 6530, "iger": 6531, "ora": 6532, " immigrants": 6533, "\u00c3\u0083": 6534, "print": 6535, " kinds": 6536, "utch": 6537, " 49": 6538, " Die": 6539, " cheap": 6540, " mine": 6541, " detailed": 6542, " Hel": 6543, "ordan": 6544, "name": 6545, " featured": 6546, "iki": 6547, "ayers": 6548, " meat": 6549, " unus": 6550, " Aut": 6551, " competitive": 6552, " IP": 6553, " describe": 6554, " formed": 6555, " Home": 6556, "nic": 6557, "certain": 6558, " carrying": 6559, " tournament": 6560, " trick": 6561, "nam": 6562, " relationships": 6563, "friend": 6564, " fundamental": 6565, "kel": 6566, " wave": 6567, " cycle": 6568, " crazy": 6569, " signing": 6570, " Way": 6571, " Cy": 6572, " termin": 6573, " guide": 6574, "efully": 6575, " wins": 6576, " Catholic": 6577, " earned": 6578, " decline": 6579, " regional": 6580, "ensus": 6581, "style": 6582, " embr": 6583, " strange": 6584, " Palestinian": 6585, " Jesus": 6586, " Ann": 6587, " Long": 6588, "bar": 6589, " ancient": 6590, " frequently": 6591, " acting": 6592, " Putin": 6593, " manner": 6594, " efficient": 6595, " Sar": 6596, "rome": 6597, " pushing": 6598, " CIA": 6599, " comfortable": 6600, " Card": 6601, " pip": 6602, "ORE": 6603, " Er": 6604, "Per": 6605, " sharing": 6606, " wire": 6607, " skill": 6608, " Econom": 6609, "ockey": 6610, "chers": 6611, " instru": 6612, " owned": 6613, " Ell": 6614, "awa": 6615, " commitment": 6616, " alongside": 6617, " OF": 6618, "uated": 6619, " Lord": 6620, " Davis": 6621, "anes": 6622, " cart": 6623, "rison": 6624, " controversial": 6625, " artists": 6626, " referred": 6627, "weight": 6628, " egg": 6629, " mouth": 6630, " repeatedly": 6631, "06": 6632, " 48": 6633, " Top": 6634, "\u00ef\u00bf": 6635, " 34": 6636, "FP": 6637, " attempted": 6638, " femin": 6639, "\u00d0\u00be\u00d0": 6640, "umber": 6641, " updated": 6642, "foot": 6643, " cert": 6644, " pregn": 6645, " Old": 6646, "ua": 6647, " schedule": 6648, "vin": 6649, "xy": 6650, " PS": 6651, "amily": 6652, "adel": 6653, " dedicated": 6654, " posts": 6655, " AL": 6656, " sentence": 6657, " upcoming": 6658, " Down": 6659, "bel": 6660, " NY": 6661, " column": 6662, " Di": 6663, "hus": 6664, " depth": 6665, "09": 6666, " pled": 6667, " virtual": 6668, "uable": 6669, " journey": 6670, " struck": 6671, "\u00d1\u0080": 6672, " desk": 6673, " studio": 6674, " realized": 6675, " Energy": 6676, "Despite": 6677, "ceived": 6678, "%)": 6679, "ographic": 6680, "DS": 6681, "ugh": 6682, " medic": 6683, "iami": 6684, " serving": 6685, " walked": 6686, "rive": 6687, "iveness": 6688, " king": 6689, " ring": 6690, "ko": 6691, " reput": 6692, "phy": 6693, "you": 6694, " urban": 6695, " Cle": 6696, " Charles": 6697, " Wild": 6698, " targeted": 6699, " channel": 6700, " assets": 6701, "luding": 6702, " inspired": 6703, " hotel": 6704, " Arizona": 6705, "08": 6706, " newslet": 6707, "Like": 6708, "Two": 6709, " Supp": 6710, " universe": 6711, "07": 6712, " agenda": 6713, " causing": 6714, " watched": 6715, " suicide": 6716, " tort": 6717, " stream": 6718, " Men": 6719, "mem": 6720, " overwhel": 6721, " Py": 6722, " usual": 6723, " surveillance": 6724, " intent": 6725, "sole": 6726, "People": 6727, " liqu": 6728, " sister": 6729, " opponents": 6730, " chairman": 6731, " du": 6732, " Wars": 6733, " Cruz": 6734, " mainstream": 6735, " latter": 6736, " hall": 6737, " surrounding": 6738, " folks": 6739, " knowing": 6740, " orders": 6741, " Inf": 6742, "omin": 6743, "igg": 6744, " remote": 6745, " 75": 6746, " sand": 6747, " literally": 6748, " Java": 6749, " observed": 6750, " Again": 6751, " Right": 6752, " subsid": 6753, "gor": 6754, " Defense": 6755, " infl": 6756, "obb": 6757, " approval": 6758, " Van": 6759, "rence": 6760, "iments": 6761, " basket": 6762, "rations": 6763, "avor": 6764, " teachers": 6765, "azi": 6766, "izz": 6767, "Fr": 6768, " winter": 6769, "iciency": 6770, "alle": 6771, "aze": 6772, " exciting": 6773, "acc": 6774, "aylor": 6775, " Tal": 6776, " format": 6777, "boy": 6778, " congress": 6779, "iro": 6780, " protected": 6781, "ati": 6782, " noticed": 6783, " simpl": 6784, " dealing": 6785, " Young": 6786, " Child": 6787, " precise": 6788, " Pan": 6789, "xual": 6790, "67": 6791, " deeply": 6792, " communication": 6793, " gang": 6794, " sending": 6795, "ipl": 6796, " forth": 6797, " Jr": 6798, " fasc": 6799, " battery": 6800, " wal": 6801, "mun": 6802, " sky": 6803, " narr": 6804, " fixed": 6805, "post": 6806, " aside": 6807, " requirements": 6808, "abis": 6809, "ums": 6810, " properties": 6811, "rors": 6812, "str": 6813, " alive": 6814, " narrow": 6815, " wake": 6816, "allas": 6817, " passion": 6818, " Arch": 6819, "onymous": 6820, " eating": 6821, "ensity": 6822, " mistake": 6823, "wart": 6824, "woman": 6825, " explore": 6826, " coffee": 6827, " 1970": 6828, " rape": 6829, " volume": 6830, " promised": 6831, " diet": 6832, "acking": 6833, " risks": 6834, " exhib": 6835, " Polit": 6836, " sweet": 6837, "May": 6838, "\u00e2\u0080\u0099.": 6839, " Enter": 6840, " Wat": 6841, " neut": 6842, " involving": 6843, " wage": 6844, " selection": 6845, " Max": 6846, " tested": 6847, "ether": 6848, " flu": 6849, "ulture": 6850, " defeat": 6851, " northern": 6852, " reward": 6853, " welcome": 6854, " extended": 6855, " puts": 6856, " territory": 6857, " phenomen": 6858, " unemploy": 6859, " refugees": 6860, " sample": 6861, " height": 6862, " approximately": 6863, " Kevin": 6864, " blame": 6865, " Brad": 6866, " anyway": 6867, "59": 6868, " Detroit": 6869, " destroyed": 6870, "obile": 6871, " sho": 6872, " impressive": 6873, " Stephen": 6874, "asks": 6875, " proof": 6876, " gap": 6877, " dry": 6878, "\u00ef\u00bf\u00bd": 6879, " crash": 6880, "ingu": 6881, " unknown": 6882, " locations": 6883, " selected": 6884, "apse": 6885, " west": 6886, "anges": 6887, "gery": 6888, " Fil": 6889, "stone": 6890, " attacked": 6891, " Tit": 6892, "aire": 6893, "lv": 6894, " maximum": 6895, " Miller": 6896, " Wilson": 6897, " promote": 6898, " shel": 6899, "aser": 6900, " merely": 6901, " franchise": 6902, "arry": 6903, "04": 6904, " requests": 6905, " retire": 6906, " suddenly": 6907, " slowly": 6908, " protesters": 6909, " disag": 6910, " teacher": 6911, " typical": 6912, " Ins": 6913, "ixt": 6914, "ogan": 6915, "dro": 6916, " Women": 6917, " conver": 6918, "list": 6919, " chose": 6920, " Camer": 6921, "ao": 6922, " Class": 6923, " Lu": 6924, " matches": 6925, " license": 6926, " properly": 6927, " assume": 6928, "oration": 6929, " discover": 6930, " wid": 6931, " PR": 6932, "Rel": 6933, " Mic": 6934, " worried": 6935, " moder": 6936, "Or": 6937, " abortion": 6938, "fire": 6939, "owered": 6940, " allies": 6941, " oblig": 6942, " terrorism": 6943, " supports": 6944, " \u00ce": 6945, "uilding": 6946, "\u00c3\u0083\u00c3\u0082": 6947, "inson": 6948, "verty": 6949, " arguments": 6950, " adapt": 6951, " theme": 6952, " confront": 6953, " facilities": 6954, " sustain": 6955, "gender": 6956, " pal": 6957, " east": 6958, " recognize": 6959, "igure": 6960, " fuck": 6961, "\u00c3\u0082\u00c3\u0083\u00c3\u0082": 6962, "\u00c3\u0083\u00c3\u0082\u00c3\u0083": 6963, "lies": 6964, " equival": 6965, " obtained": 6966, " poverty": 6967, " rub": 6968, " Italy": 6969, " nomine": 6970, "03": 6971, " deals": 6972, " fees": 6973, "itarian": 6974, "osis": 6975, "alo": 6976, "Se": 6977, " Hollywood": 6978, " understood": 6979, " controlled": 6980, "VER": 6981, " Best": 6982, " topic": 6983, " Dam": 6984, " critics": 6985, " Society": 6986, " Agency": 6987, "axy": 6988, " Ford": 6989, " sole": 6990, " Jersey": 6991, "arity": 6992, " village": 6993, " diagn": 6994, " Administ": 6995, "raid": 6996, " likes": 6997, "celer": 6998, " Four": 6999, "sters": 7000, "68": 7001, " evil": 7002, " punish": 7003, " dress": 7004, "cript": 7005, " Georgia": 7006, "asts": 7007, " bunch": 7008, " Company": 7009, " journalists": 7010, "John": 7011, " exposed": 7012, " ped": 7013, " regions": 7014, "redit": 7015, "ocation": 7016, " communications": 7017, " scheme": 7018, "lls": 7019, " transp": 7020, " stim": 7021, " limits": 7022, " somehow": 7023, " strongly": 7024, " honor": 7025, " drag": 7026, "aug": 7027, " resistance": 7028, " champion": 7029, " Carl": 7030, " Labor": 7031, " phase": 7032, " NASA": 7033, "pool": 7034, " truck": 7035, " profit": 7036, " constant": 7037, " condem": 7038, " escape": 7039, " personally": 7040, " Dun": 7041, "rimination": 7042, " Night": 7043, " Land": 7044, " bid": 7045, " Fort": 7046, " NHL": 7047, " Stand": 7048, " vacc": 7049, " deck": 7050, "\u00d0\u00bd": 7051, "nesota": 7052, "iform": 7053, " falling": 7054, "ads": 7055, "GBT": 7056, " Network": 7057, " somewhere": 7058, "cers": 7059, " employee": 7060, " harass": 7061, "mo": 7062, "CA": 7063, " bear": 7064, " CD": 7065, "iner": 7066, " comparison": 7067, "orted": 7068, "ciples": 7069, " polls": 7070, "owa": 7071, "rett": 7072, " inqu": 7073, " Love": 7074, "pected": 7075, " southern": 7076, " decent": 7077, "oric": 7078, "cow": 7079, " Spanish": 7080, " encourage": 7081, " emissions": 7082, " 39": 7083, " View": 7084, " Cam": 7085, "enders": 7086, " empty": 7087, " Miami": 7088, " hits": 7089, "oster": 7090, " definition": 7091, " Kn": 7092, " directed": 7093, " pic": 7094, " Bell": 7095, "pes": 7096, " flex": 7097, "wan": 7098, "zens": 7099, " Ok": 7100, "57": 7101, " meetings": 7102, " End": 7103, " comprom": 7104, " winner": 7105, "intend": 7106, "icken": 7107, " gotten": 7108, " Daniel": 7109, " Turk": 7110, " electricity": 7111, " chosen": 7112, " officially": 7113, " bench": 7114, " stretch": 7115, " database": 7116, " Despite": 7117, " spin": 7118, " intellect": 7119, "igation": 7120, " stronger": 7121, "aun": 7122, " deleg": 7123, " purposes": 7124, " DNA": 7125, "teen": 7126, " cutting": 7127, " Turn": 7128, " fold": 7129, "rary": 7130, " extensive": 7131, "Com": 7132, " amounts": 7133, " desper": 7134, " trees": 7135, " anx": 7136, " ideal": 7137, " Asian": 7138, " thread": 7139, " fifth": 7140, "\u0088\u0092": 7141, "CS": 7142, "UR": 7143, " goods": 7144, " colon": 7145, " developer": 7146, " claiming": 7147, "unning": 7148, "Any": 7149, " retain": 7150, " soul": 7151, " captured": 7152, " Though": 7153, " finds": 7154, " driven": 7155, " payments": 7156, "asters": 7157, "ras": 7158, " ties": 7159, " Jordan": 7160, " reasonable": 7161, " dogs": 7162, "\u00e2\u0096": 7163, " somebody": 7164, " ending": 7165, "02": 7166, " Nations": 7167, " choices": 7168, " ble": 7169, " pod": 7170, " seats": 7171, " Services": 7172, " Thank": 7173, " engage": 7174, " drawn": 7175, "olt": 7176, " sight": 7177, " param": 7178, "CE": 7179, " threatened": 7180, " ruled": 7181, " Dar": 7182, " Attorney": 7183, " Irish": 7184, "eping": 7185, " Sea": 7186, " trading": 7187, "owed": 7188, " primarily": 7189, "ura": 7190, " aspects": 7191, " fighters": 7192, "ML": 7193, " answers": 7194, " perfectly": 7195, "irms": 7196, " incl": 7197, " Academ": 7198, " rival": 7199, " parking": 7200, " rejected": 7201, " Gall": 7202, " Cat": 7203, " constantly": 7204, "Add": 7205, " Hun": 7206, " payment": 7207, "fast": 7208, " distinct": 7209, " flying": 7210, " rig": 7211, " technologies": 7212, " Real": 7213, "mod": 7214, " Ut": 7215, "</": 7216, " components": 7217, "Police": 7218, " admit": 7219, " Scotland": 7220, " elsewhere": 7221, " Dark": 7222, "dit": 7223, " constit": 7224, " anymore": 7225, "lder": 7226, " Cast": 7227, " fields": 7228, " icon": 7229, " estimates": 7230, "EW": 7231, "sea": 7232, " solutions": 7233, " resulting": 7234, "78": 7235, " Bru": 7236, "urb": 7237, " awesome": 7238, " province": 7239, "sm": 7240, " worldwide": 7241, " actor": 7242, " regularly": 7243, " Moore": 7244, " courts": 7245, " narrative": 7246, "Once": 7247, " boot": 7248, " enemies": 7249, " mixed": 7250, "300": 7251, "regon": 7252, " OS": 7253, " Disney": 7254, "icer": 7255, " houses": 7256, " nobody": 7257, " Sk": 7258, "inations": 7259, " controls": 7260, " Water": 7261, " letters": 7262, "apes": 7263, "agram": 7264, "imp": 7265, "iana": 7266, " 42": 7267, " mayor": 7268, " murd": 7269, " outcome": 7270, " MS": 7271, " contem": 7272, "sell": 7273, " Tem": 7274, "vy": 7275, "Sec": 7276, "odd": 7277, "ship": 7278, " Light": 7279, "isan": 7280, "onic": 7281, " apartment": 7282, " Brian": 7283, " Steven": 7284, " coalition": 7285, " contributed": 7286, " Bas": 7287, " tank": 7288, " concluded": 7289, " Adam": 7290, " exists": 7291, " founder": 7292, " Lew": 7293, " atmosphere": 7294, " profile": 7295, " brew": 7296, " Tw": 7297, " situations": 7298, " Championship": 7299, " loan": 7300, "ls": 7301, " Author": 7302, "rates": 7303, " incredible": 7304, " Constitution": 7305, " signal": 7306, "otes": 7307, " Rog": 7308, " accurate": 7309, "ker": 7310, " Victor": 7311, "otten": 7312, " unp": 7313, " Where": 7314, " Southern": 7315, ".\"[": 7316, " employment": 7317, "earing": 7318, " clients": 7319, " keeps": 7320, "inity": 7321, " informed": 7322, " continuing": 7323, " taste": 7324, " baseball": 7325, " generate": 7326, " ticket": 7327, " conven": 7328, "oft": 7329, "Also": 7330, " Conf": 7331, " weird": 7332, "lock": 7333, " tied": 7334, "adelph": 7335, " category": 7336, "zy": 7337, "ilarly": 7338, "aron": 7339, "acked": 7340, " angry": 7341, " Organ": 7342, " routine": 7343, " kil": 7344, " raising": 7345, "ifer": 7346, " machines": 7347, " registered": 7348, "there": 7349, " proved": 7350, " demands": 7351, " gaming": 7352, " Italian": 7353, " incredibly": 7354, " crucial": 7355, "MP": 7356, " stuck": 7357, " Civil": 7358, " Dallas": 7359, " terrible": 7360, " feedback": 7361, " upper": 7362, " plastic": 7363, " imper": 7364, " newly": 7365, " Joseph": 7366, " consumption": 7367, "rage": 7368, "ept": 7369, " dozen": 7370, " enthus": 7371, " estate": 7372, "ali": 7373, "56": 7374, " innoc": 7375, " manip": 7376, " conscious": 7377, " bills": 7378, " Cross": 7379, " Spain": 7380, "ifications": 7381, "Today": 7382, " writers": 7383, " excess": 7384, "inding": 7385, " aggressive": 7386, " reporter": 7387, " compens": 7388, " returning": 7389, " stead": 7390, " programming": 7391, " Thanks": 7392, " represented": 7393, " conclusion": 7394, "98": 7395, " rus": 7396, " Bowl": 7397, "MS": 7398, " AR": 7399, " origin": 7400, " assistant": 7401, "adelphia": 7402, " roster": 7403, " Minnesota": 7404, " organized": 7405, "ria": 7406, " penalty": 7407, " drinking": 7408, "lers": 7409, " paint": 7410, " satell": 7411, " gro": 7412, " Program": 7413, "eme": 7414, " capture": 7415, " conspir": 7416, " interpret": 7417, " explanation": 7418, "iscal": 7419, " county": 7420, "iscons": 7421, "essed": 7422, " %": 7423, "Dr": 7424, "anny": 7425, "mont": 7426, "gorith": 7427, "isconsin": 7428, " assistance": 7429, "58": 7430, "ima": 7431, " complaint": 7432, " Roman": 7433, "star": 7434, " ru": 7435, " nut": 7436, " magic": 7437, " tall": 7438, " Oper": 7439, " granted": 7440, "Because": 7441, " Contin": 7442, "LA": 7443, "Off": 7444, " Parliament": 7445, " complicated": 7446, "emen": 7447, " chances": 7448, " audio": 7449, " extract": 7450, "bal": 7451, "era": 7452, " Gi": 7453, " 1999": 7454, " Educ": 7455, " shares": 7456, " hel": 7457, " successfully": 7458, "rete": 7459, "esy": 7460, " Win": 7461, " Hot": 7462, " pilot": 7463, " IT": 7464, " Ep": 7465, " myth": 7466, " 00": 7467, " recovery": 7468, " Test": 7469, " techniques": 7470, " iron": 7471, " Care": 7472, " Zeal": 7473, " SC": 7474, " scenes": 7475, " veteran": 7476, " Fre": 7477, " ($": 7478, " degrees": 7479, "actions": 7480, "thew": 7481, " sympt": 7482, " lawmakers": 7483, "ked": 7484, " western": 7485, " operate": 7486, " ads": 7487, "rating": 7488, " habit": 7489, "rep": 7490, " aimed": 7491, "Inst": 7492, "anchester": 7493, " phr": 7494, "idency": 7495, " engaged": 7496, " privile": 7497, " 55": 7498, " rating": 7499, " teaching": 7500, " academic": 7501, " Os": 7502, " therap": 7503, " passes": 7504, " dollar": 7505, " automatically": 7506, "uan": 7507, "itar": 7508, "hent": 7509, " Pacific": 7510, " monit": 7511, " blocks": 7512, "abama": 7513, " attended": 7514, " permanent": 7515, " survive": 7516, " anticip": 7517, " extrem": 7518, " enable": 7519, " Look": 7520, " Foreign": 7521, " chat": 7522, "chain": 7523, "%.": 7524, " marked": 7525, "itals": 7526, " hidden": 7527, " accomp": 7528, " titles": 7529, " Senator": 7530, " NBC": 7531, " taught": 7532, "cr": 7533, " Linux": 7534, " bom": 7535, " index": 7536, "everal": 7537, " elite": 7538, "ibilities": 7539, " lawyers": 7540, " depending": 7541, "from": 7542, " valuable": 7543, " installed": 7544, " championship": 7545, " root": 7546, " compre": 7547, " Bull": 7548, " downtown": 7549, "aed": 7550, "mal": 7551, " equivalent": 7552, " solve": 7553, "rific": 7554, " duty": 7555, " Special": 7556, " Business": 7557, " 64": 7558, " pace": 7559, "HS": 7560, " reputation": 7561, " uncertain": 7562, " phones": 7563, "uine": 7564, " overse": 7565, " Taylor": 7566, " personnel": 7567, " pin": 7568, "reams": 7569, "aturally": 7570, " sufficient": 7571, " visited": 7572, " warming": 7573, " Sn": 7574, " principles": 7575, " vulnerable": 7576, " enjoyed": 7577, " fake": 7578, " Nick": 7579, " advis": 7580, " negotiations": 7581, "inder": 7582, " generated": 7583, " exposure": 7584, " recording": 7585, "bro": 7586, " collected": 7587, " regardless": 7588, " dict": 7589, "EA": 7590, " bitcoin": 7591, " elev": 7592, "\u00e3\u0080": 7593, "active": 7594, " Kelly": 7595, " Anth": 7596, " cup": 7597, " patterns": 7598, "Getty": 7599, " Take": 7600, "))": 7601, " Avenue": 7602, " Josh": 7603, " disaster": 7604, " cable": 7605, " 65": 7606, " worker": 7607, " mainly": 7608, "lla": 7609, " racial": 7610, "quarters": 7611, " Viet": 7612, " Coast": 7613, "month": 7614, " pounds": 7615, " 150": 7616, " Call": 7617, " portion": 7618, " Ah": 7619, " afraid": 7620, " inspir": 7621, " bes": 7622, " defence": 7623, " Eastern": 7624, " Tony": 7625, " tracks": 7626, " busy": 7627, " shit": 7628, "ye": 7629, " intense": 7630, " Series": 7631, " LGBT": 7632, "mann": 7633, "orne": 7634, " Still": 7635, "athy": 7636, " funny": 7637, " apolog": 7638, " surgery": 7639, " Moscow": 7640, " Coll": 7641, " possession": 7642, " prominent": 7643, " Mars": 7644, " comic": 7645, " Ger": 7646, "ashes": 7647, "97": 7648, "ules": 7649, " Ray": 7650, " thin": 7651, " engineering": 7652, " troub": 7653, " Kurd": 7654, "this": 7655, " processes": 7656, " Nation": 7657, " Kent": 7658, " Come": 7659, "fall": 7660, " entit": 7661, " \u00e2\u0080\u0099": 7662, " unusual": 7663, "raph": 7664, "etary": 7665, " describes": 7666, "da": 7667, "world": 7668, "96": 7669, " resulted": 7670, " dim": 7671, " emerged": 7672, " taxp": 7673, " gall": 7674, "iler": 7675, " 400": 7676, " propag": 7677, " Iowa": 7678, " Oregon": 7679, " coordin": 7680, " corruption": 7681, " stations": 7682, " Invest": 7683, "ez": 7684, " fought": 7685, " AD": 7686, " brut": 7687, " extension": 7688, "prise": 7689, " blind": 7690, " adopted": 7691, " compete": 7692, " recru": 7693, " grant": 7694, " Zealand": 7695, " hadn": 7696, "Pr": 7697, " mail": 7698, "ref": 7699, " everywhere": 7700, " Balt": 7701, "Rec": 7702, "Col": 7703, "Mean": 7704, "icate": 7705, " crypt": 7706, "herent": 7707, " contracts": 7708, " Ali": 7709, " neuro": 7710, " Int": 7711, "front": 7712, " Dead": 7713, " Rick": 7714, " feelings": 7715, " firms": 7716, "idelines": 7717, "\u00e2\u0080\u0099,": 7718, " minority": 7719, "tes": 7720, "cles": 7721, "HA": 7722, " advertising": 7723, " spr": 7724, " rarely": 7725, " discipl": 7726, "making": 7727, " Northern": 7728, " sanctions": 7729, " Veg": 7730, "scape": 7731, " Philadelphia": 7732, "upid": 7733, " cameras": 7734, "log": 7735, " explicit": 7736, " strict": 7737, "viously": 7738, " enorm": 7739, " finance": 7740, "gun": 7741, " cited": 7742, "ifies": 7743, " Before": 7744, " shortly": 7745, "UL": 7746, " Policy": 7747, " expectations": 7748, " implementation": 7749, "ogen": 7750, " recip": 7751, "cling": 7752, " Greek": 7753, " thick": 7754, " thousand": 7755, "antic": 7756, " Mu": 7757, "istent": 7758, " loud": 7759, " affili": 7760, "test": 7761, "orough": 7762, "urrent": 7763, " Navy": 7764, " inev": 7765, "cus": 7766, " photograph": 7767, " medium": 7768, "azz": 7769, " Hom": 7770, " Wisconsin": 7771, " scenario": 7772, " Food": 7773, " Live": 7774, " sup": 7775, "ilton": 7776, " plug": 7777, " veget": 7778, "Co": 7779, " ho": 7780, " visible": 7781, " lights": 7782, "LC": 7783, " creates": 7784, " priority": 7785, " ven": 7786, " bridge": 7787, " obst": 7788, "inking": 7789, "ATE": 7790, " agric": 7791, " permission": 7792, "Mar": 7793, " Foot": 7794, " algorith": 7795, "izon": 7796, " participate": 7797, "aska": 7798, " wing": 7799, "who": 7800, "asion": 7801, " tor": 7802, " Prote": 7803, " browser": 7804, " Global": 7805, " tag": 7806, "car": 7807, " Has": 7808, " mel": 7809, " Ash": 7810, " acceler": 7811, "elect": 7812, "###": 7813, " dozens": 7814, " Kingdom": 7815, " historic": 7816, " computers": 7817, " laid": 7818, " basketball": 7819, " losses": 7820, " Saf": 7821, " unw": 7822, "ogether": 7823, "::": 7824, " Amendment": 7825, " strikes": 7826, " principle": 7827, " Development": 7828, " formal": 7829, "EP": 7830, " scoring": 7831, "lan": 7832, "76": 7833, "obs": 7834, "athered": 7835, " 44": 7836, " counsel": 7837, "++": 7838, " shock": 7839, " wonderful": 7840, " SP": 7841, " behalf": 7842, "abs": 7843, " uncom": 7844, "profit": 7845, "igen": 7846, "enth": 7847, "bell": 7848, "ems": 7849, " interface": 7850, " establishment": 7851, " toler": 7852, " Henry": 7853, "lete": 7854, " Greg": 7855, "amber": 7856, " Major": 7857, "iel": 7858, "jo": 7859, " Thus": 7860, "Us": 7861, " gained": 7862, " fee": 7863, " founded": 7864, " foundation": 7865, "etime": 7866, " ESP": 7867, "ilipp": 7868, " clubs": 7869, " cannabis": 7870, " ju": 7871, "54": 7872, "52": 7873, " airport": 7874, "aus": 7875, "ystem": 7876, " Key": 7877, " borrow": 7878, "weet": 7879, "olis": 7880, "BO": 7881, " manufacturing": 7882, " rely": 7883, " Hit": 7884, " Pay": 7885, " Alabama": 7886, " genuine": 7887, " Royal": 7888, "rators": 7889, "Before": 7890, " component": 7891, " ridic": 7892, "osexual": 7893, " wheel": 7894, "rative": 7895, " Oak": 7896, " journalist": 7897, " relief": 7898, "uer": 7899, " saved": 7900, "51": 7901, " hole": 7902, " yield": 7903, " headed": 7904, " cyber": 7905, " Moh": 7906, "she": 7907, " Ol": 7908, "ependent": 7909, " gift": 7910, " withdraw": 7911, " fault": 7912, " indicate": 7913, " drawing": 7914, " uniform": 7915, "umer": 7916, " Rand": 7917, "arlier": 7918, " stable": 7919, " ships": 7920, " ->": 7921, " banned": 7922, " Mid": 7923, " footage": 7924, "Meanwhile": 7925, " doors": 7926, "rous": 7927, " recognized": 7928, " 1960": 7929, " containing": 7930, "pread": 7931, "400": 7932, " FC": 7933, " Vis": 7934, " river": 7935, "mes": 7936, " struggling": 7937, "Sub": 7938, "ba": 7939, " spark": 7940, " Academy": 7941, " walls": 7942, " achieved": 7943, "opher": 7944, "ounced": 7945, " neighb": 7946, " plate": 7947, " edition": 7948, " HT": 7949, "portion": 7950, "mate": 7951, " movements": 7952, " deliber": 7953, "uce": 7954, "Post": 7955, " sharp": 7956, " AS": 7957, " Snow": 7958, "ulating": 7959, " stab": 7960, " Three": 7961, " episodes": 7962, " neutral": 7963, " Premier": 7964, " Ret": 7965, " Fund": 7966, " exception": 7967, "etts": 7968, " producer": 7969, " Fred": 7970, " destruction": 7971, " 1998": 7972, "osa": 7973, "oured": 7974, "ami": 7975, " beliefs": 7976, " 47": 7977, " Review": 7978, " pump": 7979, " legend": 7980, " McG": 7981, " backed": 7982, " liked": 7983, " hired": 7984, "idespread": 7985, "cription": 7986, " roles": 7987, " languages": 7988, " profession": 7989, " entering": 7990, " VR": 7991, "oen": 7992, " interviews": 7993, " hang": 7994, "isp": 7995, " tox": 7996, " philosophy": 7997, " Administration": 7998, " arrange": 7999, " Kir": 8000, " flaw": 8001, " Nob": 8002, "interest": 8003, "Those": 8004, "sylv": 8005, "imore": 8006, " stadium": 8007, " Atlanta": 8008, " Jac": 8009, " reduction": 8010, " dinner": 8011, "burgh": 8012, " bath": 8013, "uper": 8014, " magn": 8015, " Turkish": 8016, " Report": 8017, "eman": 8018, "iti": 8019, " aver": 8020, " finger": 8021, " Note": 8022, " Conference": 8023, " tackle": 8024, "ta": 8025, " cha": 8026, " gonna": 8027, " Diego": 8028, " Centre": 8029, " crop": 8030, " farmers": 8031, " Manchester": 8032, " nominee": 8033, " 41": 8034, " Arm": 8035, "aching": 8036, " Jason": 8037, " barely": 8038, "ATO": 8039, " structures": 8040, " contained": 8041, "ca": 8042, " synt": 8043, " delivery": 8044, " Ott": 8045, "%,": 8046, " processing": 8047, " discrimination": 8048, " convin": 8049, " incent": 8050, "riers": 8051, " Fair": 8052, "erved": 8053, "RS": 8054, "53": 8055, "then": 8056, " Lo": 8057, " Data": 8058, "ja": 8059, "abinet": 8060, " intellectual": 8061, "Ed": 8062, "amsung": 8063, " 46": 8064, " Radio": 8065, " Bry": 8066, "Me": 8067, " OK": 8068, " Field": 8069, " Did": 8070, " upset": 8071, " Perhaps": 8072, " Education": 8073, "sylvania": 8074, "away": 8075, " Mir": 8076, "President": 8077, " challenging": 8078, "rik": 8079, " proven": 8080, " restrictions": 8081, "iy": 8082, " forever": 8083, "https": 8084, "olen": 8085, " electronic": 8086, " hitting": 8087, " Hay": 8088, " euro": 8089, " unex": 8090, " reviews": 8091, " Christians": 8092, " 43": 8093, " Hor": 8094, "Star": 8095, " convicted": 8096, " illness": 8097, " smooth": 8098, "Dav": 8099, "page": 8100, " retired": 8101, " indicated": 8102, "ho": 8103, "usive": 8104, " ham": 8105, " producing": 8106, " Harry": 8107, " About": 8108, " rapidly": 8109, " rose": 8110, " hide": 8111, " corporations": 8112, " ocean": 8113, " NC": 8114, " Rus": 8115, " Point": 8116, "aying": 8117, "owing": 8118, " Sat": 8119, " listening": 8120, " Reuters": 8121, " UFC": 8122, " technique": 8123, " mo": 8124, "yard": 8125, "sels": 8126, "lessly": 8127, " loyal": 8128, " Nic": 8129, " Pen": 8130, " Mean": 8131, " robot": 8132, " notion": 8133, " begun": 8134, " util": 8135, " Fed": 8136, " recognition": 8137, "ouver": 8138, "engers": 8139, " perpet": 8140, " association": 8141, "inf": 8142, " milk": 8143, " asks": 8144, " ren": 8145, "87": 8146, " websites": 8147, " description": 8148, " Pack": 8149, " tickets": 8150, "achus": 8151, " flash": 8152, " suggesting": 8153, "enny": 8154, " Judge": 8155, " exclusive": 8156, " reaching": 8157, " bra": 8158, " prepare": 8159, " Kansas": 8160, "found": 8161, "Who": 8162, "ione": 8163, " bail": 8164, " frag": 8165, " progressive": 8166, "imm": 8167, " exceed": 8168, " equally": 8169, " Hard": 8170, " hardly": 8171, " widespread": 8172, " ABC": 8173, " campaigns": 8174, " Mayor": 8175, " contribute": 8176, "udes": 8177, "elf": 8178, "ologists": 8179, " branch": 8180, "Look": 8181, " Rose": 8182, " grass": 8183, " initiative": 8184, " Market": 8185, " ethnic": 8186, " external": 8187, "ikes": 8188, " Circ": 8189, "uma": 8190, "rient": 8191, " sensitive": 8192, " practical": 8193, "usted": 8194, " unclear": 8195, " normally": 8196, "Ref": 8197, " representative": 8198, "pat": 8199, "bec": 8200, " welf": 8201, " Full": 8202, "thon": 8203, " reducing": 8204, "appy": 8205, "lad": 8206, " friendly": 8207, " carefully": 8208, " Arabia": 8209, " Ref": 8210, "89": 8211, " Ly": 8212, "PM": 8213, " Luc": 8214, " racist": 8215, " invent": 8216, "rical": 8217, "PG": 8218, "ouch": 8219, " CO": 8220, " respectively": 8221, "senal": 8222, " exem": 8223, "rator": 8224, " tail": 8225, " McCain": 8226, " Bernie": 8227, "ancouver": 8228, " overwhelming": 8229, " viewers": 8230, " Beach": 8231, " welfare": 8232, "arrass": 8233, "stract": 8234, " Further": 8235, " convinced": 8236, "UN": 8237, " smoke": 8238, "umes": 8239, " collapse": 8240, " involvement": 8241, " Lind": 8242, " thrown": 8243, "pload": 8244, " connections": 8245, "heast": 8246, " terrorists": 8247, " Battle": 8248, " strategic": 8249, " hook": 8250, " recover": 8251, " Latin": 8252, "omething": 8253, " Ont": 8254, " wine": 8255, " Next": 8256, "Mc": 8257, "inois": 8258, " Music": 8259, "rolled": 8260, " minds": 8261, "igrant": 8262, " vital": 8263, " settlement": 8264, " statistics": 8265, " lists": 8266, " vary": 8267, " featuring": 8268, " ESPN": 8269, "ecut": 8270, "achusetts": 8271, " Sir": 8272, " behaviour": 8273, " independence": 8274, " Dig": 8275, "worth": 8276, " fantasy": 8277, " devast": 8278, "nedy": 8279, "core": 8280, "uties": 8281, " invited": 8282, " complaints": 8283, " joining": 8284, " scores": 8285, " fiscal": 8286, " deeper": 8287, "dem": 8288, " Pennsylvania": 8289, "ester": 8290, "ifest": 8291, " steal": 8292, " anger": 8293, " deputy": 8294, " elig": 8295, " wars": 8296, " Square": 8297, " investigate": 8298, " Tenn": 8299, " Town": 8300, " sugar": 8301, " constitutional": 8302, " III": 8303, " Pit": 8304, " scholars": 8305, " iOS": 8306, " anybody": 8307, " subjects": 8308, " AND": 8309, " array": 8310, "bn": 8311, " alien": 8312, "FA": 8313, " Gov": 8314, " lobby": 8315, " ownership": 8316, " framework": 8317, " Ult": 8318, " unemployment": 8319, " Division": 8320, " transgender": 8321, "ele": 8322, " SS": 8323, " improvements": 8324, " menu": 8325, " peak": 8326, "Back": 8327, " screens": 8328, "ihad": 8329, " inject": 8330, " luck": 8331, "iversary": 8332, " define": 8333, " tasks": 8334, " Xbox": 8335, " democratic": 8336, " scandal": 8337, "icking": 8338, " jury": 8339, " Anton": 8340, " Ministry": 8341, "Che": 8342, " Kat": 8343, " cos": 8344, " comprehens": 8345, "osit": 8346, "unior": 8347, " discovery": 8348, " register": 8349, " Es": 8350, "agg": 8351, " casual": 8352, " remem": 8353, " citizen": 8354, " fab": 8355, "RI": 8356, "Sm": 8357, "Under": 8358, " roads": 8359, " disagree": 8360, " failing": 8361, " Never": 8362, " Little": 8363, " Jay": 8364, " dynamic": 8365, " serves": 8366, " Cameron": 8367, " Brother": 8368, " Mah": 8369, " testim": 8370, " gathered": 8371, " Stone": 8372, " Information": 8373, "asty": 8374, " soph": 8375, "oding": 8376, " implemented": 8377, " controversy": 8378, " collective": 8379, " trained": 8380, "anna": 8381, " NSA": 8382, " neighbour": 8383, " fears": 8384, " guarante": 8385, "leveland": 8386, " samples": 8387, " fiction": 8388, " prosec": 8389, " estimate": 8390, " Community": 8391, " Ice": 8392, " Medical": 8393, " Sept": 8394, " 1997": 8395, " Philipp": 8396, " referring": 8397, " tip": 8398, " captain": 8399, "Will": 8400, " 1996": 8401, " spaces": 8402, "69": 8403, "cific": 8404, " trem": 8405, " Walker": 8406, " versus": 8407, " legs": 8408, " Santa": 8409, " temporary": 8410, "PC": 8411, " noise": 8412, "'.": 8413, " sin": 8414, " HD": 8415, " incorpor": 8416, " tone": 8417, "eland": 8418, "acon": 8419, " overt": 8420, " visitors": 8421, " reven": 8422, " civilians": 8423, " wages": 8424, " hypot": 8425, "aka": 8426, " remarks": 8427, " awareness": 8428, " ON": 8429, " Spring": 8430, " recommended": 8431, " stupid": 8432, " Allen": 8433, " heading": 8434, " handful": 8435, "umin": 8436, " regulation": 8437, "icket": 8438, " Action": 8439, " Core": 8440, " platforms": 8441, " accus": 8442, " Anthony": 8443, "mad": 8444, " affairs": 8445, "gener": 8446, " touchdown": 8447, " rural": 8448, " attacking": 8449, " extend": 8450, " ultimate": 8451, " attached": 8452, " Vegas": 8453, " discussions": 8454, " horse": 8455, " Brew": 8456, " reprodu": 8457, " genetic": 8458, " expanded": 8459, " attempting": 8460, "phones": 8461, " Matthew": 8462, " races": 8463, "including": 8464, " Queen": 8465, "iry": 8466, " raw": 8467, " ignore": 8468, " Columbia": 8469, "serv": 8470, " Pent": 8471, " Guardian": 8472, "hour": 8473, " Cook": 8474, " iP": 8475, "han": 8476, "itionally": 8477, " gear": 8478, " symptoms": 8479, " Patrick": 8480, " suffer": 8481, " settings": 8482, " Make": 8483, "alling": 8484, " salary": 8485, "case": 8486, " licens": 8487, " roof": 8488, "mary": 8489, "GO": 8490, " tweeted": 8491, "angel": 8492, " publication": 8493, " brill": 8494, " factory": 8495, " suspected": 8496, " purchased": 8497, " intervention": 8498, "aret": 8499, " eastern": 8500, " holiday": 8501, "type": 8502, "2014": 8503, " prompt": 8504, "esh": 8505, " theat": 8506, "About": 8507, " displ": 8508, " ranked": 8509, " neck": 8510, " Conservative": 8511, " Austin": 8512, " Museum": 8513, " Roy": 8514, "\")": 8515, " cro": 8516, " Budd": 8517, "Sen": 8518, " enormous": 8519, "intendo": 8520, " cogn": 8521, " logic": 8522, "ultural": 8523, "ictions": 8524, " API": 8525, " improvement": 8526, " viewed": 8527, " ingred": 8528, " entertainment": 8529, "Ass": 8530, " legitimate": 8531, " Professor": 8532, "ommod": 8533, " presum": 8534, " Albert": 8535, " Massachusetts": 8536, " Ball": 8537, " 2019": 8538, " www": 8539, "News": 8540, " actors": 8541, " substantial": 8542, " humanity": 8543, " involves": 8544, " resource": 8545, "arms": 8546, " brothers": 8547, " liquid": 8548, " rational": 8549, " seemingly": 8550, " sorry": 8551, " layer": 8552, " loans": 8553, " rook": 8554, " investigating": 8555, " absence": 8556, " providers": 8557, " tomorrow": 8558, " fallen": 8559, " bureau": 8560, "rec": 8561, " grounds": 8562, " coaches": 8563, " stake": 8564, " resign": 8565, " outs": 8566, " advocates": 8567, " \u00e2\u0082\u00ac": 8568, "RC": 8569, " investigators": 8570, " conspiracy": 8571, " medicine": 8572, " dramatic": 8573, "Where": 8574, " fulf": 8575, " monitor": 8576, " Chair": 8577, "repre": 8578, "EST": 8579, " chapter": 8580, " Season": 8581, " coc": 8582, "oval": 8583, " overs": 8584, "GE": 8585, "lah": 8586, "plete": 8587, ".-": 8588, " activist": 8589, " boat": 8590, " Check": 8591, " Control": 8592, " gam": 8593, " jur": 8594, " suspended": 8595, " papers": 8596, "Script": 8597, " Greece": 8598, " opinions": 8599, " Such": 8600, " Ross": 8601, " missile": 8602, " Golden": 8603, " celeb": 8604, " Revolution": 8605, "ped": 8606, "2016": 8607, " Head": 8608, " stayed": 8609, " covers": 8610, "iverpool": 8611, " diversity": 8612, "otype": 8613, " bars": 8614, "Russ": 8615, "rets": 8616, "xit": 8617, " embarrass": 8618, " offices": 8619, " Acc": 8620, "ourse": 8621, " Pot": 8622, " Ho": 8623, "claim": 8624, "Part": 8625, " Iranian": 8626, " disrupt": 8627, "cover": 8628, " WW": 8629, " preced": 8630, " poly": 8631, " forest": 8632, "wered": 8633, " careful": 8634, "reprene": 8635, "bi": 8636, "vard": 8637, "ila": 8638, " amid": 8639, " History": 8640, " mad": 8641, "hot": 8642, "quest": 8643, " Hospital": 8644, "isting": 8645, "ammed": 8646, " Ale": 8647, " authent": 8648, " Ap": 8649, " Illinois": 8650, " CBS": 8651, " Sony": 8652, "uction": 8653, "79": 8654, "geon": 8655, "Related": 8656, "rine": 8657, " transportation": 8658, " Vancouver": 8659, " Gaza": 8660, " handed": 8661, " protocol": 8662, " consistently": 8663, " mountain": 8664, " 52": 8665, " reads": 8666, " Stat": 8667, " pref": 8668, " clothes": 8669, " attitude": 8670, "iability": 8671, "ection": 8672, " Po": 8673, " Share": 8674, " Kennedy": 8675, " porn": 8676, " princip": 8677, " Freedom": 8678, "ses": 8679, " depends": 8680, " mining": 8681, "des": 8682, " petition": 8683, " noting": 8684, " conce": 8685, " colors": 8686, " lowest": 8687, " Anderson": 8688, " warrant": 8689, " Tri": 8690, " addressed": 8691, " Family": 8692, "72": 8693, " Ra": 8694, "unes": 8695, " entr": 8696, "ptions": 8697, "xx": 8698, " Stadium": 8699, " throwing": 8700, " je": 8701, "74": 8702, " virtually": 8703, " fruit": 8704, "!)": 8705, " stone": 8706, " foss": 8707, " guarantee": 8708, " referend": 8709, "inch": 8710, "Both": 8711, "??": 8712, " speaks": 8713, " Baltimore": 8714, " steel": 8715, " closing": 8716, "itting": 8717, " reader": 8718, " Cre": 8719, "dri": 8720, "FF": 8721, " buff": 8722, " personality": 8723, " appreciate": 8724, " surf": 8725, " Iraqi": 8726, "pton": 8727, " Environment": 8728, " nerv": 8729, "iences": 8730, "maker": 8731, "keep": 8732, " handling": 8733, " profits": 8734, "ordon": 8735, " grav": 8736, "low": 8737, " km": 8738, " marks": 8739, " tries": 8740, " Broad": 8741, " Ext": 8742, " contributions": 8743, " Engine": 8744, "ropri": 8745, " spiritual": 8746, " conversations": 8747, " fantastic": 8748, " Tro": 8749, "zed": 8750, " lands": 8751, " console": 8752, " horror": 8753, "ppers": 8754, "\".[": 8755, "icity": 8756, " gains": 8757, "Her": 8758, " covering": 8759, " tea": 8760, "ivals": 8761, " Harris": 8762, " astron": 8763, " hint": 8764, "aval": 8765, " shoulder": 8766, "scale": 8767, " wrest": 8768, " guest": 8769, " accommod": 8770, "uted": 8771, "uits": 8772, " depression": 8773, " CA": 8774, " _": 8775, " Lewis": 8776, " lucky": 8777, " Bang": 8778, " encouraged": 8779, "flix": 8780, "amac": 8781, " judges": 8782, " incidents": 8783, " Cleveland": 8784, " drew": 8785, " subsequent": 8786, " spoken": 8787, "ira": 8788, " Ren": 8789, " Howard": 8790, " Bad": 8791, " brown": 8792, " bacter": 8793, "Please": 8794, "ixed": 8795, "annels": 8796, " rhet": 8797, " ranks": 8798, " Getty": 8799, " photograp": 8800, " inflation": 8801, " inner": 8802, " Intelligence": 8803, "mat": 8804, " Ba": 8805, " maps": 8806, "abeth": 8807, " Patri": 8808, "ported": 8809, "ijing": 8810, "plate": 8811, " divided": 8812, " 1995": 8813, " NATO": 8814, " paralle": 8815, " drama": 8816, " Mexican": 8817, " distributed": 8818, " gal": 8819, " innovation": 8820, "unicip": 8821, " cust": 8822, " Unfortunately": 8823, " premium": 8824, " voter": 8825, " permit": 8826, " revel": 8827, " Kong": 8828, " dance": 8829, "pled": 8830, " swing": 8831, " Las": 8832, " efficiency": 8833, " promises": 8834, " Indeed": 8835, "Note": 8836, " CH": 8837, " Which": 8838, " Adv": 8839, " ballot": 8840, " 51": 8841, "eding": 8842, " temperatures": 8843, " Samsung": 8844, " portray": 8845, " spokesperson": 8846, " locked": 8847, " lying": 8848, " improving": 8849, "800": 8850, " threw": 8851, " joy": 8852, " dump": 8853, " musical": 8854, "PP": 8855, " mistakes": 8856, "dated": 8857, " shout": 8858, "conf": 8859, " homeless": 8860, " replacement": 8861, "eries": 8862, " Start": 8863, " comedy": 8864, " checks": 8865, " Moon": 8866, " Without": 8867, " instrument": 8868, "ounce": 8869, " Connect": 8870, " acknowledged": 8871, " barrel": 8872, " responses": 8873, " protecting": 8874, "backs": 8875, " Det": 8876, "\u00c2\u0092": 8877, "heim": 8878, " silver": 8879, " copies": 8880, " les": 8881, " AC": 8882, " dad": 8883, " breaks": 8884, " Plus": 8885, " Buff": 8886, " commonly": 8887, " lets": 8888, " legacy": 8889, "itage": 8890, " mathem": 8891, " protein": 8892, "een": 8893, " joke": 8894, "amacare": 8895, "erted": 8896, " passengers": 8897, "2015": 8898, " yellow": 8899, " Marvel": 8900, "hop": 8901, " naturally": 8902, "Your": 8903, " Scient": 8904, " nomination": 8905, "Source": 8906, " measured": 8907, "aping": 8908, "alia": 8909, " Use": 8910, " abandoned": 8911, "oded": 8912, " Prince": 8913, " studied": 8914, " Football": 8915, "Art": 8916, "helsea": 8917, " diverse": 8918, "asted": 8919, " rom": 8920, "argo": 8921, " acquired": 8922, "ieties": 8923, " Lyn": 8924, "Cons": 8925, " Marsh": 8926, " soil": 8927, " demonstrated": 8928, " rear": 8929, " funded": 8930, " headquarters": 8931, "hesis": 8932, "esty": 8933, " stolen": 8934, "inians": 8935, " scan": 8936, " counts": 8937, " tape": 8938, " partnership": 8939, " midfield": 8940, " NOT": 8941, " (\u00e2\u0080\u009c": 8942, " upgrade": 8943, "yo": 8944, " Cost": 8945, " Atlantic": 8946, " march": 8947, " grid": 8948, " ordinary": 8949, " Aud": 8950, " Nev": 8951, "aware": 8952, " literature": 8953, " plain": 8954, " stages": 8955, "high": 8956, " \u00e2\u0080\u00a2": 8957, " assert": 8958, "yer": 8959, " 1994": 8960, " AI": 8961, " helpful": 8962, " arrive": 8963, " exit": 8964, " scope": 8965, " falls": 8966, "dog": 8967, " ignored": 8968, "BM": 8969, " twenty": 8970, "eters": 8971, " Master": 8972, " clock": 8973, " compe": 8974, "inction": 8975, " virus": 8976, " Trib": 8977, " referendum": 8978, " inequ": 8979, " unions": 8980, " Does": 8981, "assador": 8982, "erg": 8983, " conservatives": 8984, " Gun": 8985, " rif": 8986, " symp": 8987, " festival": 8988, " shopping": 8989, " fro": 8990, " waters": 8991, " Pop": 8992, " capabilities": 8993, " Bron": 8994, " ax": 8995, "zing": 8996, "lahoma": 8997, " usage": 8998, " Hind": 8999, "iate": 9000, " Empire": 9001, "aeda": 9002, " Indiana": 9003, "iley": 9004, " transactions": 9005, " hoped": 9006, "VE": 9007, " distract": 9008, " guitar": 9009, " Eag": 9010, "ctic": 9011, " Abb": 9012, " sty": 9013, " ramp": 9014, " assessment": 9015, " universities": 9016, " Dave": 9017, " moon": 9018, "ormal": 9019, " monitoring": 9020, "acket": 9021, "bridge": 9022, "Facebook": 9023, " representing": 9024, " Death": 9025, " ratio": 9026, "encing": 9027, "ught": 9028, " Prov": 9029, " Ast": 9030, "orge": 9031, " conventional": 9032, "comes": 9033, "UST": 9034, " Set": 9035, " trave": 9036, "ington": 9037, " tracking": 9038, "door": 9039, "ntil": 9040, "pie": 9041, " Sometimes": 9042, "only": 9043, "shire": 9044, " Sus": 9045, " hung": 9046, " reliable": 9047, " tie": 9048, " proposals": 9049, " skept": 9050, " replied": 9051, "uh": 9052, " Ros": 9053, " criticized": 9054, " appearances": 9055, "62": 9056, "ecutive": 9057, " racism": 9058, " Lim": 9059, " Ha": 9060, " insisted": 9061, "organ": 9062, "rimin": 9063, " introduction": 9064, " 2020": 9065, " appointed": 9066, "dney": 9067, " Bureau": 9068, "olph": 9069, "agic": 9070, " Pass": 9071, "cut": 9072, " Line": 9073, " beauty": 9074, " concrete": 9075, " receiver": 9076, "fund": 9077, " supplies": 9078, " performing": 9079, "made": 9080, " Jam": 9081, " bub": 9082, " exch": 9083, "rite": 9084, " Hell": 9085, " visiting": 9086, " Technology": 9087, "63": 9088, " Denver": 9089, "ocument": 9090, "EE": 9091, "omes": 9092, "theless": 9093, " Capt": 9094, "RL": 9095, " letting": 9096, " swim": 9097, "AND": 9098, " deficit": 9099, "ji": 9100, " classified": 9101, " Galaxy": 9102, "aga": 9103, " render": 9104, " absor": 9105, " Orig": 9106, " accomplish": 9107, " auto": 9108, " programme": 9109, "Ke": 9110, " presidency": 9111, "HT": 9112, "crib": 9113, "61": 9114, " blocked": 9115, " Sweden": 9116, " ec": 9117, "archy": 9118, " dust": 9119, " Utah": 9120, " drove": 9121, " landscape": 9122, " cance": 9123, " Portland": 9124, "plus": 9125, " dismissed": 9126, " LA": 9127, " hyper": 9128, " abroad": 9129, " bonus": 9130, " Tour": 9131, " sequence": 9132, " predicted": 9133, " senator": 9134, "\u00c2\u00b0": 9135, " Age": 9136, "ela": 9137, " domain": 9138, " Code": 9139, " Bon": 9140, " museum": 9141, " warn": 9142, " Associated": 9143, " persons": 9144, "NS": 9145, " dub": 9146, " requested": 9147, " trigger": 9148, " Ontario": 9149, " Corpor": 9150, " hockey": 9151, " artific": 9152, " dates": 9153, " testimony": 9154, " centers": 9155, "iano": 9156, "\u00d0\u00bb": 9157, " rocket": 9158, "irts": 9159, " ves": 9160, " transit": 9161, " congressional": 9162, " entitled": 9163, "ultane": 9164, "acco": 9165, " spokeswoman": 9166, " Front": 9167, " Nintendo": 9168, " Alexander": 9169, " rescue": 9170, " Cooper": 9171, "mony": 9172, " assign": 9173, " equality": 9174, " patch": 9175, " urged": 9176, " bread": 9177, " Olympic": 9178, " documentary": 9179, " veterans": 9180, " clar": 9181, "fol": 9182, " Wik": 9183, " \u00e2\u0080\u009d": 9184, "king": 9185, " recall": 9186, " populations": 9187, " breath": 9188, " Low": 9189, "Still": 9190, "600": 9191, "rooms": 9192, "ounding": 9193, "Are": 9194, " whenever": 9195, " violation": 9196, " tactics": 9197, " wider": 9198, "93": 9199, " targeting": 9200, "Yet": 9201, "through": 9202, " pursue": 9203, "92": 9204, "\">": 9205, " lean": 9206, " salt": 9207, "izabeth": 9208, " firing": 9209, "94": 9210, " Mill": 9211, "Comp": 9212, " acid": 9213, "inating": 9214, " mole": 9215, "har": 9216, "isons": 9217, " restaurants": 9218, " compare": 9219, "fare": 9220, "dy": 9221, "orous": 9222, "ective": 9223, "ennis": 9224, " employed": 9225, " Roberts": 9226, " contrad": 9227, " Bible": 9228, " politically": 9229, "aver": 9230, " phrase": 9231, " satellite": 9232, " Cro": 9233, " survival": 9234, " retirement": 9235, " banking": 9236, " Form": 9237, " brilliant": 9238, " Girl": 9239, " channels": 9240, "71": 9241, " servers": 9242, "73": 9243, " Beijing": 9244, " soccer": 9245, "trans": 9246, " Mach": 9247, "they": 9248, " burden": 9249, " introduce": 9250, " experiments": 9251, "atar": 9252, "enez": 9253, " prisoners": 9254, "rapped": 9255, " cig": 9256, " WH": 9257, "jud": 9258, " fighter": 9259, "afe": 9260, " scientist": 9261, "OK": 9262, " YOU": 9263, "usalem": 9264, " List": 9265, " submit": 9266, " approached": 9267, " Award": 9268, " monthly": 9269, " Liverpool": 9270, "rell": 9271, " designs": 9272, " representatives": 9273, " cul": 9274, " titled": 9275, "ordinary": 9276, " quote": 9277, " popularity": 9278, "olves": 9279, "oenix": 9280, " abilities": 9281, " PD": 9282, " membership": 9283, " investigations": 9284, " focusing": 9285, " bab": 9286, "mans": 9287, " hosp": 9288, " Bridge": 9289, "Though": 9290, " Maryland": 9291, " saving": 9292, "bow": 9293, " rush": 9294, " Governor": 9295, " mit": 9296, " shadow": 9297, "ouri": 9298, " Hur": 9299, " Base": 9300, " objective": 9301, "berry": 9302, " encry": 9303, " Ted": 9304, "erts": 9305, "ederation": 9306, " prepar": 9307, " tips": 9308, " Was": 9309, " pipeline": 9310, "David": 9311, " childhood": 9312, " ratings": 9313, " thorough": 9314, " entreprene": 9315, "enter": 9316, " Vill": 9317, " Dutch": 9318, "was": 9319, "break": 9320, "ais": 9321, " actively": 9322, " Kar": 9323, " Harvard": 9324, " pig": 9325, " demanding": 9326, " loose": 9327, "emed": 9328, " unexpected": 9329, " smoking": 9330, " smell": 9331, " deny": 9332, "CO": 9333, "don": 9334, " universal": 9335, "ika": 9336, " forecast": 9337, " argues": 9338, " phenomenon": 9339, " overseas": 9340, " settled": 9341, "walk": 9342, "olds": 9343, " Beck": 9344, " generations": 9345, " weekly": 9346, " chicken": 9347, "tel": 9348, " preparing": 9349, " 95": 9350, " smartphone": 9351, " producers": 9352, " butt": 9353, " PA": 9354, " legislative": 9355, " Cry": 9356, " anxiety": 9357, " Have": 9358, " innocent": 9359, "minute": 9360, " Click": 9361, " mortg": 9362, " celebrate": 9363, " provision": 9364, "Dem": 9365, " DO": 9366, " Ur": 9367, " keys": 9368, " mini": 9369, " shame": 9370, " arguing": 9371, " Justin": 9372, " Design": 9373, "held": 9374, " questioned": 9375, " forcing": 9376, " Cow": 9377, " Hop": 9378, "agh": 9379, "ompson": 9380, "\u00e2\u0094": 9381, " broader": 9382, " encounter": 9383, "mers": 9384, " flags": 9385, "SL": 9386, " fool": 9387, "Sim": 9388, " fur": 9389, " mac": 9390, " 53": 9391, " deadly": 9392, " reverse": 9393, " weigh": 9394, " Edward": 9395, " Among": 9396, " tens": 9397, " ~": 9398, " mos": 9399, " wealthy": 9400, " Obamacare": 9401, " unpre": 9402, " tab": 9403, " maintained": 9404, "eals": 9405, " surely": 9406, " shield": 9407, " Prop": 9408, "ocolate": 9409, "oret": 9410, " secondary": 9411, " savings": 9412, "isa": 9413, "irlf": 9414, "aved": 9415, " stability": 9416, " civilian": 9417, "\u00c4\u0083": 9418, " Carter": 9419, " reveals": 9420, "mind": 9421, " alarm": 9422, "elson": 9423, " anniversary": 9424, " sorts": 9425, " Bra": 9426, " Ak": 9427, "vernment": 9428, " tonight": 9429, "El": 9430, " releases": 9431, " Hon": 9432, " rooms": 9433, "irlfriend": 9434, " Gulf": 9435, " outrage": 9436, " prosecutors": 9437, " Left": 9438, "inals": 9439, " disorder": 9440, "84": 9441, " wedd": 9442, " exha": 9443, "orious": 9444, "isk": 9445, " shr": 9446, " relax": 9447, " windows": 9448, " threatening": 9449, " differently": 9450, "pa": 9451, " harassment": 9452, " quoted": 9453, " healthcare": 9454, " submitted": 9455, " arbit": 9456, "step": 9457, " lunch": 9458, " Run": 9459, " reforms": 9460, " torture": 9461, "rection": 9462, " fate": 9463, " stored": 9464, " Belg": 9465, " okay": 9466, " propaganda": 9467, " spots": 9468, " instructions": 9469, " Vietnam": 9470, " sevent": 9471, " rounds": 9472, " odds": 9473, "itter": 9474, " 1992": 9475, " aer": 9476, "html": 9477, "tenance": 9478, " errors": 9479, " Oklahoma": 9480, " hydro": 9481, "icism": 9482, "GA": 9483, " delic": 9484, "ailed": 9485, " Liberal": 9486, " silence": 9487, " Graham": 9488, " Sab": 9489, "acts": 9490, " Warren": 9491, " graduate": 9492, " circle": 9493, " affordable": 9494, "sect": 9495, "ois": 9496, " Bloom": 9497, "oz": 9498, " cooperation": 9499, " picks": 9500, " sear": 9501, "itary": 9502, " Sarah": 9503, " Fall": 9504, "orship": 9505, "aa": 9506, " Expl": 9507, "van": 9508, " striking": 9509, " puzz": 9510, " persu": 9511, " streaming": 9512, " comprehensive": 9513, " importantly": 9514, " cow": 9515, " possess": 9516, "Watch": 9517, " fing": 9518, " execution": 9519, " Ruby": 9520, "lined": 9521, " intim": 9522, " struggled": 9523, " Som": 9524, " Person": 9525, " Silver": 9526, " assass": 9527, " Leader": 9528, "uten": 9529, "ahu": 9530, " gent": 9531, " Price": 9532, "Reuters": 9533, "Ty": 9534, "ishop": 9535, " deserve": 9536, " Jerusalem": 9537, " landing": 9538, " calm": 9539, " alter": 9540, " hal": 9541, " ceremony": 9542, " assumed": 9543, " demonstrate": 9544, " difficulty": 9545, "fr": 9546, " ages": 9547, " pron": 9548, " dying": 9549, " distingu": 9550, "asury": 9551, "ethe": 9552, " stepped": 9553, " borders": 9554, "asting": 9555, " chest": 9556, " Wolf": 9557, " Lt": 9558, "bury": 9559, " Bud": 9560, " adventure": 9561, " pointing": 9562, "ova": 9563, " waves": 9564, " kilomet": 9565, "essee": 9566, "atern": 9567, " Deb": 9568, "ierce": 9569, " Netflix": 9570, " autonom": 9571, " precisely": 9572, " architecture": 9573, " greatly": 9574, " Ten": 9575, " promising": 9576, " consent": 9577, " consideration": 9578, " drives": 9579, " dialogue": 9580, " Main": 9581, " tremend": 9582, " newsletter": 9583, " rookie": 9584, "asant": 9585, " awarded": 9586, " Meanwhile": 9587, "after": 9588, " repeat": 9589, " Story": 9590, " contribution": 9591, " Tele": 9592, " burning": 9593, "83": 9594, "party": 9595, " simultane": 9596, " Scottish": 9597, " Vice": 9598, "akh": 9599, " donations": 9600, " Indust": 9601, " interf": 9602, "itol": 9603, " Magic": 9604, " voices": 9605, " analyst": 9606, " Bruce": 9607, " Tech": 9608, "ceptions": 9609, " gif": 9610, " frequency": 9611, " Common": 9612, " procedure": 9613, " wanting": 9614, " Pres": 9615, " executives": 9616, " playoffs": 9617, "oice": 9618, " staying": 9619, "apolis": 9620, " birds": 9621, " bias": 9622, "iev": 9623, "VD": 9624, " Hong": 9625, " Az": 9626, "izer": 9627, " inches": 9628, " trillion": 9629, "ds": 9630, "omy": 9631, "holders": 9632, " highlights": 9633, " semi": 9634, " remarkable": 9635, " whereas": 9636, "EX": 9637, "ributes": 9638, " Palestinians": 9639, " knee": 9640, "open": 9641, " Jonathan": 9642, "raig": 9643, " implications": 9644, "scribe": 9645, " formation": 9646, " superior": 9647, " strategies": 9648, " ans": 9649, "itual": 9650, " Berlin": 9651, "div": 9652, " Link": 9653, " Sydney": 9654, "stal": 9655, " MORE": 9656, "lee": 9657, " categories": 9658, " Ark": 9659, " fet": 9660, " followers": 9661, " cream": 9662, "Story": 9663, "portation": 9664, "FO": 9665, " contacted": 9666, "Ms": 9667, " judgment": 9668, "annon": 9669, " smile": 9670, "bered": 9671, " info": 9672, " emerging": 9673, "igious": 9674, "rif": 9675, "js": 9676, "yes": 9677, "onder": 9678, "vision": 9679, " Eff": 9680, "vertisements": 9681, "iffs": 9682, " accessible": 9683, "hatt": 9684, "TP": 9685, " physically": 9686, " assigned": 9687, " 54": 9688, " guidelines": 9689, " defeated": 9690, " crimin": 9691, " wounded": 9692, " trials": 9693, " stem": 9694, " managing": 9695, " spell": 9696, " ministry": 9697, " grade": 9698, " coinc": 9699, " riding": 9700, " indicates": 9701, " centuries": 9702, "Christ": 9703, "cest": 9704, " Affairs": 9705, " opens": 9706, "aki": 9707, " pharm": 9708, " meaningful": 9709, "omed": 9710, " tiss": 9711, " Mrs": 9712, " ease": 9713, "child": 9714, " margin": 9715, " Store": 9716, " clothing": 9717, " Six": 9718, " \u00e2\u0088\u0092": 9719, " Tes": 9720, " Capital": 9721, " participation": 9722, "cedented": 9723, "Mus": 9724, " revers": 9725, "aria": 9726, "Int": 9727, " poison": 9728, " Brexit": 9729, " 120": 9730, " Yemen": 9731, " lapt": 9732, " competing": 9733, "iac": 9734, " memories": 9735, " CS": 9736, " theories": 9737, " recipe": 9738, " gross": 9739, "umble": 9740, "author": 9741, "hard": 9742, " passage": 9743, " aged": 9744, " Credit": 9745, " bin": 9746, " drone": 9747, " blank": 9748, " dispute": 9749, " damaged": 9750, " 1993": 9751, " Hamilton": 9752, "base": 9753, " substance": 9754, " hosted": 9755, "TER": 9756, "Google": 9757, " Chelsea": 9758, " Lam": 9759, " promoting": 9760, " facilit": 9761, " openly": 9762, " Instagram": 9763, " 1950": 9764, "even": 9765, " Vik": 9766, "View": 9767, " Children": 9768, "sl": 9769, " Crime": 9770, " clinical": 9771, "Out": 9772, " nic": 9773, "bits": 9774, "rer": 9775, "eremy": 9776, " Hold": 9777, "erent": 9778, " investments": 9779, " consensus": 9780, " Fal": 9781, "igate": 9782, " Leon": 9783, " 99": 9784, " educational": 9785, "const": 9786, "->": 9787, " dish": 9788, " manifest": 9789, " custody": 9790, "week": 9791, " eligible": 9792, " Hawai": 9793, "ito": 9794, " legally": 9795, " missions": 9796, " endorse": 9797, " gate": 9798, " memo": 9799, "eria": 9800, " GT": 9801, " tables": 9802, " Pict": 9803, " nin": 9804, " studying": 9805, "Hz": 9806, " ?": 9807, " charity": 9808, "aration": 9809, "adi": 9810, " addresses": 9811, " inspect": 9812, " discount": 9813, "rix": 9814, "left": 9815, " battles": 9816, "ALL": 9817, " Der": 9818, " 250": 9819, " Assembly": 9820, " athletes": 9821, " Trade": 9822, " fossil": 9823, " enthusi": 9824, " Management": 9825, " suspects": 9826, " tired": 9827, " helic": 9828, "Pre": 9829, "Act": 9830, " counterpart": 9831, " na": 9832, "82": 9833, " dating": 9834, " Eth": 9835, " spectrum": 9836, " Metro": 9837, "ateral": 9838, " Station": 9839, " Bal": 9840, " presentation": 9841, " lux": 9842, "gered": 9843, " bottle": 9844, " tap": 9845, "riors": 9846, " vig": 9847, " fundra": 9848, " enhance": 9849, " Sean": 9850, "assy": 9851, " therapy": 9852, " Wales": 9853, " Exper": 9854, " perceived": 9855, "market": 9856, " Tok": 9857, "Def": 9858, "math": 9859, " backing": 9860, " Festival": 9861, " underlying": 9862, " defending": 9863, " Through": 9864, " racing": 9865, " discussing": 9866, " expanding": 9867, " muscle": 9868, " stops": 9869, " dominant": 9870, "uz": 9871, " beings": 9872, " Marx": 9873, " Equ": 9874, " transaction": 9875, "rows": 9876, "achel": 9877, " Uber": 9878, "Cal": 9879, " recruit": 9880, "itudes": 9881, " Gary": 9882, " mood": 9883, " picking": 9884, "lando": 9885, " Mit": 9886, "ylum": 9887, "player": 9888, "acher": 9889, " managers": 9890, "orable": 9891, " gathering": 9892, " hopefully": 9893, "angle": 9894, " Son": 9895, "alysis": 9896, "section": 9897, " Video": 9898, " crus": 9899, " Libya": 9900, " impression": 9901, "olar": 9902, " hip": 9903, "\u00c3\u00a2": 9904, " scrut": 9905, " roy": 9906, " Tai": 9907, "igenous": 9908, " institution": 9909, " Batman": 9910, "}}": 9911, " stere": 9912, " procedures": 9913, " Andre": 9914, "\u00c3\u00b1": 9915, " pocket": 9916, " creatures": 9917, " Boe": 9918, " compat": 9919, " arrival": 9920, "oln": 9921, "watch": 9922, " eager": 9923, " pollution": 9924, "iture": 9925, " foods": 9926, " kitchen": 9927, "ocial": 9928, " recre": 9929, " surviv": 9930, " Morgan": 9931, "roph": 9932, " organic": 9933, " Pentagon": 9934, " shipping": 9935, "aders": 9936, " capitalism": 9937, " timing": 9938, "odox": 9939, " insult": 9940, " requirement": 9941, " Bi": 9942, " unfair": 9943, "sub": 9944, " Op": 9945, " mice": 9946, " 56": 9947, " Assad": 9948, " Represent": 9949, " Mess": 9950, " MLS": 9951, "Mod": 9952, "Rem": 9953, "atively": 9954, " Elizabeth": 9955, " diseases": 9956, " industries": 9957, " Oakland": 9958, " bowl": 9959, " Murray": 9960, " Creat": 9961, " helicop": 9962, " divor": 9963, "agger": 9964, " beach": 9965, " punishment": 9966, "abet": 9967, " shell": 9968, " fled": 9969, " hospitals": 9970, "missions": 9971, " tons": 9972, " Kick": 9973, " seed": 9974, "ogy": 9975, "AF": 9976, "81": 9977, " Comey": 9978, "opyright": 9979, " terr": 9980, " statist": 9981, " engineers": 9982, " obsc": 9983, " hire": 9984, " module": 9985, "Reg": 9986, "AY": 9987, " coaching": 9988, "amous": 9989, " sed": 9990, "oca": 9991, " answered": 9992, "SC": 9993, "TR": 9994, " graphics": 9995, " intr": 9996, " regulatory": 9997, " sovere": 9998, " stance": 9999, " bow": 10000, " Keep": 10001, "alties": 10002, "Click": 10003, " explaining": 10004, " rhetoric": 10005, " beating": 10006, " tut": 10007, " Friend": 10008, " Email": 10009, "rior": 10010, " Yeah": 10011, " acknowledge": 10012, " Michel": 10013, " principal": 10014, " pulling": 10015, "erves": 10016, " signature": 10017, "brid": 10018, "olving": 10019, " convince": 10020, " Roll": 10021, " variable": 10022, "cosystem": 10023, " pill": 10024, " searching": 10025, " Ox": 10026, " dies": 10027, " overcome": 10028, "Ge": 10029, " preferred": 10030, "duction": 10031, " sixth": 10032, " adviser": 10033, " Tennessee": 10034, " !": 10035, " trends": 10036, " Russell": 10037, " (\"": 10038, " Thompson": 10039, " merch": 10040, " rebels": 10041, " interaction": 10042, " periods": 10043, " psychological": 10044, "Mich": 10045, " Sure": 10046, "emic": 10047, " Using": 10048, " economics": 10049, " Charlie": 10050, " outlets": 10051, " Gil": 10052, " signals": 10053, "pg": 10054, " echo": 10055, " Executive": 10056, " Kentucky": 10057, " tempor": 10058, " billions": 10059, " lineup": 10060, " Yan": 10061, " math": 10062, "urg": 10063, "arre": 10064, "2013": 10065, " 1991": 10066, " setup": 10067, " rend": 10068, "Finally": 10069, "netic": 10070, " eggs": 10071, "Comm": 10072, " segment": 10073, " badly": 10074, "mic": 10075, " arr": 10076, " Li": 10077, "kee": 10078, " sentenced": 10079, " everyday": 10080, " Jean": 10081, " Dragon": 10082, " commander": 10083, " Hart": 10084, " Holl": 10085, " AN": 10086, " loves": 10087, "unicipal": 10088, " genes": 10089, "will": 10090, "ui": 10091, "NBC": 10092, " bold": 10093, " requiring": 10094, " bullet": 10095, " invasion": 10096, " Intel": 10097, " partly": 10098, " escal": 10099, "91": 10100, "check": 10101, "!!!": 10102, " gene": 10103, " arts": 10104, " removal": 10105, " undert": 10106, " upload": 10107, " instant": 10108, "liest": 10109, " topics": 10110, " Iron": 10111, "enezuel": 10112, " inquiry": 10113, " amendment": 10114, " weakness": 10115, " Rather": 10116, " concepts": 10117, "news": 10118, " McK": 10119, "PL": 10120, " shoes": 10121, "cor": 10122, " Sound": 10123, "grade": 10124, " fabric": 10125, " Ze": 10126, "izza": 10127, "Earlier": 10128, " Delhi": 10129, "tsburgh": 10130, " frequent": 10131, "via": 10132, " sections": 10133, " occurs": 10134, "oli": 10135, " migrants": 10136, " compensation": 10137, " Box": 10138, " engineer": 10139, "eness": 10140, " gig": 10141, " lad": 10142, "has": 10143, " Finally": 10144, " fo": 10145, " attractive": 10146, " unve": 10147, " ).": 10148, " citing": 10149, " tweets": 10150, " utility": 10151, "arency": 10152, " posting": 10153, " ridiculous": 10154, " blockchain": 10155, " cler": 10156, " Clark": 10157, " speaker": 10158, "\u00e2\u0094\u0080": 10159, " diam": 10160, "\u00d8\u00a7": 10161, " corrupt": 10162, " talented": 10163, " lect": 10164, " collaps": 10165, " mask": 10166, "\u00e2\u0080\u0090": 10167, "necess": 10168, "screen": 10169, " notable": 10170, " Therefore": 10171, " elder": 10172, " genre": 10173, "instein": 10174, " deadline": 10175, " rolling": 10176, " carries": 10177, " BM": 10178, "Top": 10179, " Final": 10180, " ET": 10181, "ental": 10182, " approaches": 10183, " eliminate": 10184, " Priv": 10185, " analysts": 10186, " sits": 10187, " cens": 10188, "State": 10189, " instances": 10190, " Simon": 10191, " publishing": 10192, " unprecedented": 10193, " colour": 10194, " roots": 10195, " Phoenix": 10196, "VP": 10197, " cock": 10198, " bene": 10199, " Dur": 10200, " Psych": 10201, " toxic": 10202, " Heart": 10203, "gus": 10204, " collaboration": 10205, " arc": 10206, " inequality": 10207, " neighbors": 10208, " insight": 10209, " dramatically": 10210, " Harper": 10211, " homosexual": 10212, " towns": 10213, " prize": 10214, " extraordinary": 10215, " perception": 10216, " Gordon": 10217, " Whether": 10218, " Phill": 10219, " parad": 10220, " gest": 10221, "arget": 10222, " maintenance": 10223, "owski": 10224, " GO": 10225, " cheaper": 10226, "isdom": 10227, " associate": 10228, "die": 10229, " coup": 10230, " Gro": 10231, "Mark": 10232, " Event": 10233, " sheet": 10234, " Bow": 10235, " Below": 10236, " distur": 10237, " Sav": 10238, "pack": 10239, " Captain": 10240, " cognitive": 10241, " encouraging": 10242, " dreams": 10243, " Pers": 10244, " seized": 10245, " interviewed": 10246, " deployed": 10247, " violations": 10248, " camps": 10249, " comics": 10250, " constitu": 10251, " Reagan": 10252, " glad": 10253, " reserved": 10254, " buck": 10255, " employers": 10256, "atus": 10257, " aims": 10258, " functional": 10259, " mystery": 10260, " displayed": 10261, "Paul": 10262, "iban": 10263, " Sa": 10264, "ested": 10265, " span": 10266, " loop": 10267, "apore": 10268, " delight": 10269, "cre": 10270, " traged": 10271, " Economic": 10272, "ixture": 10273, " 57": 10274, "ricane": 10275, " occasionally": 10276, " vend": 10277, " Sud": 10278, " export": 10279, "TON": 10280, " birthday": 10281, "wa": 10282, "lly": 10283, " heroes": 10284, " fatal": 10285, "estyle": 10286, "oga": 10287, " correctly": 10288, "onz": 10289, " prompted": 10290, " Ve": 10291, " stamp": 10292, " Cole": 10293, " contemporary": 10294, " Access": 10295, " Jenn": 10296, " prospects": 10297, "oting": 10298, " irre": 10299, "AB": 10300, " recommendations": 10301, " diplomatic": 10302, "throp": 10303, "mir": 10304, " pa": 10305, "ighth": 10306, " parallel": 10307, " exclud": 10308, " constitution": 10309, " disappointed": 10310, " manufacturers": 10311, " adequ": 10312, " Staff": 10313, " moderate": 10314, " Ever": 10315, " Dog": 10316, "ols": 10317, " ecosystem": 10318, " accompan": 10319, "eling": 10320, "vi": 10321, " demanded": 10322, "Time": 10323, " 85": 10324, " GDP": 10325, " Photos": 10326, " nose": 10327, " Montreal": 10328, " Dick": 10329, "ailable": 10330, " interpre": 10331, "endar": 10332, " pleased": 10333, "2017": 10334, "rowing": 10335, " labour": 10336, " lifetime": 10337, " Brooklyn": 10338, " Tax": 10339, " Est": 10340, " Reserve": 10341, "rock": 10342, " communicate": 10343, " fights": 10344, " modified": 10345, " drunk": 10346, " Ocean": 10347, " sessions": 10348, " wedding": 10349, "non": 10350, " knock": 10351, " explosion": 10352, " Library": 10353, " biological": 10354, " repair": 10355, " landed": 10356, " EPA": 10357, " 58": 10358, " Authority": 10359, " subsc": 10360, " representation": 10361, " Given": 10362, " artificial": 10363, "250": 10364, "leans": 10365, "Fi": 10366, " relation": 10367, " owns": 10368, "ixon": 10369, " Khan": 10370, " Antonio": 10371, " Digital": 10372, " lift": 10373, "agen": 10374, " designer": 10375, " recon": 10376, "Thanks": 10377, " emp": 10378, " consciousness": 10379, " kicked": 10380, " Order": 10381, " defender": 10382, " hanging": 10383, " lessons": 10384, "hist": 10385, " imposed": 10386, " guests": 10387, " Bul": 10388, " adopt": 10389, " anonymous": 10390, "150": 10391, " sli": 10392, " concerning": 10393, "fit": 10394, "wind": 10395, " pregnant": 10396, " Five": 10397, "incoln": 10398, " underground": 10399, " maintaining": 10400, " asset": 10401, "acre": 10402, " Channel": 10403, " Alan": 10404, " punch": 10405, " Rome": 10406, "bourne": 10407, " shirt": 10408, " ingredients": 10409, "Update": 10410, " cheese": 10411, " intellig": 10412, "graph": 10413, "isition": 10414, " Convention": 10415, " interior": 10416, " podcast": 10417, "\":\"": 10418, " emotions": 10419, "ching": 10420, "human": 10421, " Argent": 10422, " couples": 10423, " abstract": 10424, " lesson": 10425, " creature": 10426, " resolve": 10427, " shocked": 10428, " oppose": 10429, "Whe": 10430, " summit": 10431, " performances": 10432, " SU": 10433, " volunteers": 10434, " Burn": 10435, "Dis": 10436, " Bol": 10437, "some": 10438, " soldier": 10439, "\u00d1\u0083": 10440, " stimul": 10441, " logo": 10442, "bin": 10443, "\u00e0\u00a4": 10444, "appropri": 10445, " vocal": 10446, " accum": 10447, "wich": 10448, " girlfriend": 10449, " Protection": 10450, "istant": 10451, "wed": 10452, "ben": 10453, "ulty": 10454, " jumped": 10455, " annoy": 10456, " Page": 10457, " jihad": 10458, " mile": 10459, " nurs": 10460, "SE": 10461, " Lear": 10462, " 600": 10463, " militants": 10464, "user": 10465, " guid": 10466, " Missouri": 10467, " professionals": 10468, "acles": 10469, "Gener": 10470, "(\"": 10471, " Anna": 10472, "Instead": 10473, "ikh": 10474, "ials": 10475, " butter": 10476, " swit": 10477, " refers": 10478, " desktop": 10479, " traveling": 10480, " libr": 10481, "gets": 10482, " isolated": 10483, " forum": 10484, " advocate": 10485, " existed": 10486, " opposing": 10487, " Coal": 10488, " recalled": 10489, "\u00e2\u0080\u00a6.": 10490, "Station": 10491, " Case": 10492, "Next": 10493, "Israel": 10494, " integration": 10495, " describing": 10496, " boxes": 10497, " JavaScript": 10498, " Fant": 10499, " Orleans": 10500, "early": 10501, " stro": 10502, "Id": 10503, " Hal": 10504, "CD": 10505, " Mail": 10506, " minimal": 10507, "tainment": 10508, " confused": 10509, " Custom": 10510, " SD": 10511, "umph": 10512, " peaceful": 10513, " inherent": 10514, "odge": 10515, " surrounded": 10516, "sa": 10517, "rot": 10518, "gate": 10519, "cal": 10520, "elle": 10521, "owned": 10522, " vert": 10523, " Capitol": 10524, "hattan": 10525, " Hand": 10526, "commun": 10527, "Step": 10528, " holes": 10529, "ext": 10530, " meal": 10531, " 1989": 10532, " integrity": 10533, " Rs": 10534, " Know": 10535, " Player": 10536, "siss": 10537, " pm": 10538, " Ban": 10539, " inspiration": 10540, " configuration": 10541, " sne": 10542, " Trust": 10543, "\u00f0\u009f": 10544, "hero": 10545, " expense": 10546, "issis": 10547, "abe": 10548, " credits": 10549, " Non": 10550, " subur": 10551, " ideology": 10552, " electoral": 10553, " yell": 10554, " silent": 10555, " dual": 10556, " Marine": 10557, " Doctor": 10558, " stack": 10559, " Barb": 10560, " suspic": 10561, " buried": 10562, " Nevada": 10563, "TE": 10564, "\u00c3\u00a7": 10565, "imize": 10566, " desperate": 10567, " Occ": 10568, "starter": 10569, "\u00d0\u00ba": 10570, " scream": 10571, " clip": 10572, " choosing": 10573, " bombs": 10574, "atics": 10575, "Trans": 10576, " CB": 10577, " bands": 10578, " teammates": 10579, " fleet": 10580, " SH": 10581, "iens": 10582, " convert": 10583, "tra": 10584, " acceptable": 10585, " Orlando": 10586, "ibl": 10587, "dr": 10588, " jer": 10589, " Wright": 10590, " registration": 10591, "List": 10592, "Gu": 10593, " Eve": 10594, " Portug": 10595, " Hitler": 10596, " brutal": 10597, "awks": 10598, "SU": 10599, "Net": 10600, " Move": 10601, " scar": 10602, " ancest": 10603, " Online": 10604, " Alliance": 10605, "election": 10606, "too": 10607, " subscribe": 10608, " struggles": 10609, "aro": 10610, " keyboard": 10611, " momentum": 10612, " Leban": 10613, " Area": 10614, " promotion": 10615, " Arsenal": 10616, " Ven": 10617, " evident": 10618, "Fl": 10619, " quit": 10620, "hire": 10621, "father": 10622, "Name": 10623, " organisation": 10624, " Han": 10625, " wondering": 10626, " Indones": 10627, " closest": 10628, "mits": 10629, " embrace": 10630, " Steel": 10631, "books": 10632, "isd": 10633, " Following": 10634, " refugee": 10635, " Hamp": 10636, " teeth": 10637, "ART": 10638, " probe": 10639, " utter": 10640, "Speaking": 10641, "chell": 10642, " athe": 10643, " Word": 10644, " occasional": 10645, " monster": 10646, "strong": 10647, " assembly": 10648, " bankrupt": 10649, " references": 10650, " journalism": 10651, " expenses": 10652, " subsequently": 10653, "grad": 10654, "stop": 10655, "oker": 10656, " pride": 10657, " guards": 10658, " interpretation": 10659, " Venezuel": 10660, " yeah": 10661, "\u00ef\u00bc": 10662, "hr": 10663, " Mun": 10664, " removing": 10665, " orbit": 10666, "Gl": 10667, " Independent": 10668, " lin": 10669, " profound": 10670, " Writ": 10671, "ipedia": 10672, "2012": 10673, " Pittsburgh": 10674, " compromise": 10675, " knife": 10676, " districts": 10677, " exclusively": 10678, " survived": 10679, " Source": 10680, " considerable": 10681, " stating": 10682, " engaging": 10683, " Could": 10684, " refuse": 10685, " bird": 10686, " characteristics": 10687, " Mountain": 10688, " Raj": 10689, " justify": 10690, "HP": 10691, " dominated": 10692, "QL": 10693, " 72": 10694, " prost": 10695, " briefly": 10696, " Nazi": 10697, "Gr": 10698, "bound": 10699, "arson": 10700, " Rest": 10701, " chip": 10702, " ministers": 10703, " electron": 10704, "rend": 10705, " tremendous": 10706, " contrary": 10707, " gri": 10708, " sustainable": 10709, "Share": 10710, " loaded": 10711, " flour": 10712, " disappear": 10713, " nervous": 10714, " routes": 10715, "orneys": 10716, " proportion": 10717, "otte": 10718, " sophistic": 10719, "attered": 10720, " executed": 10721, "ocated": 10722, " 800": 10723, " Duke": 10724, " asylum": 10725, "utter": 10726, " Everyone": 10727, " gameplay": 10728, " sexually": 10729, "700": 10730, "Thank": 10731, "Hey": 10732, "amine": 10733, " pir": 10734, " donors": 10735, " Bu": 10736, " confusion": 10737, " Dream": 10738, " revolutionary": 10739, "cap": 10740, " Aaron": 10741, "elve": 10742, " Andy": 10743, "Ag": 10744, " curious": 10745, " Treasury": 10746, " harsh": 10747, "limited": 10748, "lihood": 10749, "income": 10750, "KE": 10751, " attending": 10752, " Adams": 10753, "immer": 10754, " IM": 10755, "\u00c3\u00a8": 10756, "security": 10757, "UC": 10758, " speakers": 10759, " cabinet": 10760, "\u00c3\u00b3n": 10761, "reek": 10762, " nowhere": 10763, " flee": 10764, " void": 10765, " brands": 10766, " chronic": 10767, " printed": 10768, " Tesla": 10769, "oub": 10770, " charging": 10771, " engines": 10772, "reck": 10773, " physics": 10774, " Having": 10775, " concert": 10776, " Alp": 10777, "scar": 10778, "function": 10779, " Sheriff": 10780, "inge": 10781, " outcomes": 10782, " Aren": 10783, " Officer": 10784, "MAN": 10785, "ublished": 10786, "olid": 10787, " Mult": 10788, " orient": 10789, " mirror": 10790, "inst": 10791, " strengthen": 10792, " Gib": 10793, "thood": 10794, " Jun": 10795, " fails": 10796, " spo": 10797, " obser": 10798, " chaos": 10799, ".]": 10800, " passenger": 10801, " iPad": 10802, " criminals": 10803, " Current": 10804, " fel": 10805, " Spir": 10806, " steady": 10807, " lobb": 10808, " Robinson": 10809, " Nether": 10810, "merce": 10811, " \u00c2\u00b1": 10812, " robust": 10813, " Manhattan": 10814, " CON": 10815, "white": 10816, "IE": 10817, " endors": 10818, " speculation": 10819, " Change": 10820, " Short": 10821, "reshold": 10822, " certific": 10823, " deemed": 10824, " Taliban": 10825, " dropping": 10826, " hiring": 10827, " Norm": 10828, " Giants": 10829, " Singapore": 10830, "Cor": 10831, " integrated": 10832, " Perry": 10833, " presents": 10834, " avo": 10835, " Band": 10836, " FA": 10837, " guaranteed": 10838, "apper": 10839, " fert": 10840, " epic": 10841, " leaked": 10842, " Ts": 10843, " Kings": 10844, " packages": 10845, "mble": 10846, " pleasure": 10847, "BN": 10848, "opt": 10849, " suspension": 10850, " challenged": 10851, " packed": 10852, " checking": 10853, "\u00e0\u00b8": 10854, " bits": 10855, "good": 10856, " vit": 10857, " engagement": 10858, " Kit": 10859, " radiation": 10860, " slot": 10861, "leep": 10862, " bombing": 10863, " patri": 10864, " da": 10865, " alert": 10866, "Pal": 10867, "istle": 10868, " Hu": 10869, " wet": 10870, "rics": 10871, " hunting": 10872, " Tel": 10873, " USB": 10874, "riv": 10875, "\u00c4\u0081": 10876, " produces": 10877, " witnesses": 10878, " Craig": 10879, "ophob": 10880, " Pant": 10881, " editorial": 10882, " defended": 10883, " recovered": 10884, " Holy": 10885, " Rou": 10886, "mented": 10887, "Red": 10888, " developments": 10889, " simultaneously": 10890, " boom": 10891, " Log": 10892, " bacteria": 10893, " blocking": 10894, " Later": 10895, " 59": 10896, " attracted": 10897, "Br": 10898, " 66": 10899, "Car": 10900, " figured": 10901, " Opp": 10902, " Hung": 10903, " correl": 10904, " alliance": 10905, " researcher": 10906, " taxpayers": 10907, " Entertainment": 10908, " Les": 10909, " None": 10910, " caps": 10911, "card": 10912, " Jeremy": 10913, " hosts": 10914, " cinem": 10915, " patent": 10916, " Russians": 10917, " examine": 10918, "izarre": 10919, "ATCH": 10920, " Future": 10921, " variables": 10922, "ERE": 10923, " Lincoln": 10924, "ifier": 10925, " oxy": 10926, " embed": 10927, "imb": 10928, " junior": 10929, "lynn": 10930, "ateful": 10931, "Black": 10932, "uter": 10933, " Chairman": 10934, " publish": 10935, " Tower": 10936, "JP": 10937, " tear": 10938, " Gh": 10939, "oned": 10940, " 62": 10941, " meth": 10942, " Vlad": 10943, "DR": 10944, "gly": 10945, "dep": 10946, " vent": 10947, " Poland": 10948, " Ukrainian": 10949, " Studies": 10950, "adesh": 10951, "gged": 10952, "Right": 10953, " enact": 10954, "may": 10955, " Dak": 10956, " flights": 10957, "omic": 10958, " accuracy": 10959, " Bor": 10960, " flav": 10961, " distribut": 10962, " los": 10963, " impacts": 10964, " surprisingly": 10965, " solo": 10966, " raises": 10967, " burned": 10968, " ric": 10969, "dam": 10970, " Sci": 10971, " angle": 10972, "secutive": 10973, " breast": 10974, " Would": 10975, " evac": 10976, " qualified": 10977, " Stewart": 10978, " decrease": 10979, "town": 10980, " CPU": 10981, "nie": 10982, "vas": 10983, " evolved": 10984, " flavor": 10985, "olitical": 10986, "imir": 10987, " unnecess": 10988, " assemb": 10989, " Total": 10990, " intimid": 10991, " courtesy": 10992, " OR": 10993, " fingers": 10994, " MPs": 10995, "rition": 10996, " productive": 10997, "df": 10998, " voc": 10999, " blamed": 11000, "etheless": 11001, " HIV": 11002, " dependent": 11003, " expecting": 11004, " transferred": 11005, " Rangers": 11006, "bul": 11007, " enabled": 11008, " identical": 11009, " visits": 11010, " expects": 11011, " lane": 11012, "dict": 11013, " Gill": 11014, " ignor": 11015, " accord": 11016, " Griff": 11017, " Wi": 11018, " Ub": 11019, "terror": 11020, "ishers": 11021, "Book": 11022, "anim": 11023, " venture": 11024, " CC": 11025, " barg": 11026, " shops": 11027, " departure": 11028, " Command": 11029, " Mississ": 11030, " killer": 11031, " repeal": 11032, " motivated": 11033, " strip": 11034, " restore": 11035, " agreements": 11036, " conflicts": 11037, "thodox": 11038, " organis": 11039, " scared": 11040, " Du": 11041, " forgotten": 11042, " Think": 11043, "iden": 11044, "icked": 11045, "ulse": 11046, "bian": 11047, " inher": 11048, " nationwide": 11049, " Edition": 11050, " cycl": 11051, " influenced": 11052, " criteria": 11053, "ernand": 11054, " occupied": 11055, " animation": 11056, " BC": 11057, " trailer": 11058, " ranking": 11059, " Pope": 11060, " Ni": 11061, " Should": 11062, " Things": 11063, " `": 11064, "ahoo": 11065, " backs": 11066, " telephone": 11067, " occasion": 11068, "TO": 11069, "about": 11070, "unity": 11071, " analys": 11072, " Reddit": 11073, " functionality": 11074, " checked": 11075, " concentration": 11076, " Model": 11077, "looking": 11078, " households": 11079, "link": 11080, " reass": 11081, "onduct": 11082, " algorithm": 11083, " courage": 11084, "rah": 11085, "ressing": 11086, " Support": 11087, " promoted": 11088, " Hug": 11089, " imprison": 11090, "aments": 11091, " explicitly": 11092, " batter": 11093, " desp": 11094, " babies": 11095, " tanks": 11096, " ought": 11097, " static": 11098, " Product": 11099, "oup": 11100, " releasing": 11101, " antib": 11102, " Place": 11103, "rike": 11104, " subtle": 11105, "Former": 11106, "arted": 11107, "ILL": 11108, " stats": 11109, " bases": 11110, " doct": 11111, "large": 11112, "uating": 11113, "\u00e2\u0094\u0080\u00e2\u0094": 11114, "agine": 11115, " privilege": 11116, " Jerry": 11117, "MB": 11118, " Moreover": 11119, " Warner": 11120, " NO": 11121, " meters": 11122, " entrance": 11123, "aco": 11124, "ippi": 11125, " nod": 11126, " tower": 11127, " investigated": 11128, "Three": 11129, " senators": 11130, "zone": 11131, "iere": 11132, " Cold": 11133, " Canadians": 11134, " hub": 11135, " wise": 11136, " overl": 11137, " Eb": 11138, " applies": 11139, " formula": 11140, " Standard": 11141, "ollar": 11142, " Egyptian": 11143, " Christopher": 11144, " mart": 11145, " inevitable": 11146, "breaking": 11147, " uncertainty": 11148, " provider": 11149, "actor": 11150, " painting": 11151, " continu": 11152, " modest": 11153, " lens": 11154, " influential": 11155, " destination": 11156, " Queens": 11157, " Map": 11158, "izations": 11159, "forward": 11160, "\",\"": 11161, " chips": 11162, "being": 11163, "Supp": 11164, " ally": 11165, " infection": 11166, " dimin": 11167, "leading": 11168, " Univers": 11169, " jet": 11170, "kes": 11171, " solely": 11172, " belt": 11173, " screw": 11174, " inaug": 11175, " 63": 11176, " insist": 11177, "Good": 11178, "Yeah": 11179, " TR": 11180, " Niger": 11181, " theft": 11182, "uccess": 11183, " Marg": 11184, " politician": 11185, " Alaska": 11186, " transparency": 11187, " PlayStation": 11188, " invested": 11189, " singer": 11190, " immune": 11191, " Ottawa": 11192, " provisions": 11193, "istance": 11194, " py": 11195, " Stock": 11196, " handled": 11197, "overs": 11198, " uncomfort": 11199, " Jane": 11200, "ampa": 11201, " Olympics": 11202, " Louisiana": 11203, " impressed": 11204, " inbox": 11205, " Oil": 11206, " operator": 11207, "SD": 11208, "ardo": 11209, "untu": 11210, " Netherlands": 11211, "Em": 11212, " balls": 11213, " tent": 11214, "ilation": 11215, " colleg": 11216, " Kr": 11217, " similarly": 11218, " lifestyle": 11219, "comp": 11220, " headlines": 11221, "idal": 11222, "offs": 11223, "olas": 11224, " boards": 11225, "rifice": 11226, "?)": 11227, " Trek": 11228, " disabled": 11229, "thur": 11230, "ixel": 11231, " Stanley": 11232, "Bar": 11233, " operated": 11234, " regarded": 11235, " Type": 11236, " launching": 11237, " SN": 11238, " reluct": 11239, " Exp": 11240, "achment": 11241, "Down": 11242, " Mother": 11243, "wall": 11244, " bol": 11245, " Drug": 11246, " photographs": 11247, " volunt": 11248, "such": 11249, " kidn": 11250, "?\u00e2\u0080\u0099": 11251, " sake": 11252, "citation": 11253, " keen": 11254, "iar": 11255, "track": 11256, " detention": 11257, " consecutive": 11258, "rc": 11259, "Obama": 11260, " gym": 11261, " Unlike": 11262, "inite": 11263, "var": 11264, "million": 11265, ").[": 11266, " Blood": 11267, " prosecutor": 11268, " filter": 11269, " Da": 11270, " prosecution": 11271, "keley": 11272, " suck": 11273, "anguage": 11274, " conviction": 11275, "uther": 11276, " earthqu": 11277, " rolled": 11278, " kiss": 11279, " Table": 11280, "oning": 11281, "erald": 11282, "armed": 11283, "ista": 11284, " Modi": 11285, " Corporation": 11286, "aha": 11287, " Caption": 11288, "tarian": 11289, " Corp": 11290, "bitious": 11291, " bulk": 11292, " Hampshire": 11293, "first": 11294, " males": 11295, " FO": 11296, "Jo": 11297, " unre": 11298, " inex": 11299, " tears": 11300, " tragedy": 11301, "llor": 11302, " chocolate": 11303, " mouse": 11304, " poet": 11305, "lean": 11306, " preserve": 11307, "ige": 11308, " Tam": 11309, " guidance": 11310, " Father": 11311, " Being": 11312, " leak": 11313, " Philippines": 11314, "Bel": 11315, " Forest": 11316, "urches": 11317, "assion": 11318, " bags": 11319, " nu": 11320, " Several": 11321, " reck": 11322, "block": 11323, " destro": 11324, " examined": 11325, " synd": 11326, " accepting": 11327, " elabor": 11328, " missiles": 11329, "Further": 11330, " absurd": 11331, " beneath": 11332, " neur": 11333, " participating": 11334, "vironments": 11335, "bes": 11336, " 1000": 11337, " Hans": 11338, " neighborhoods": 11339, "ucker": 11340, " Stanford": 11341, " compelling": 11342, " reflects": 11343, " complained": 11344, " Wy": 11345, "\u0080\u00e2\u0094\u0080": 11346, " adap": 11347, " bother": 11348, " controller": 11349, " luxury": 11350, " Victoria": 11351, " Marc": 11352, " Edit": 11353, "tex": 11354, " Morm": 11355, "aya": 11356, "laim": 11357, " theater": 11358, " Mario": 11359, " enfor": 11360, " Nelson": 11361, " shelter": 11362, "stra": 11363, "rying": 11364, "boys": 11365, " fer": 11366, "rin": 11367, " Medicare": 11368, " Cloud": 11369, "speed": 11370, " fits": 11371, " Grant": 11372, "vo": 11373, " Medicaid": 11374, " jurisd": 11375, "mons": 11376, "ouses": 11377, " poster": 11378, "usting": 11379, " </": 11380, "bat": 11381, " Knight": 11382, " consists": 11383, "\u00e2\u0080\u009d)": 11384, "opp": 11385, " pose": 11386, " significance": 11387, " polling": 11388, " Film": 11389, " stopping": 11390, " occasions": 11391, "neg": 11392, " bone": 11393, " DE": 11394, " Tokyo": 11395, " Rubio": 11396, " Cas": 11397, " wireless": 11398, " realistic": 11399, " excuse": 11400, " Local": 11401, "Among": 11402, " ..": 11403, "friendly": 11404, "Each": 11405, " Imm": 11406, " Chron": 11407, " tension": 11408, " accompanied": 11409, " seeks": 11410, " Gard": 11411, " backup": 11412, "otion": 11413, "asm": 11414, " resemb": 11415, " mandate": 11416, " Had": 11417, " theoret": 11418, " Pa": 11419, " Continue": 11420, "orate": 11421, "fish": 11422, " assists": 11423, " possibilities": 11424, " Quest": 11425, " Winter": 11426, " beta": 11427, " accusations": 11428, "iah": 11429, " advent": 11430, " cooking": 11431, " CR": 11432, " Champions": 11433, " Abu": 11434, " supposedly": 11435, " inhab": 11436, "ping": 11437, " Snowden": 11438, " emphasis": 11439, " finishing": 11440, " Dal": 11441, " Sport": 11442, " sustained": 11443, "Perhaps": 11444, "cat": 11445, " Malays": 11446, " beaten": 11447, " SEC": 11448, " bump": 11449, "itement": 11450, " Pear": 11451, "iper": 11452, " dressed": 11453, " awards": 11454, " projected": 11455, "isms": 11456, " Nothing": 11457, " torn": 11458, " innovative": 11459, " Everything": 11460, " Mind": 11461, " affects": 11462, " Bir": 11463, " polar": 11464, " Abd": 11465, " preventing": 11466, " constructed": 11467, " Flash": 11468, " Ka": 11469, "bery": 11470, " longtime": 11471, "ATION": 11472, "thal": 11473, "Following": 11474, " Section": 11475, "tech": 11476, " fucking": 11477, " Vin": 11478, " eru": 11479, " garden": 11480, " 360": 11481, "IO": 11482, " Organization": 11483, " speeds": 11484, " fed": 11485, " operators": 11486, "ilst": 11487, " gut": 11488, " Financial": 11489, " drum": 11490, " manual": 11491, " outstanding": 11492, " password": 11493, " mortgage": 11494, " Hamas": 11495, " entity": 11496, " recession": 11497, "cott": 11498, " Nich": 11499, " Python": 11500, "una": 11501, " wisdom": 11502, " Steam": 11503, " Nature": 11504, " documented": 11505, " traded": 11506, " intrig": 11507, " IV": 11508, " golf": 11509, " Jimmy": 11510, " occupation": 11511, " Kurdish": 11512, " oldest": 11513, " fut": 11514, " documentation": 11515, " favourite": 11516, "iox": 11517, " praised": 11518, " residential": 11519, "incial": 11520, " spotted": 11521, " cops": 11522, "century": 11523, "ugby": 11524, " revenues": 11525, " Commons": 11526, " Third": 11527, " layers": 11528, " walks": 11529, "olitan": 11530, " MA": 11531, " interactions": 11532, " Patriots": 11533, " surge": 11534, "charg": 11535, " bicy": 11536, " awful": 11537, " panels": 11538, " ther": 11539, " calculated": 11540, "ega": 11541, " Dom": 11542, " infant": 11543, " circuit": 11544, "cular": 11545, "iated": 11546, " experimental": 11547, " 67": 11548, "rons": 11549, "\u00e2\u0082\u00ac": 11550, "DC": 11551, " renewable": 11552, "ques": 11553, " automatic": 11554, " CL": 11555, " mysterious": 11556, " dirty": 11557, "anyahu": 11558, " Lad": 11559, " trains": 11560, " Soft": 11561, " Others": 11562, " threshold": 11563, " tale": 11564, "Mon": 11565, " Nash": 11566, " 68": 11567, "err": 11568, " dealt": 11569, " Rh": 11570, " reviewed": 11571, " Kal": 11572, " 61": 11573, "\u00e2\u0096\u0088": 11574, "lied": 11575, " painful": 11576, " globe": 11577, " Citiz": 11578, "leted": 11579, "irs": 11580, "mn": 11581, " coin": 11582, " trips": 11583, " True": 11584, " Airport": 11585, "requ": 11586, "ects": 11587, " Wayne": 11588, " cleared": 11589, "omer": 11590, " Fle": 11591, " earnings": 11592, "~~": 11593, "ello": 11594, "arded": 11595, "Ben": 11596, " crossed": 11597, " administrative": 11598, " convenient": 11599, " graphic": 11600, " riders": 11601, "lli": 11602, " Emer": 11603, " Nik": 11604, " lady": 11605, " liberty": 11606, " ranging": 11607, " bizarre": 11608, " pour": 11609, " iter": 11610, "uto": 11611, " org": 11612, " hes": 11613, "former": 11614, " displays": 11615, " iconic": 11616, " environments": 11617, " robots": 11618, " mothers": 11619, "China": 11620, " hosting": 11621, " ambitious": 11622, " 1988": 11623, "ding": 11624, "owder": 11625, "seless": 11626, " desert": 11627, "beat": 11628, " reserve": 11629, " secular": 11630, " sentiment": 11631, " predec": 11632, "Ps": 11633, " McDonald": 11634, "isive": 11635, "jamin": 11636, "Only": 11637, " converted": 11638, " Climate": 11639, " tissue": 11640, " Murphy": 11641, " Larry": 11642, ">>>": 11643, " tum": 11644, " AFP": 11645, " FOR": 11646, " drops": 11647, " Dean": 11648, " Deep": 11649, "shore": 11650, "kind": 11651, "Did": 11652, " exploit": 11653, "words": 11654, " Reds": 11655, " Summer": 11656, " creator": 11657, " resort": 11658, " addressing": 11659, " anch": 11660, " sons": 11661, " safely": 11662, " hiding": 11663, " attorneys": 11664, "\u00c3\u00a5": 11665, " devastating": 11666, "Mart": 11667, " Sin": 11668, "EMENT": 11669, "two": 11670, " spray": 11671, " sleeping": 11672, "uably": 11673, " crossing": 11674, " pension": 11675, " Sac": 11676, " restricted": 11677, " arrests": 11678, " wore": 11679, " scrutiny": 11680, "ICE": 11681, " unfortunately": 11682, "puter": 11683, "uj": 11684, " burst": 11685, " Pir": 11686, " Tan": 11687, " libraries": 11688, " departments": 11689, " murdered": 11690, " competitors": 11691, " Whit": 11692, " Drive": 11693, " whis": 11694, " align": 11695, "phan": 11696, " container": 11697, " availability": 11698, " newsletters": 11699, " filing": 11700, " Singh": 11701, "kward": 11702, " adoption": 11703, "ailing": 11704, " newspapers": 11705, " misc": 11706, "pin": 11707, "bet": 11708, "atter": 11709, " productivity": 11710, " toss": 11711, " reign": 11712, " builds": 11713, " SE": 11714, " discrimin": 11715, " pregnancy": 11716, " NS": 11717, "celona": 11718, " overnight": 11719, " indication": 11720, " appearing": 11721, "oyd": 11722, "arians": 11723, " publisher": 11724, " earning": 11725, "ighting": 11726, " combine": 11727, "count": 11728, " viewing": 11729, " duties": 11730, "evelop": 11731, "ASH": 11732, " Manning": 11733, " mm": 11734, " fishing": 11735, " reflected": 11736, "oj": 11737, "isode": 11738, "arios": 11739, " uncomfortable": 11740, " Magazine": 11741, " tu": 11742, " regret": 11743, "government": 11744, " municipal": 11745, " Furthermore": 11746, " Ent": 11747, "named": 11748, "data": 11749, "Check": 11750, "gence": 11751, " Native": 11752, "agu": 11753, "dev": 11754, "UD": 11755, " horrible": 11756, "bably": 11757, "oop": 11758, " chemicals": 11759, " relie": 11760, " anonym": 11761, " cave": 11762, "accept": 11763, " separated": 11764, "Maybe": 11765, "uels": 11766, " sophisticated": 11767, "World": 11768, "oria": 11769, " rivals": 11770, " rewards": 11771, " Fig": 11772, " viable": 11773, " deserves": 11774, " pricing": 11775, " acted": 11776, " Phys": 11777, " Wiki": 11778, " relatives": 11779, " indu": 11780, " Mand": 11781, " winners": 11782, " recept": 11783, " Madrid": 11784, " slide": 11785, " preparation": 11786, "version": 11787, " equipped": 11788, " ritual": 11789, " limitations": 11790, " Chrome": 11791, " Inn": 11792, "ernel": 11793, " 1984": 11794, " complexity": 11795, " amongst": 11796, " Ronald": 11797, " ==": 11798, " mechanisms": 11799, " peer": 11800, " commod": 11801, "lesh": 11802, " parameters": 11803, " Federation": 11804, " firearms": 11805, " carrier": 11806, " bip": 11807, " tob": 11808, " Naz": 11809, "size": 11810, " suggestions": 11811, "gal": 11812, "iors": 11813, " delayed": 11814, " Na": 11815, " HTML": 11816, " Blu": 11817, " exploring": 11818, " meets": 11819, "winning": 11820, " toug": 11821, " 1986": 11822, " coord": 11823, "tit": 11824, " Taiwan": 11825, " lighting": 11826, " curve": 11827, " startup": 11828, "eller": 11829, " Collins": 11830, "emit": 11831, " intelligent": 11832, "Unfortunately": 11833, " ghost": 11834, " celebrated": 11835, " Mississippi": 11836, " abund": 11837, " cease": 11838, "arer": 11839, " interven": 11840, "burn": 11841, "/.": 11842, " quietly": 11843, " ensuring": 11844, " Poll": 11845, "XX": 11846, "ATED": 11847, " rebel": 11848, " Luke": 11849, " nights": 11850, "map": 11851, "quer": 11852, " collecting": 11853, "2011": 11854, " translation": 11855, " worlds": 11856, " detained": 11857, " orange": 11858, " McCon": 11859, "profile": 11860, "DAY": 11861, " beef": 11862, " employer": 11863, " DVD": 11864, " Level": 11865, "Pat": 11866, " Bab": 11867, " radar": 11868, "White": 11869, " installation": 11870, " Block": 11871, " delivering": 11872, "avery": 11873, " designated": 11874, " coins": 11875, "Michael": 11876, " migration": 11877, " debates": 11878, " );": 11879, "THE": 11880, " pledge": 11881, " Melbourne": 11882, "oda": 11883, " catast": 11884, " Sex": 11885, " EC": 11886, " grants": 11887, " caution": 11888, " offseason": 11889, " notably": 11890, " bugs": 11891, " tablet": 11892, "hyth": 11893, "fi": 11894, " themes": 11895, "RO": 11896, "uates": 11897, "emin": 11898, " Express": 11899, " wrap": 11900, "ori": 11901, "natural": 11902, " golden": 11903, " delegates": 11904, "gov": 11905, "Advertisements": 11906, " courses": 11907, "\u00e2\u0080\u00b3": 11908, " countless": 11909, " Disc": 11910, " Eagles": 11911, "aman": 11912, " witnessed": 11913, " gradually": 11914, " Quebec": 11915, "alid": 11916, " commands": 11917, " Cuba": 11918, "code": 11919, " Coalition": 11920, "media": 11921, " tends": 11922, " Smart": 11923, " violated": 11924, " meanwhile": 11925, " psychiat": 11926, " demonstration": 11927, "pot": 11928, " demo": 11929, " Crit": 11930, " Pod": 11931, "formance": 11932, " commentary": 11933, "witzer": 11934, " Swedish": 11935, " annually": 11936, " forb": 11937, " pending": 11938, "onds": 11939, " Heat": 11940, " observations": 11941, " thro": 11942, " Nap": 11943, "orical": 11944, "athon": 11945, " Saint": 11946, "oples": 11947, "ersion": 11948, "arently": 11949, " Toy": 11950, "\u00e2\u0080\u0099\u00e2\u0080": 11951, "arma": 11952, " remembered": 11953, " fires": 11954, " questioning": 11955, "rencies": 11956, " climb": 11957, "FS": 11958, " laptop": 11959, "rup": 11960, " verify": 11961, " impose": 11962, " highlighted": 11963, " replacing": 11964, " corn": 11965, " Lady": 11966, " seeds": 11967, " contents": 11968, " hunt": 11969, " preview": 11970, "elcome": 11971, "Media": 11972, "\u0099\u00e2\u0080\u0099": 11973, " frustration": 11974, " Marshall": 11975, " discipline": 11976, " patrol": 11977, " supplement": 11978, " poorly": 11979, "onda": 11980, "udeau": 11981, " comed": 11982, " grave": 11983, " Progress": 11984, " praise": 11985, " Peace": 11986, " Arts": 11987, " furn": 11988, " bathroom": 11989, " Pel": 11990, "rait": 11991, " actress": 11992, " aspir": 11993, " happiness": 11994, " Ky": 11995, " exploration": 11996, " gentle": 11997, " Round": 11998, " cruel": 11999, " Lions": 12000, "omach": 12001, " starter": 12002, "outing": 12003, " Hunter": 12004, " prevented": 12005, " Blake": 12006, " chamber": 12007, " Len": 12008, " Ward": 12009, " prayer": 12010, " cultiv": 12011, " Storm": 12012, " venue": 12013, " permitted": 12014, " instantly": 12015, " oxygen": 12016, "War": 12017, " Huff": 12018, " altogether": 12019, "urities": 12020, "atal": 12021, "Republic": 12022, " bonds": 12023, " ambassador": 12024, " Beat": 12025, " Motor": 12026, ".),": 12027, " arena": 12028, "ugs": 12029, " conced": 12030, " Berkeley": 12031, " Mas": 12032, " disappeared": 12033, " planes": 12034, " 76": 12035, " technological": 12036, "Min": 12037, "string": 12038, "file": 12039, "shot": 12040, "ierre": 12041, " suggestion": 12042, " Roger": 12043, " Ay": 12044, " partially": 12045, " agriculture": 12046, " Ow": 12047, "anches": 12048, " unl": 12049, " dil": 12050, " drinks": 12051, "ocur": 12052, " Campbell": 12053, "flow": 12054, " Fergus": 12055, " sizes": 12056, "Twitter": 12057, " incorrect": 12058, " protections": 12059, " FR": 12060, "hill": 12061, " fascinating": 12062, " Environmental": 12063, " Christianity": 12064, "group": 12065, " vaccine": 12066, " Hawaii": 12067, " Additionally": 12068, " logical": 12069, " Hann": 12070, " parks": 12071, " Much": 12072, "aucus": 12073, " styles": 12074, "atical": 12075, " supporter": 12076, " honestly": 12077, " adj": 12078, " alike": 12079, " Laur": 12080, "appropriate": 12081, " NCAA": 12082, " prol": 12083, " tobacco": 12084, " marginal": 12085, " Gene": 12086, "encer": 12087, " summary": 12088, " toll": 12089, "ologically": 12090, " Var": 12091, " flew": 12092, " Gre": 12093, " Kickstarter": 12094, " advised": 12095, " Gab": 12096, " hearts": 12097, " compr": 12098, " singing": 12099, "Leaks": 12100, " wound": 12101, "Their": 12102, " appointment": 12103, " Qual": 12104, " Forces": 12105, " Congressional": 12106, " ethics": 12107, "ttes": 12108, " stunning": 12109, " tar": 12110, "esides": 12111, " Jen": 12112, " capability": 12113, " Mitchell": 12114, " transmission": 12115, " enterprise": 12116, " Vladimir": 12117, "ctive": 12118, " metaph": 12119, "chron": 12120, "bu": 12121, " Speaker": 12122, " prosper": 12123, " powered": 12124, " blast": 12125, " Manager": 12126, " reactions": 12127, "ivan": 12128, " Editor": 12129, " essay": 12130, " electrical": 12131, " cous": 12132, "pling": 12133, "py": 12134, " stressed": 12135, " haz": 12136, "start": 12137, " Todd": 12138, " faculty": 12139, " makers": 12140, " Corps": 12141, " ash": 12142, " Arena": 12143, "sk": 12144, " ceiling": 12145, " sket": 12146, " derived": 12147, " Reid": 12148, " seventh": 12149, " Name": 12150, " mountains": 12151, " celebration": 12152, " rice": 12153, " pressing": 12154, " arguably": 12155, " drafted": 12156, " crown": 12157, " damn": 12158, " depos": 12159, "lected": 12160, " raid": 12161, " Jess": 12162, " Orange": 12163, " RT": 12164, " UI": 12165, "NT": 12166, " endless": 12167, "Fe": 12168, " Imp": 12169, " traveled": 12170, " complain": 12171, " Benn": 12172, " drones": 12173, " Sessions": 12174, " Commissioner": 12175, " Oxford": 12176, "TIS": 12177, " ineff": 12178, " Brus": 12179, " Row": 12180, "gments": 12181, " awkward": 12182, " bund": 12183, "orer": 12184, "witzerland": 12185, " applying": 12186, " Watson": 12187, " sacrifice": 12188, " accomplished": 12189, " shooter": 12190, " Bah": 12191, "gary": 12192, "('": 12193, " bubble": 12194, " weaken": 12195, "ults": 12196, "Take": 12197, " Flynn": 12198, " epid": 12199, "onia": 12200, " mechanics": 12201, " assumption": 12202, "aughters": 12203, " advocacy": 12204, " cats": 12205, " hostile": 12206, "ims": 12207, " breach": 12208, " revealing": 12209, "BL": 12210, " respective": 12211, " fract": 12212, "storm": 12213, "handed": 12214, "bie": 12215, " scratch": 12216, "Have": 12217, " Modern": 12218, "Several": 12219, " expertise": 12220, " Dakota": 12221, " devoted": 12222, "Second": 12223, "atoes": 12224, " Parker": 12225, "hol": 12226, " Indians": 12227, " Baker": 12228, " anarch": 12229, " circles": 12230, "mare": 12231, " strongest": 12232, "atin": 12233, " Rap": 12234, " Chall": 12235, "written": 12236, " focuses": 12237, "DE": 12238, "bles": 12239, "ipher": 12240, " shocking": 12241, " sword": 12242, " calendar": 12243, "uez": 12244, " audiences": 12245, " mic": 12246, " ---": 12247, " lone": 12248, " citizenship": 12249, " Kas": 12250, " buyers": 12251, "agraph": 12252, " confirmation": 12253, "utt": 12254, " Medicine": 12255, "WS": 12256, "uming": 12257, "Eng": 12258, "formed": 12259, " trucks": 12260, " 700": 12261, " particles": 12262, "idth": 12263, " frank": 12264, " acquisition": 12265, " conclusions": 12266, " computing": 12267, " sauce": 12268, "\u00e2\u0084": 12269, "sur": 12270, " Lawrence": 12271, "uerto": 12272, "oard": 12273, " unnecessary": 12274, " directors": 12275, "mid": 12276, "Data": 12277, "Bre": 12278, " rod": 12279, " lyr": 12280, " Date": 12281, " lineback": 12282, "actory": 12283, "GM": 12284, " penalties": 12285, " decor": 12286, "itate": 12287, "half": 12288, " spy": 12289, " longest": 12290, " responding": 12291, " Temple": 12292, "liver": 12293, "piece": 12294, "nor": 12295, "vol": 12296, "vious": 12297, "2010": 12298, "Hist": 12299, "itivity": 12300, "anded": 12301, " Find": 12302, "Men": 12303, " bitter": 12304, " ED": 12305, "brew": 12306, "byn": 12307, " stir": 12308, " Resp": 12309, " Hus": 12310, "ocus": 12311, "atre": 12312, " Dor": 12313, " historically": 12314, " entities": 12315, " Morris": 12316, " advertisement": 12317, " interrupt": 12318, " por": 12319, " addiction": 12320, " yard": 12321, " bears": 12322, " placing": 12323, " Yang": 12324, " contributing": 12325, " boundaries": 12326, "stan": 12327, " greet": 12328, " qualify": 12329, "jan": 12330, " Ferguson": 12331, " understands": 12332, " Sunn": 12333, " composition": 12334, " duration": 12335, "?'": 12336, " quantum": 12337, "borne": 12338, " Hotel": 12339, " conversion": 12340, " shake": 12341, " frustrated": 12342, "\u00d9\u0084": 12343, " coordinator": 12344, " Legisl": 12345, " operates": 12346, " orientation": 12347, "zes": 12348, " hacking": 12349, "mart": 12350, " Safety": 12351, " Prom": 12352, " Barcelona": 12353, "MM": 12354, " cam": 12355, " stun": 12356, "Given": 12357, " Roc": 12358, "PI": 12359, " Records": 12360, " priest": 12361, " feminist": 12362, "lements": 12363, " Hispan": 12364, " Jacob": 12365, "Inter": 12366, " 1987": 12367, "Big": 12368, "acular": 12369, "andy": 12370, "\u00e2\u0080\u00a6\u00e2\u0080": 12371, " distant": 12372, " motivation": 12373, " fastest": 12374, "minded": 12375, "boards": 12376, " grocer": 12377, " painted": 12378, " popul": 12379, " Ian": 12380, "Set": 12381, " Netanyahu": 12382, "umm": 12383, "outheast": 12384, " pedest": 12385, " FCC": 12386, "liminary": 12387, " overd": 12388, "connect": 12389, " Rain": 12390, "\u00a6\u00e2\u0080\u00a6": 12391, "IST": 12392, " node": 12393, " density": 12394, " UC": 12395, "PDATE": 12396, " oversight": 12397, " tunnel": 12398, " experiencing": 12399, " controlling": 12400, " counties": 12401, " Ry": 12402, " mild": 12403, " safer": 12404, " Hend": 12405, "La": 12406, " Song": 12407, " till": 12408, " vague": 12409, " 1979": 12410, " divide": 12411, " Fif": 12412, "fs": 12413, " BE": 12414, " Swiss": 12415, "Med": 12416, " transformation": 12417, " directions": 12418, "km": 12419, " receives": 12420, " sentences": 12421, " imperial": 12422, "dec": 12423, "\u00c2\u00b7": 12424, "Figure": 12425, " ugly": 12426, "leton": 12427, " suprem": 12428, " illegally": 12429, "Har": 12430, "comed": 12431, " probability": 12432, " intensity": 12433, " composed": 12434, "abling": 12435, "Euro": 12436, "acies": 12437, " enjoying": 12438, " Cos": 12439, "acer": 12440, "ogg": 12441, " Abbott": 12442, "western": 12443, " heaven": 12444, " dign": 12445, "supp": 12446, " Side": 12447, " mandatory": 12448, "specific": 12449, "ACK": 12450, " conservation": 12451, " achievement": 12452, " gaining": 12453, " Remember": 12454, " Bloomberg": 12455, " insane": 12456, " Against": 12457, " agricultural": 12458, " balanced": 12459, " lung": 12460, " 69": 12461, " condemned": 12462, " stomach": 12463, " 1985": 12464, " residence": 12465, " distinction": 12466, " Lie": 12467, " printing": 12468, " pione": 12469, " emerge": 12470, " prototype": 12471, " Beng": 12472, " Ca": 12473, " wings": 12474, "health": 12475, " spacecraft": 12476, " investing": 12477, " acceptance": 12478, "\u00c2\u0094": 12479, " 77": 12480, " touched": 12481, " Rice": 12482, " tune": 12483, " zomb": 12484, " toile": 12485, " Tea": 12486, " initiatives": 12487, " Building": 12488, " exchanges": 12489, "otypes": 12490, " scary": 12491, " pays": 12492,
[...]
